#version: 0.2 - Trained by `huggingface/tokenizers`
Ġ Ġ
; <
e r
i n
> <
o n
ĠĠ Ġ
r e
t e
e n
Ġ T
s e
o r
t i
s t
* *
r o
a r
l e
c e
a l
u n
ti on
a n
d e
ĠĠ ĠĠ
t h
} <
a s
) ;<
Ġ p
Ġ S
en d
{ $
t a
: =
Ġ c
Ġ F
** **
- -
e s
e t
i t
in g
l as
a m
c t
t r
g er
i c
b e
Ġ f
c tion
t er
l s
d u
, <
Ġ C
se s
I n
a te
y s
g in
st r
u a
Ġ o
ro ce
Ġ P
Ġ th
a d
te ger
C o
Ġ D
un ction
> {$
be gin
du re
roce dure
or se
Ġ in
H orse
Ġ =
r i
u l
las s
Ġ l
a g
t y
ĠĠ ĠĠĠ
b j
i s
ĠS ys
Ġ A
Ġ :=
te m
R e
r a
p e
u e
C on
Ġ re
c k
e l
i st
o u
e ct
in ter
Ġ L
c l
Ġ s
= =
-- --
**** ****
i f
/ /
f a
bj ect
Ġ G
t ro
Ġ w
fa ce
t o
Ġ b
i m
u ses
Ġin teger
Ġ end
) :
O bject
un it
v er
al l
U ti
str ing
ul t
or m
I N
Ġ d
inter face
R es
I F
Uti ls
a ta
Ġth e
Ġ I
o w
Ġp rocedure
a ck
D E
l ic
ĠSys tem
v ar
Ġ m
Ġ U
Ġ V
ĠĠĠĠ ĠĠĠĠ
a t
en t
Ġ '
an d
f unction
las ses
Ġo f
Ġ :
o de
s s
Ġ string
o o
p h
re ate
u b
O N
am e
o m
Ġ {$
Ġf unction
e m
( '
x t
i d
Ġ W
e d
Ġ de
ty pe
u t
g et
i le
ar am
i l
al ue
L ist
u s
tr ing
C all
a p
l o
b ack
or d
Ġl ua
T e
Call back
Co re
c on
p rocedure
IN E
) <
ub lic
F INE
i z
Ġ n
Ġ B
Con tro
in d
ĠT Horse
ra y
Ġ M
a tion
S t
le an
P ro
l er
== ==
b le
J S
oo lean
i re
ag e
JS ON
E N
Ġc lass
o g
Ġ if
Ġ (
---- ----
Ġ }<
Ġth en
c h
S ta
l ua
im p
Ġ //
ĠV cl
T y
ind ow
******** ********
iz e
Ġo ver
Ġre s
P a
Ġ In
ĠSys Utils
Re q
p er
s i
D A
F orm
C tr
l i
o t
P aram
e w
Ġres ult
Ġ a
le m
E x
ta tion
Ctr ls
V alue
Ġ un
p on
. <
ĠC lasses
v ate
c lass
Ġp ro
ic s
ĠC on
ri vate
indow s
es s
Ġ to
en tation
i al
' ,
T o
v i
o l
E n
u ct
Horse Core
u m
S tring
Ġ h
ra ph
EN D
te d
Ġ e
imp lem
Ġ begin
implem entation
o d
Res ult
D ata
Ġ {
C lass
Ġc on
con st
a se
ĠT G
D e
i b
Ġp ublic
Te st
C reate
In t
p tion
e y
str uct
Ġun i
S er
d d
re e
L ua
R A
R ou
P C
ĠD E
DE FINE
Co m
u r
ĠĠĠĠ ĠĠĠ
END IF
A p
T h
Ġ [
0 0
a re
si on
S et
M a
Ġb oolean
raph ics
Ġ u
F ile
i th
w ag
Co l
S E
Ġp rivate
Ġ Horse
re ad
se t
Ġ 1
Res pon
N ame
Respon se
re ss
Ġ is
ar ray
lo ad
ĠCon tro
Sta te
S ys
struct or
de cl
S wag
en er
ĠF ire
Ġc decl
ĠIn teger
DA C
T im
ĠFire DAC
C lasses
o un
i g
A r
O n
in t
t on
v e
ut ton
E R
Pa th
ue st
) .
ri te
Ġ t
K ey
in e
A dd
ou r
u st
Ġ array
u p
Ġ *
m ode
Ġ R
and ler
Ty pe
Req uest
Contro l
_ _
) );<
a y
ĠG et
ial og
] <
¿ ½
ï ¿½
Ġ 2
G et
t s
te n
ĠT B
Ġover load
vi ce
G RA
ĠD ata
' ;<
Ġf or
Ġ Result
de x
D B
T P
u al
ĠTHorse Callback
ar i
C h
==== ====
ĠS tring
Ġ E
de f
y te
Ġ -
i str
ph i
Swag ger
Pro c
f o
) ;
Ġ N
Ġ it
> //
i r
> {
er s
p es
' );<
A R
E S
Sys Utils
Ġ and
H T
ĠI HorseCore
r m
end er
ĠA Callback
us h
H e
FINE D
ĠDE FINED
ation s
Rou te
o du
Ġ 0
ĠF M
F PC
ri de
I d
h t
Ġ x
c ord
or y
ĠF orm
Tim e
ĠT D
Ar ray
o inter
per ty
U n
Th read
ialog s
ĠT Object
M ode
-------- --------
e c
O R
en se
odu le
I tem
t p
v ent
re am
cl ar
ĠP ublic
i x
} {$
ic ense
Ġre ad
o p
clar ations
w are
Re g
+ }<
ib u
Ġde clarations
JSON Object
) }<
A s
B Swagger
ĠP Lua
get Class
Q u
lua class
Ġover ride
getClass Object
Ġ i
ar t
ĠG raphics
w ord
U I
s er
ĠFM X
M O
f f
o x
a ble
u re
ĠT C
Ġw ith
M ess
Ty pes
Ġ or
li ent
Ap i
Contro ls
f t
el d
to p
Ġ <
d Ctrls
ĠL icense
I T
ĠA ss
i eld
a ct
ĠT h
In fo
Col or
I m
ĠS t
be l
ag es
Ġw rite
ust om
an g
ad d
MO DE
ap i
or t
a bel
istr ibu
p ush
in teger
e b
HT TP
Ġ g
our ce
re n
**************** ****************
re en
Ġ y
S c
r am
St ream
M em
d it
end if
Te xt
M odule
if def
ĠContro ls
ce ption
ĠW in
F ield
ĠT P
ï¿½ ï¿½
E vent
m b
r or
> ;
d er
e xt
Ġpro perty
p t
ĠForm s
ĠĠĠĠĠĠĠĠ ĠĠĠĠĠĠĠĠ
Ġw indows
an ts
Ġd o
In dex
Ġ be
S ender
y n
ĠĠĠĠ ĠĠĠĠĠ
DE F
Ġe x
ĠIHorseCore Route
A T
ĠC reate
Ġ O
C lient
B ase
er t
ĠAss ert
l l
E dit
ti c
Ġth is
Ġuni G
0 1
ro up
ĠG ener
and le
Ġn ot
3 2
il l
a c
t n
Ġ +
D ate
H andler
o ft
E r
In teger
ĠWin api
S tr
a st
h e
on g
Ġ st
Mode l
l ay
ES T
Ġ r
tr y
ĠS et
ta ble
In ter
He ad
6 4
Control ler
ĠTh is
oun d
oft ware
ar y
Int f
an el
xt Ctrls
Im age
u ire
re s
ĠD e
Ex ception
m ap
ou t
B it
u g
v el
s on
t tp
ĠT L
oun t
Ġf ile
uire d
Con s
Ġpro g
ĠB GRA
el se
Ġu se
B utton
ari ants
Ser vice
ti ty
M e
Ġ as
get top
Ġd istribu
Ġ Re
ver sion
is ten
Er ror
G roup
D L
l ist
d ata
l y
Ma in
Ġ an
Ġcon structor
f p
in c
P ar
Ġ var
IF DEF
u ff
Ġc om
ĠL ua
ĠuniG UI
N U
ĠT JSONObject
. .
i ti
Mess age
o re
o st
' ).
A N
I C
Ġb y
Req uired
Ġo bj
ist er
n e
Ġ v
ĠSt dCtrls
I D
w w
__ __
B ox
E L
l phi
v id
U R
o c
er sion
fp c
m a
ri d
ĠGener al
Ġprog ram
ul ta
ren t
Cons ulta
el phi
ĠG NU
Sta t
G ener
Ġ ;<
al se
ĠU n
C L
ĠT F
Ġp aram
ĠW indows
B yte
n il
St an
er y
en g
le ction
a ve
a o
i v
ĠD ialogs
b er
Ġ On
eng th
on t
ĠC om
ĠR EST
Ġobj fpc
m on
Ġ version
ro m
ow n
Ap p
Ġ j
iti al
Ġde lphi
L isten
r an
Qu ery
O r
o s
ta in
et ers
roce ss
Co un
Pro vid
======== ========
M od
st ro
Stat us
stro y
U ser
ar d
c ri
b ug
Ġ else
ĠB oolean
n d
ĠT Test
id th
Provid er
ou ble
ĠTTest HorseCore
h o
ĠD elphi
Ġl ist
Coun t
Ġre cord
Com p
N ew
S e
Horse Param
uff er
tr a
el f
C E
M en
an v
Ġl a
Contro le
Rou ter
i on
p ort
an ce
IN T
L P
T ree
th od
in al
Ġ* .
> =
Ġ on
EL SE
H I
ĠF ree
anv as
L E
d ate
ĠT List
Param s
S h
te xt
I ON
h andler
p en
i ew
Ġm a
G raphics
pon ent
ne ction
ĠTTestHorseCore Param
A P
q ual
ess ages
Co de
DA O
ĠContro le
Bit map
S ize
U T
p ut
ĠI d
ĠV alue
ĠTHorse Core
L og
e x
Ġ X
ĠE xtCtrls
Ġ .
G rid
f m
ti m
Par ty
Ġ us
de d
ra w
Pa ir
Mod al
: //
ig ht
Ġs oftware
Ser ial
H andle
E qual
n ame
is h
Form at
f orm
ĠĠĠĠ ĠĠ
ĠS e
Reg ister
Mem ory
l d
o int
t ual
an tity
ĠP rivate
V iew
op y
add ress
l n
ĠS elf
ing le
Ġlua class
V ersion
c ted
Ġm em
ĠDE LP
c reate
ĠDELP HI
c an
p date
y mb
Ġ se
Col lection
Inter face
A re
T able
Ġc reate
ĠP lua
D ialogs
M an
c om
g n
or k
ĠP rocedure
Un it
n er
W indows
Form s
Ġy ou
> ;<
D es
h er
Qu antity
G BSwagger
W eb
f rm
tro l
reen ode
Head er
Ġdistribu ted
Are Equal
U s
---------------- ----------------
Ġparam eters
Ġ 3
ard inal
I s
S S
W in
b o
Ġ get
um ber
c ol
Ġ Res
Ġ try
ĠM essages
Ġan y
i ted
ch ine
ymb ol
B tn
V ariants
c o
Ġ H
Ġ Ex
ĠT Thread
ĠOn e
N o
em on
a emon
Ġth at
Serial ize
c ount
u ari
Ġw ill
Ġd word
ĠTB GRA
b str
ĠA s
bstr act
: <
T Int
De f
i se
k e
ĠF PC
Ser ver
Un i
g e
et ter
Ġf p
ĠC h
n ew
r ame
ang e
T Form
ĠI GBSwagger
her ited
A u
s ize
JSON Array
Com mon
pe c
Add ress
ĠData Set
Men u
O bj
e ck
k ey
v al
Con nection
Collection s
D O
i de
Ġ "
Ġ J
Ġin herited
Ġb etter
tim e
uari o
C H
Ġ set
Mess ages
Date Time
Me thod
Ġ q
ĠT M
le te
P anel
a de
Ġp ointer
ĠIHorseCore Group
T E
ĠF HorseParam
ul d
Re ad
om e
St ar
0 2
i o
v alue
ĠT S
Ġf rm
lic ation
Ġbetter Controls
) ,
C ustom
W idth
Ġ al
Ġc h
St dCtrls
ĠTG List
Ch ar
push integer
lay er
) ]<
L ine
T Y
o a
Q L
T A
l tra
ĠT Proc
ĠT frm
ĠA N
Re al
ltra Star
N ot
ri g
ig n
D is
a z
e vel
n el
u te
or ld
el per
ĠW orld
ĠWorld Party
M id
se mb
it y
oo k
ti f
Ġm e
ish ed
R E
Ġw h
N et
v en
ĠT ext
A n
w in
Ġc an
tr ix
all y
' }<
u int
ti ve
le ct
ĠW eb
AN DL
a ch
m s
Ġ ^
un c
Ġs ize
at ch
ur rent
C O
U L
b oolean
r ue
li b
Ġh ttp
he ck
D own
Ma trix
Ġt reenode
Us uario
> }<
p l
ĠT R
De bug
a ger
ĠP ro
Ġcon st
A Callback
F rom
P O
Ġp tr
ĠP ointer
lo at
To String
ĠUn i
itial ize
B uffer
U pdate
Ġ Y
Ġ imp
ĠT Controle
ty le
ub l
Sc reen
ĠTL abel
Gener ic
1 1
r y
Ġc ardinal
ĠF Params
ĠL CL
ĠB utton
St art
cri ption
F F
f er
o ver
ĠF ile
to integer
Ma chine
ubl ished
b ox
i p
er data
at or
P h
T F
Ġ $
Ġp ublished
Ġs ingle
lo ck
ht tp
M P
o ck
er nel
Ġd ata
lic k
Tim er
am es
ĠM a
ho uld
) >=
> .
I G
ĠG BSwagger
ĠREST Request
semb ler
I L
ĠT Uni
tr ue
Ġn il
d le
n ap
ĠTG BSwagger
) ).
Ġ K
ĠD B
Ġs ys
ap p
F ont
m p
st ate
con structor
Ġn ew
ww w
C lick
d fm
Ġ le
push string
dle ware
N umber
e st
tr act
Ġd ar
ess oa
O ption
f ig
ou s
Ġs ource
Ġb ut
Uti l
Ġm od
A Path
R O
S tyle
Re cord
em o
Ġun der
ĠTC ustom
____ ____
Man ager
( <
V al
] .
Ġ En
Ġo bject
ec ute
OR D
er e
as k
ES S
L abel
c al
m o
w ork
as s
oo l
ĠSe e
A bstract
c all
ĠT String
Ġh ave
He ight
tain er
rig ht
p ro
p aram
on e
ĠT Form
Ġf ree
ac port
< >
H O
re g
Mid dleware
w ner
Ġb yte
ĠĠĠĠĠĠĠĠ ĠĠĠ
at as
li ed
AT ER
ĠCom Ctrls
Ph ys
A c
F unction
L o
T a
m d
en to
un d
lem ent
um er
Ġwith out
yn c
ANDL ATER
Ġdar win
S T
^ .
m em
s can
te cted
ad i
u x
ĠD atas
Ġst d
ĠDatas nap
P r
re cord
ro und
an t
Pa rent
ur n
F rame
H ttp
P ointer
P rocess
R un
or g
ĠV ariants
Get Value
* <
S QL
ce pt
ue ue
Res ource
Ch eck
ĠACallback s
Ġimp lied
Ġmod if
Ġ @
ĠD o
Ġde ta
Com ponent
ĠTB utton
Grid s
TA B
1 0
B ar
p a
Ġw ar
Ġpro tected
Set Value
Add Or
istr y
AR T
AddOr SetValue
T Object
i pe
Ġ ter
Ġc opy
Ġre d
con trol
Data Set
ith er
Consulta Modal
ĠTGBSwagger Model
b ar
et s
Ġf orm
Ġre al
ĠN ext
Common s
F ree
» ¿
ï »¿
in es
fa ult
EN T
Ġe ither
>{ <
, -
Ġm ore
******************************** ********************************
Q ueue
j son
ta table
ate d
Ġde structor
Ġy our
ï¿½ï¿½ ï¿½ï¿½
Gener ics
Ġus erdata
Def s
T it
] ;<
o si
Ġ address
am p
Con st
ĠN ew
ĠDe stroy
Ġptr uint
F A
m in
Ġ Register
Con tract
il d
00 0
ang ua
Ġme tatable
L ength
M S
i a
s um
Ġo ption
En try
istribu te
Text ure
ran ty
ach e
Ġstd call
Ġred istribute
J son
T Real
f alse
g ress
in dex
se d
ĠS oftware
Con fig
ot key
B ack
E xtCtrls
N I
r ary
le ase
ing s
vi r
RA N
ten t
Ġdistribu tion
Ġwar ranty
W indow
W ORD
i ls
m ent
ĠF ound
Ġs hould
ĠW AR
ĠY ou
a k
u gin
ce iv
ĠTHorse Response
ĠTHorse Request
File Name
F loat
f ul
in k
ĠT Api
as sembler
Ġn ame
ib rary
Ġ2 01
Api Listen
IT HO
ĠAN Y
ĠWAR RAN
ĠTApi Test
ITHO UT
' ));<
) =
R a
W AR
Ġ );<
Ġ ra
ar k
ord er
tif y
ĠFound ation
G L
Ġ 4
ĠC heck
ĠA p
ĠI f
ĠW ITHOUT
IT Y
W ith
ĠL az
Add Pair
ix el
Ġla ter
Ġdeta ils
vir tual
H elper
M E
M L
P ort
S end
o pe
Ġ INT
le s
Ġf in
ĠL Response
ĠL abel
CH AN
( );<
L ay
i te
Ġ ce
ĠA dd
Ġm acport
um n
SS L
Ġter ms
C ad
L IC
M A
Ġ 5
Ġ2 00
new Class
Ġsys tem
angua ge
P essoa
t urn
u tion
ĠF OR
ic tion
raph ic
Ġe ven
Ġ* }<
Ġuse ful
UR L
AP I
Ġmodif y
ĠWARRAN TY
u ti
Ġ ed
st ance
vi ew
Ch ange
ĠTHorseCore Route
ĠX E
o per
ĠS ta
am ma
ic k
Ġin ter
Re ct
Ġre fer
ĠU TF
================ ================
IL ITY
C anvas
N ESS
P Y
P l
V C
Ġ all
ĠT A
ti tem
ĠF IT
et er
ĠP UR
ĠP ART
ul o
is titem
im age
ĠM ER
ch ar
Ġh ope
able d
vel oper
IC UL
PO SE
TAB ILITY
WAR N
Ġfin ally
CHAN TABILITY
ĠFIT NESS
ĠPUR POSE
ĠPART ICUL
ĠMER CHANTABILITY
ĠPARTICUL AR
8 6
O pen
P A
c ode
k en
r s
gin al
ag em
Ġn umer
Pro gress
Ġh ere
De lete
Sh ow
1 2
P T
R IG
v ed
Ġ type
pe ed
Ġd is
File s
ĠN O
ec o
Ġwrite ln
ceiv ed
veloper s
' )]<
n ot
ĠA ll
Com bo
ran s
No tify
T rue
i ct
ĠF unction
Sta ck
Reg istry
Ġg l
osi tion
, '
Ġ struct
ĠT Color
In i
ĠA Value
Data Module
ĠSt art
ACallback s
Notify Event
C ur
C md
I S
P age
b al
b ase
m and
er vice
it ch
ul ti
Con tent
// //
imp le
Ġto o
En d
Mem o
ĠBGRA Bitmap
ĠLCL Intf
] );<
c am
i ag
n al
w itch
en ses
IN G
lic enses
iz ed
ĠM en
Ġq word
**************************************************************** ********
A S
A ll
ĠD ouble
ap tion
EN SE
En tity
ir st
Item s
cri pt
ymbol handler
LIC ENSE
uti ls
B O
G E
P E
ro ll
ul l
ĠG ame
ol ution
Image List
Ġla ux
Ġlaux lib
' )<
V ER
d s
ĠS tr
ĠC opy
ad er
Ġre ceived
Sc an
Ġr s
Ġse e
Resource s
RIG HT
A nd
g al
n t
n ing
p op
t ings
w rite
Ġin itialize
Con text
Ġn ames
De vice
ual ib
Ġit s
Ġex it
oc al
Ġmem ory
Des cription
Ġal ong
ĠButton s
ĠFile Util
iction ary
F unc
G I
J NI
O f
f ile
m ary
p ress
ĠT Edit
ti d
Con n
Ġs yn
ĠU INT
em a
To Str
AT ION
F Path
G B
M ENT
P ost
S ong
a u
o f
ĠS h
it map
ĠD WORD
ĠE Horse
ĠTD ate
ĠUn it
tain s
FA CE
ict ure
F HorseCore
T rans
a it
Ġ >
le d
Ġl ualib
ĠU ltraStar
ed id
ER FACE
Ġuse d
sum mary
D og
{ *<
Ġ unit
te s
ar ao
it Btn
Ġo ut
ĠL Resources
Ġd ouble
Ġde velopers
Str uct
App lication
ĠPro perty
ĠK arao
ĠKarao ke
/ >
K ernel
U ltraStar
W ord
c y
h andle
l ine
w ho
ĠT Stream
Ġf rom
ĠP lease
ĠL ist
Ġw ord
Ġn o
Ġcon trol
Byte s
Ġma th
gn u
CO PY
Ġle gal
MS I
Ġnumer ous
Ġinitialize Lua
/> .<
who se
COPY RIGHT
P L
g round
p oint
ĠT Service
ĠF P
lo se
ire ct
ĠTF rm
ĠOne Http
ĠNO T
D aemon
S ource
T C
le ar
**** **
Ġs ymbolhandler
ver t
Ġ// /
ĠAss ign
Ra ise
Ġra ise
w indows
ĠT W
ro ut
as ic
In put
il ter
Ex ten
Th e
Set tings
Sys tem
ir tual
1 3
E lement
p or
r adi
Ġ en
ro id
ĠC E
Ġa re
En der
Ġex cept
Me ta
Ġwh ile
5 5
F or
L e
W ill
c od
n o
s g
u es
Ġ }
ĠT Int
Ġs h
ol or
Ġx JSONObject
Ġdata set
86 01
B lock
n i
p o
re ak
ĠT DAO
ast ro
Interface s
iag ram
Kernel Handler
D raw
F HorseParam
b l
Ġ tem
Ġ at
er ror
th read
ĠL Value
JSON Value
On e
Ġcom mon
col umn
ĠTM D
MP LE
Ta b
ĠTDate Time
A t
P ut
Ġ app
Ġ virtual
as cal
Ġo wner
ĠV ersion
lo bal
Ġh e
Type Defs
ĠTThread Proc
Ġfp json
ĠAp p
ĠEHorse Exception
) )
r ush
Ġ _
ĠT User
ĠP ost
Ġl istitem
cl u
Ġcon tainer
ĠTG Matrix
Ma x
ass word
Cad astro
L Response
S yn
t ti
Ġ tr
ĠT JSONArray
Ġp ack
In stance
ĠP T
Ġm ust
Te am
To ken
od y
Ġ1 0
Not Required
ĠMen us
radi ent
Will Raise
p ar
Ġ id
Ġ Head
te st
ri m
DA pt
set table
val id
over load
ĠSta tic
ĠCopy right
MENT ATION
Ġcommon TypeDefs
MPLE MENTATION
9 9
I ter
P res
U N
d io
v ic
Ġ Exception
re f
ro w
ce ss
ĠP ut
ĠD ate
ĠI MPLEMENTATION
ess age
Path Response
-------------------------------- --------------------------------
Frame work
Ender eco
A L
B e
D P
N ode
N ext
b i
t xt
ĠT est
Ġl ast
Ġre g
Reg ist
he at
col or
With Message
Meta Data
2 01
2 02
A l
B GRA
S ION
T ra
U se
c a
d o
l a
v a
Ġ Z
ic h
Ġre n
ĠL ength
Ġw in
Ġof f
ĠIn ter
00 00
add MetaData
pro c
Tit ulo
C ase
E X
P ixel
V irtual
g r
p lay
s o
Ġ str
Ġ true
er ver
ĠT New
ar us
ĠA r
IF END
Ġa Id
reg ister
witch es
roid api
B ody
F ind
M ask
N DEF
p y
q u
s agem
w a
} ,
å Ī
Ġ Q
Ġre turn
IF NDEF
ĠB yte
En v
Th em
Reg ion
HTTP App
VER SION
Func Proc
WillRaise WithMessage
Ġren der
A DO
F act
l f
l ow
Ġ z
Ġ ************************************************************************
ar get
ĠA nd
Ġs witches
ĠĠĠĠĠĠĠĠ ĠĠĠĠĠ
Ġh as
De stroy
Th is
OR SE
ĠGener ics
Ġma x
ex ao
Machine Line
' s
o ad
Ġ time
st ream
ĠC lass
Ġb all
ĠĠĠĠĠĠĠĠ ĠĠĠĠ
at form
lo c
De fault
Com mand
ĠTHorseCallback Request
ren cy
Base Classes
ĠuniGUI Classes
ĠuniGUI Types
ĠuniGUI BaseClasses
Ġmem o
ide String
________ ________
Ġball ot
9 000
B asic
T L
p tr
in ed
en ame
ĠT Handle
th e
Co py
ch ema
are nt
On ly
ĠTD aemon
ĠINT ERFACE
D S
F a
P lay
P layer
S top
U IF
W IN
b yte
Ġ text
er min
en te
Ġc urrent
ag s
ĠL Service
Ġ' ';<
iz ation
Pro du
Ġa u
ur ar
ĠuniG UIF
tn rs
Str Utils
ĠuniGUI Abstract
Ġv alue
Ġfp HTTP
Lo gin
vic o
ĠuniGUIAbstract Classes
C S
P or
d raw
i ginal
y m
Ġ Key
an s
ĠS DL
ĠS ervice
ĠF Id
Ġf alse
ĠP a
Create d
push boolean
Sc roll
Ġlist column
ĠMa in
Ġinter face
ĠAnd roidapi
2 4
A O
M ag
N il
P er
T Controle
d h
l ugin
Ġ ar
Ġ Router
ĠS top
ĠF JSONObject
is i
ĠI m
ĠIn t
ĠTG Tree
ĠCh ar
ĠTGList Index
ĠTControle ConsultaModal
mo ve
cript or
rout ine
= ^
C GI
D ark
E G
V M
o v
Ġ #
ĠT rue
Ġre q
ĠL og
To p
ig h
ĠEx it
mp ty
ĠBGRABitmap Types
cod ing
F alse
I O
I con
O per
R et
f unc
i tion
ar ro
tr ibu
Ġs c
ĠI tem
Ser vico
ĠContro l
Ġcom p
Au dio
pec ial
Const ants
ĠNew KernelHandler
ADO DB
C aption
H ORSE
L evel
P ag
P os
P oint
U int
W S
] )
k ernel
m ount
Ġ /
ĠT NotifyEvent
th or
ta il
Ġc o
Ġc anvas
ĠF ind
ic on
ad o
ect or
tro ls
Ġb tn
ĠU Screen
Ġ' '
Ġe vent
ĠO FF
ĠRe ad
ĠSe lect
Au to
Le ft
Regist ro
202 1
( @
B y
M ulti
U SE
c ustom
g u
p s
ä ¸
re c
ĠT Request
le t
le cted
an co
Ġp t
bj s
ĠA n
ĠA Middleware
Ġj wa
Se lect
Des criptor
cam ento
C urrent
N e
S ub
b s
d Object
o es
{ <
er c
ĠT Tree
Ġth read
ou se
Ġde bug
li p
Param eter
Ex p
ĠCon structor
Ġx JSONArray
Ġ< >
data set
UT F
Interface dObject
co bjs
Pr inter
Combo Box
tid ade
Iter ation
Dark Mode
0 4
A D
S ymbol
T InterfacedObject
i es
n ow
r d
s or
Ġc heat
ĠC ount
ĠP ar
ĠL Object
ĠL Request
Ġs ome
if t
il er
En abled
Ġuni Button
Ġt dataset
>// /
Par se
TY PE
ĠAN D
Cur rency
C K
D ialog
D oc
D irect
F M
N ull
R ender
W rite
] ,
c s
e p
p u
u k
Ġ >=
on gin
ĠT y
ĠF T
ĠP B
Ġin dex
ri ver
Ġl ibrary
Ġw as
ch eck
ot Net
DB Grids
UI Types
ac oes
ĠControl ler
ongin t
E D
H otkey
L ib
L CL
M I
P edid
R R
S peed
U S
_ :
d l
Ġ %
ĠT E
ĠP rocess
Ġb ase
(' /
li gn
De tail
Ġuni Label
ec ted
ĠTC anvas
inc ip
Ġv al
Obj s
Option s
ync Objs
amp les
Back ground
ĠStatic P
Por Id
Ġjwa windows
incip al
, {$
A Middleware
D ictionary
O L
S chema
y y
en ce
ĠT Main
ro p
Ġl i
ist s
Ġ' ;<
ĠM VC
ay out
tic al
Ġst a
Or camento
Man age
Ġed it
Ġsyn cobjs
iler Version
ĠMVC Framework
A SS
B oolean
C T
F ilter
R Y
S A
T I
T HTTP
a ction
a va
b ets
i ant
l ength
l fm
Ġ uses
re ct
Ġc al
Ġc heck
Ġf On
ĠU ser
Call er
ĠCon vert
En coding
En tidade
Bit Btn
ance l
Format Settings
com ponent
pec if
Ġwh en
Generic List
mem ory
Struct ure
Fact ory
Oper acoes
func proc
( )
( ):
D u
D ouble
I B
M in
R tti
S olution
b out
i tem
Ġ Name
Ġ 32
in fo
ĠT o
ĠT Component
th er
ĠS pecial
du ce
ĠC ardinal
ĠD raw
ĠD aemon
Ġl p
ĠL ast
Ġde stroy
ĠTP anel
tic le
Required Message
ma x
own er
ĠEx ecute
IS O
ĠAssign ed
Exten ded
Ġtem p
Ġwin control
ĠuniGUIF orm
Pedid o
" :
D Client
H ost
L ast
S imple
U A
m is
r it
Ġ ,
ĠT Matrix
Ġp rocess
ta ct
Ġc ur
ĠF Data
Co ord
ty pes
at S
Ex ecute
Ġcon trols
ĠTG Queue
Ġuni Panel
Ġuni ImageList
DB Client
def s
As ync
ĠTC E
itial ization
Ġon ly
DO WS
ĠStart ApiListen
Ġcheat component
Ġsta tic
ĠSpecial ized
B anco
D atS
F ound
L anguage
S DL
V E
g l
j ect
p os
s ender
ĠS ize
In valid
orm al
IN F
Ġm ov
ĠU se
Ġ' );<
Pa int
Com Ctrls
Swag Response
Men sagem
Tit le
write ln
ĠTW ideString
At tribu
Al loc
ĠTWideString Field
D o
D emo
D river
G ame
L iv
a in
d ll
o le
u ction
in itialization
ĠT Data
st art
ĠC O
ĠC ds
str uction
Con tains
ss i
ut put
ĠM S
To Table
are d
Ġt arget
ĠTD is
ĠTP oint
res ource
Me an
Ġj son
Handle s
Run ning
Ġform at
And Nil
ĠCE FuncProc
ref ix
Parse JSONValue
ĠCds Consulta
A Value
C lose
G amma
P ack
P osition
S ock
T O
U p
l ast
p res
p char
t reenode
in ish
en ta
ĠT File
st all
ĠS wag
Ġc ase
ĠF rm
ul ar
Ġl ong
Con tact
Ġm odule
ĠV al
ĠM em
Ġuni x
Proc urar
ĠTh e
ma il
Win Control
over ride
ĠTString List
Lo ad
Pr incipal
ĠLaz arus
Ġstruct ure
WIN DOWS
kernel handler
ĠPB T
mis sion
F l
G raphic
H ook
M ap
P ipe
R ound
T B
T ag
U P
h otkey
en ter
de structor
ĠF On
Ġin clu
ĠTHorse Provider
', '
ol der
Ġ* <
ĠTB itBtn
ang le
ang ed
Sc ore
Read er
Ġch art
Ġall oc
Ġcontainer Font
Pres entation
/ (
2 5
E mpty
F TP
G lobal
R I
S ec
T Thread
a tive
o ve
u ra
w nd
Ġ table
Ġp icture
gin e
ĠD is
ou ts
Ġs u
Ġs can
Ġs dl
Object s
ĠU Menu
Te x
Lua VM
Ch e
ĠTD M
Ġread ln
Head ers
ĠLua Handler
Byte Table
Router Tree
Ġcreate d
ĠText ure
Debug ger
Ac tive
ĠTGBSwaggerModel JSON
ild Handles
Lay outs
amma Table
Conn ect
isi ble
Du et
ildHandles Created
1 6
E M
L ocal
N O
[ '
b it
g or
i e
i ed
m all
n et
o bject
w idth
Ġ 8
Ġ RequiredMessage
er ved
Ġc ode
es sion
Ġf ound
ĠC olor
ul ation
Con exao
Ġs HTTP
Ġs erver
DE R
Ġm ap
Ġm ay
ĠU M
ĠU N
ĠĠĠĠĠĠĠĠ ĠĠ
Ġfunction s
List Box
lo cal
Ġn e
Ġ[ '
ĠData Module
Ġx Id
As String
Ġex ception
Inter val
ĠDe lete
ĠCom p
Router Item
UL T
Val id
Ta il
Ġce funcproc
ĠController s
rop Down
Liv re
ĠsHTTP Item
0 3
B order
D Y
S ave
g ra
m l
t al
re d
ĠT im
ĠT Control
as h
Ġp char
Ġc ustom
ĠD es
Ġl ine
ĠL oad
ĠI s
ĠĠĠĠĠĠĠĠ ĠĠĠĠĠĠĠĠĠ
at ing
Ġlua handler
Ġa c
ol y
ec a
res ult
ĠuniGUI Application
Se ction
ĠId SSL
reg ion
amp le
//// ////
led g
Ġpack ed
now ledg
ĠMS WINDOWS
C C
L O
N ome
R ow
T em
V er
X ML
g ame
l ta
m e
o ia
p ipe
r on
t in
Ġ æ
Ġ el
Ġ error
ĠT J
se m
st er
de bug
Ġp o
Ġp ar
ĠF C
ĠF alse
ĠF ade
Ġf ol
ĠU DAO
con nection
ire s
si gn
Ġa bstract
um e
Ġx DAO
ĠFree AndNil
ĠTGList Item
Val or
pa ce
ink oia
ermin ate
Pack age
Ġfol low
+ '
= '
B A
C a
D el
M VC
W ait
c ur
ĠT Array
ĠT Rect
ar de
ar ch
de s
it le
Ġin itial
Ġl c
Ġl og
Con tainer
Ġs q
---- --
to col
ĠB itBtn
Pro perty
Ctr l
Main Module
ĠLua Class
ĠTF D
Ġon e
Is Running
SQL Query
Ġ201 0
ĠApp lication
pecif ic
/ <
1 5
A mount
B est
O K
S p
S ide
T DataModule
W N
p k
} ;<
Ġ 7
ĠT Memory
Ġp anel
Ġp lugin
Ġf l
to boolean
ĠI Path
var iant
To Int
Ġh andle
ĠTD iagram
Ġbe en
Ġprog ress
User Data
An im
Ġhttp defs
GE T
ĠInter nal
Fa il
dh ook
) ));<
1 4
C ate
M M
N ames
R ate
S amples
T JSON
T Custom
a ce
h on
l atform
u f
Ġ k
Ġ im
Ġ ï¿½ï¿½ï¿½ï¿½
ĠT Queue
ti es
Ġc all
ct r
ic ro
Ġf ph
In it
Ġo pen
ĠP atch
Ġin put
ĠL SQLQuery
Ġw ork
ĠW rite
per ties
Form Instance
Get FormInstance
ĠTD emo
OR M
Ġi tem
ser t
ĠO bj
res h
ĠTL og
Error Message
Ġcom ponent
Or d
Sh ared
TE lement
Ġnew kernelhandler
Them e
Ġau to
EG ER
gu arde
Speed Button
resource string
Ġfollow ing
Ġfph ttp
2 00
< /
A M
C lear
D ir
F I
F inish
R EST
R GB
S ing
S ix
] :=
f or
i Files
m t
p ointer
Ġ image
te gr
ĠT T
ĠT treenode
ĠT itle
se lf
Ġp a
Ġc lasses
ĠC ur
Ġo ld
ri ginal
Ġl b
ĠA P
ĠA l
Ġs a
Ġb uffer
Ġd m
id i
il ename
us ic
lo g
ĠM D
SE R
DB Grid
ĠTD ictionary
OR T
As DateTime
ff set
Ġor iginal
Ġg raphic
ĠO K
Ġr adi
Error Format
ĠLua Object
Status Code
Dis play
Ġptr Uint
mp layer
param eters
ĠINT EGER
Open SSL
Scan ner
ĠTGMatrix Index
DP I
ĠIm age
ĠTE MSI
ĠIdSSL OpenSSL
tin ue
hon son
' ]<
1 00
A guarde
D I
D FM
G radient
M atch
S C
T ick
V ector
Y Z
p arent
q ue
Ġ 6
Ġ ta
re turn
ĠT Method
ĠT custom
Ġp en
ĠA u
Ġs o
Ġs um
ack bar
ĠV ER
Ġde vice
List Handler
ĠM A
li ente
Ex ists
To CE
ur ity
Sys Info
ĠR un
ĠE dit
UI D
ff ff
Color s
Ġst art
ĠSet Length
Button s
ĠRe al
ĠCom bo
No te
Ġsize of
ĠEn code
Doc um
ĠDes cription
Ġprogress bar
ToCE UserData
$ <
' t
) )}<
0 6
B J
M BO
M sg
P G
P AT
b ter
c bi
d is
f l
f ree
g on
g le
i er
k er
o to
s h
x JSONObject
te x
en ted
ĠT e
ĠT One
Ġp er
Ġc v
Re c
el p
im al
ow er
ĠĠĠĠĠĠĠĠ ĠĠĠĠĠĠ
ap ache
ĠIn dex
Ġpro du
ĠCon tnrs
String s
ur face
Ar ticle
ĠTB ack
ĠTD og
ĠRe f
ĠId HTTP
Ġch ar
Real Quantity
Not Found
Dis assembler
tif ic
ĠLCL Type
Pag ar
ĠPar se
Direct ory
gor ia
Cate goria
0 9
= "
C F
E xt
L ines
P tr
P ORT
V ari
e ls
h ost
h wnd
m i
m essage
p as
p ack
{ "
Ġ ON
Ġ HTTP
in tro
on ym
ĠT H
ĠT Router
ĠT rim
ti s
ti t
st in
ĠS Y
ĠS c
end ar
ĠF Swagger
Re f
Re move
ĠL List
ĠL ibrary
Ġs i
Ġs l
em ent
ĠB O
ĠB evel
ch ron
Sta tic
Ġa bout
Ġpro vi
En um
De c
Set up
mode l
ix a
As Integer
Ġr un
Controle MainModule
Is True
Mid i
Ġdis assembler
Be gin
ca le
ĠAr ray
ĠPa int
rit ten
Sec urity
ĠComp ilerVersion
oly gon
sem ble
tegr ity
intro duce
onym ous
chron ize
2 0
> )<
B ets
P atch
U E
d a
g h
v at
Ġ du
Ġ em
ĠT Menu
ĠT Screen
as semble
ĠS yn
ĠS hould
ĠF ont
In itialize
Ġl Controller
pe d
Ġre introduce
ĠL Dog
ĠG L
ĠG R
Ġm ode
ĠU pdate
ĠĠĠĠĠĠĠĠ ĠĠĠĠĠĠĠ
and om
ph a
us er
us erdata
-------- ------
ol d
ĠTG Set
ĠTG Stack
Create An
Ġ1 1
ĠTB evel
ĠTHorseCallback Response
def ined
Ġx mplayer
ï¿½ï¿½ ï¿½
ly ph
Router Manage
Des c
pec tation
Ġhttp s
Record Number
mo te
mem ber
Trans action
edid a
reak point
Titulo Categoria
Ġ************************************************************************ ******
ĠTHorseCallbackRequest Response
let te
Docum ento
MBO L
ĠSY MBOL
onymous Thread
vat ar
CreateAn onymousThread
) .<
> (
A ction
A DER
B D
D elphi
F T
F rm
S yncObjs
a Proc
g ram
s Use
x x
} ']<
Ġ add
Ġ test
in ition
et work
am ento
Ġf ind
ĠP anel
Ġin line
Ġl dd
el l
Ġs ervice
ĠI D
Ġm t
ed it
ĠM ag
ot al
En ter
ĠForm Create
op ulation
As Currency
MO D
ĠĠĠĠĠĠĠĠĠĠĠĠĠĠĠĠ ĠĠ
ĠĠĠĠĠĠĠĠĠĠĠĠĠĠĠĠ ĠĠĠĠĠĠ
Base URL
Handler Unit
ound List
Exception Handler
ĠTL ayout
App sUse
ĠX ML
ĠMa th
Ġsys utils
ĠAp ache
po se
Sock et
ĠUM usic
local host
Ġ[' {
Ca ixa
tis tic
stin ation
ĠShould AppsUse
ĠShouldAppsUse DarkMode
) }
4 4
A d
A ss
A lign
C ON
F mt
M edida
O ver
S ession
] ));<
c er
d y
g a
h a
n am
p anel
t c
v ance
on ly
ĠT Lua
ĠT HTTP
ĠT Memo
or no
ar Type
ar Down
ce userdata
:= '
Ġc pu
ĠF irst
ĠC ustom
ad or
ad io
Ġin stall
Ġl ength
ra ys
ist ory
to ceuserdata
Ġb utton
ow s
ĠU s
Ġ' ,
om ain
id ade
ble m
ot to
Test Case
Ġuni BitBtn
Ch anged
As Time
As Date
As Float
As ISO
As Extended
ser vice
ĠTC I
Api Port
Sc ri
ĠO utput
he ader
Ġst op
ĠDe structor
ore d
Ġj ni
Listen s
Ġlist box
ĠControle ConsultaModal
Ġus er
Web B
ry p
Machine Quantity
app lication
record hotkey
12 3
JNI Env
por ts
qu iv
ptr uint
TControle ConsultaModal
ĠStop ApiListen
By Name
ĠAn si
ĠProcess HandlerUnit
ĠTMain Service
TJSON Pair
Ġprodu ct
ApiPort Listens
' )
) ^.
2 55
= (
B rush
C am
D if
G RO
L ong
M ouse
N E
O wner
Q ry
S en
U B
V cl
a x
d w
f ter
f ined
m od
m odule
p art
t l
è ¿
Ġ ,<
te p
en tific
ĠT Re
ĠT DataModule
se ct
se lect
ro ker
Ġp art
Ġc l
ĠP assword
to string
Ġm en
ĠU Lua
ĠU Path
ĠV arType
ĠW ord
Ġde s
ut or
Pro ject
Pro perties
og roup
ĠIn c
Ex ec
To File
PC lient
ĠR GB
Ġ2 7
ers isten
Ġg ame
Module Name
ĠTP age
Event s
ĠSet Window
Inter nal
ma in
Ġparam count
Se arch
form ation
Web Module
Is o
ĠCh ildHandlesCreated
Ġme thod
Debug String
Ac cept
ĠSh ow
Them es
Play list
Ġreq uired
SA F
INF O
ctr ls
otto m
WebB roker
# #
0 8
A tual
B l
C an
C ap
C arro
N T
O S
S P
W ork
X T
b rd
c ao
d word
l p
m acport
v m
Ġ Req
ĠT In
ĠT Set
ĠT Update
or rect
ti ck
le ted
an ded
de stroy
Ġp k
Ġp osition
ĠF id
ĠF JSON
es tion
ĠC ancel
ĠP aram
ĠP JNIEnv
ad a
is a
Ġs pecific
Ġb itmap
im um
Ġd ialogs
ĠI Response
ĠSystem s
ĠU Ini
ĠU Themes
St uff
per sion
Ex tra
Ġh elper
ĠTG C
Ġuni Edit
dd ress
Ġu int
Ġ1 3
ĠR T
He ap
odu l
eb ox
Ġex ecute
ĠO BJ
Er ro
Group Box
ĠTF ont
CE P
Ġq u
Ġtreenode s
ĠFile Name
ild ren
ick er
ĠStr ToInt
Exten sion
Ġhe ader
ĠDate Utils
ĠaId entific
Ġrender Container
Copy right
Per mission
lip brd
uk ebox
Valor Un
ĠTDiagram Block
Ġim g
ĠOK Btn
ĠReal Quantity
ĠBO OL
Scri pt
ryp to
ĠaIdentific ador
) +
+ }
F inal
F irst
F ORM
I P
L A
M y
P RO
P ool
P ascal
R ES
S elf
T List
c d
d m
p m
r x
s ingle
t d
y r
ĠT DB
ĠT Event
ĠT Image
ĠT Error
ĠT DataSet
ĠT Json
ĠT JSONValue
ar gin
Ġc t
ic ode
ate s
ad ers
Ġin c
Ġl bl
ck nowledg
ĠG ammaTable
string list
Ġd raw
Ġn um
Ġn etwork
ĠB ase
ĠB uffer
ĠM odule
Sta tistic
ol ume
Ap ache
DB Ctrls
def ines
ĠTD otNet
Un Medida
op up
As Stream
Cons ole
ĠRe member
Comp ress
Se par
Web Page
ĠTBGRA Bitmap
ĠCh art
ĠJ Object
ĠTM y
Net Encoding
================================ ================================
Pl ugin
PT R
ĠStr Utils
Ġmemory recordhotkey
press ion
Conn ected
Ġout put
Syn Edit
Ġtr ackbar
Ġpack age
par ser
Next Proc
Ret orno
Ġcomp ile
THTTP Status
ĠConvert ErrorMessage
item s
Driver L
Che at
Ġfound list
ĠUN SAF
Ġradi ogroup
PAT H
GRO UP
ĠOBJ FPC
cknowledg ement
Separ ator
ĠUNSAF E
. ');<
B rid
C enter
D X
F ix
G inkoia
H ANDL
P rocedure
P assword
P eca
W orse
e f
i ated
j ust
l ator
p Info
r t
w o
ª å
Ġ te
Ġ routine
in ary
ĠT f
ti al
ĠS ave
ĠS imple
Ġl ocal
Re st
Con tinue
ĠG rid
im Stuff
ĠI t
Ġm is
ĠU Log
ĠU CS
oo m
con d
Ġn umber
um p
Class Function
Ġu pdate
Col umn
Swag Param
Ch x
ĠE d
ir c
ĠTC arro
Ġ< /
add ClassFunction
******************************** ****************
res sed
Ġla z
ĠTList Byte
pen v
ĠTBGRA Custom
Au x
Au th
oa ded
ĠText P
ĠTR ender
ĠTR EST
ĠUni Label
ĠTUni Label
ĠTString s
Lay out
ĠXE ANDLATER
WARN ING
Progress Bar
ĠSh ift
ĠApp ly
Pres sed
Ne o
Iteration Mean
Simple MachineLine
Attribu tes
me thod
BA SE
tegrity Check
ĠOutput DebugString
Brid ge
addClassFunction ToTable
( (
) )<
C v
F C
F our
F ade
H igh
N one
N ormal
P Env
R ight
S urface
b utton
d b
f b
h ts
i ent
l istitem
m m
p ixel
r l
s ock
Ġ ('
Ġ rig
ĠT Sh
** <
ar n
ce s
Ġp layer
ĠF Name
ĠF Amount
las h
Ġf ont
ĠC lient
Ġo ther
ĠP Char
ĠD eb
ĠL ong
Ġs ame
ĠI PL
DE V
ĠW IN
ĠM emo
En vi
Ġcon tains
Ġuni Basic
Ġuni SpeedButton
Ġuni DBGrid
Add Element
ĠR ender
ĠGet Memory
ĠE MSI
ĠN o
As sembler
ff ect
Ġg raphics
ĠĠĠĠĠĠĠĠĠĠĠĠĠĠĠĠ ĠĠĠĠĠ
ĠO pen
ĠO bter
ĠTL anguage
ne x
CL ASS
Se lected
ex ception
ex ports
ĠIGBSwagger PathResponse
Ġch ange
pl ace
PO ST
Style s
Function s
pa th
Lay er
Pl atform
au se
ĠTTree Node
Exp anded
Tail les
Ġpa th
-------------- <
Ass ign
ĠModule Name
ĠGrid s
ĠuniBasic Grid
" }
) *
B et
C Panel
C txt
D TO
J ava
M on
M AP
O ut
P icker
S O
T H
T oo
T Menu
T Daemon
T erminate
W MI
a b
b uffer
d r
d x
d ialog
i as
k i
p ing
r int
¼ Į
Ð µ
ï ¼Į
Ġ Query
Ġ Registry
er ent
re pres
ĠT Mem
or iginal
ti l
th ing
ĠS M
ĠS p
ĠS ong
ta ch
ta ddress
ĠF L
ic ation
ter ed
ĠC URL
ĠP ascal
ĠD O
Ġin it
ĠA c
ra p
pe ct
ĠL Id
ĠL td
cl ient
Ġw ide
IN DY
Ġd iagram
ĠU Texture
ĠU Song
at us
ed i
get table
ord in
Ġn ext
Pro tocol
Ex pectation
Ġto tal
To ByteTable
Ġe ach
ĠTG Stream
ĠTG Pair
ĠTG Dictionary
Create Api
Ġu p
Ġ1 6
ĠGet Size
ĠTB itmap
ers on
As Int
As Boolean
ĠTh read
Field s
Ġex press
Ġas sign
UR I
Ġj ust
Mod if
ĠFree Memory
ex e
form at
bo box
ymbol ListHandler
ĠTBGRA Reader
RE C
Start ApiListen
IG N
Ac cess
Open GL
ĠOneHttp Controller
ĠOneHttp Ctxt
Ġ************************************************************************ ****
________________ ________________
byte s
AO wner
ĠTGTree Node
ĠUScreen Party
rec iated
erc ado
ĠxJSONArray Aux
Lib re
Ġval ues
CT ION
Ġlong word
ĠTim er
region s
ĠInternal Listen
FI LE
Six P
ĠHTTP Defs
quiv o
Dif erent
ersisten t
ĠTUpdate Status
ValorUn Atual
ĠTError Level
Ġnetwork Interface
cknowledgement Cmd
WARNING S
Ġrig hts
ĠDeb ug
nex ion
repres ented
Ġwide string
ĠOneHttpCtxt Result
Diferent Case
' +
' ,<
2 1
D bl
F X
F older
L File
M D
S to
T Horse
T otal
U M
c ul
d ing
e ded
g f
h ack
o b
o ssi
r c
s C
s ys
å Ĳ
Ġ ï¿½
Ġ tim
ĠT listitem
le vel
de lphi
Ġp oint
ĠS QL
Ġc lient
ĠF Parent
ĠF Description
it er
Ġf re
Ġin to
Ġ= $
Ġl icense
ag ing
all oc
Ġm sg
ĠU Display
Ġ' );
ĠM ove
Pro p
li te
Ex port
Ġto p
En gine
ib ows
Ġ2 5
>// <
Time out
ser ver
Ġg b
Ġg iv
ĠTP ointer
Date Utils
he ight
res ses
ĠLua Caller
Ġparam eter
Ġus ing
Modal Result
atch er
CO D
pl it
ĠUni Edit
ry pt
ry GetValue
fer ence
ĠTUni Edit
ĠEn d
ipe Connection
PA vatar
PT ION
ĠTUser Controller
---------------------------------------------------------------- --------------<
la tive
Produ to
Ġau thor
Contains Key
Up time
AM MA
ĠMA X
Dec imal
vance d
adio Group
Ġmen u
ĠRGB To
Ġmis represented
ibows ki
E C
F P
G u
I gn
L ibrary
L IB
S Y
S v
T String
T our
T Uni
T ool
U rl
V isible
W M
b itmap
c i
c lear
d ir
i k
i ve
p i
p rocess
u c
u sed
x Id
ä »
Ġ ad
Ġ Uti
Ġ Reg
in ux
te gra
ĠT Status
ĠT WinControl
ĠT NextProc
or age
ti vate
ta ires
ĠF Response
ĠF name
it or
Ġf ield
Co ol
Ġin t
Ġin fo
ĠA Path
ĠA imStuff
pe g
Con tnrs
ĠL ongint
Ġs up
ow DarkMode
Ġm r
ĠIn itial
ĠIn itialize
li gh
li taires
Param eters
ĠCon exao
To JSON
ree view
RA M
Ar row
Ġt p
Ġt point
ĠTB yte
>{ %
He x
Un icode
ĠTObject List
ĠTC lient
push variant
AT E
ĠO ra
tic ally
ma tically
CE PTION
ELSE IF
LE TE
ĠTList Box
Ġma chine
Web cam
TE XT
Dis assemble
Ġwh ich
Net work
ĠMa x
Component s
Entry Array
Ġed t
PA CK
ĠAll owDarkMode
Cur sor
ĠOneHttp RouterManage
For Window
Tab Control
Ġlistitem s
Ġreg istry
201 2
Ġreturn s
ym handler
Pag amento
Registro s
USE S
Iteration Result
ift State
Ġbase d
Invalid Format
ĠTData Stream
ĠMem ory
Save ToFile
Ver tex
Ġitem View
Ġauto matically
Remove Pair
nam ent
ĠCancel Btn
rypto g
argin s
HANDL E
ĠTBGRACustom Bitmap
pixel Fmt
Envi a
CLASS GROUP
Tour nament
ĠUti litaires
ĠAllowDarkMode ForWindow
! <
' <
) -
0 5
3 6
A j
B ool
C N
C P
D C
D K
D up
D ll
D Hook
H AR
H ome
N t
P W
P ing
P ass
P TObject
T ip
c urrent
g nd
g ment
g mail
l g
n def
o gin
p n
t ch
u da
w e
x p
x JSONArray
ä ¹
Ġ key
Ġ ----------------------------------------------------------------
Ġ icon
Ġ types
ĠT Text
ĠT Controller
al th
an e
ĠS yncObjs
Ġc x
Ġc ol
Ġc olor
ĠF rom
ĠF FileName
ĠF last
ĠC ode
Horse File
Re lative
ĠL API
if f
if ndef
ĠG radient
Ġb t
Ġb ack
ver s
IF I
ĠU Common
at s
Ġ' .
Ġde p
ile d
List View
con n
ĠM idi
ire ction
Ġres erved
ĠIn it
ĠIn iFiles
per at
pon g
String String
raph er
File List
Ġt s
Ġ* )<
fo re
ĠN umber
Ġx or
ĠForm at
Ġi Controller
Im agem
ĠTP ipeConnection
ĠĠĠĠĠĠĠĠĠĠĠĠĠĠĠĠ ĠĠĠĠĠĠĠĠĠ
Ġdo es
AT FORM
Ġ+ <
Model JSON
Ġr y
Ġcom mand
IC ON
INT ERFACE
Pair s
Is False
ĠIGBSwagger Header
ĠIGBSwagger ModelJSON
size of
Read Only
pl ugin
ĠPro c
Buffer Quantity
TAB LE
Ġform s
Ġaddress list
Ġ201 3
ĠLaz UTF
PL ATFORM
por ted
Ġapp lic
rim iti
Tra ck
Ġlistcolumn s
Ġreq uest
Ġco ordin
ĠTy pes
Attribu te
ĠCO MP
struction Group
Map per
Valid ator
Del im
DI R
ĠParse Input
ĠSetWindow Theme
Compress ion
High ligh
ĠTSh iftState
Decimal Separator
Disassemble Data
ryptog rapher
Dup lic
" >
> ):
A im
A GE
B ook
C idade
D ropDown
E m
F i
F ast
F oto
G if
L L
M Quantity
M gr
N om
O ffset
P J
S a
S ingle
T Lua
T MachineLine
V AL
W h
a a
d ay
i gin
i ente
n u
n ome
p p
r f
r ust
t ing
Ġ 64
Ġ ..
Ġ row
ĠT Timer
an o
de lta
Ġc i
Ġc s
ĠF D
ĠF a
ĠF HorseCore
ĠF Error
ĠF Size
Ġf t
ter nal
ĠC al
ĠC lipbrd
ĠC HAR
ĠP layer
ri tical
Re port
ĠL ayout
Ġw idth
Ġb r
IN IT
Ġd iv
DE SC
ĠU L
ĠU Files
ĠU Platform
function s
xt ure
Te arDown
con tainer
con ds
ĠB order
Ġ// <
DA V
String Tree
Test Fi
ĠDE FA
Ġt v
ĠN e
Time Mean
ix els
Im press
ĠSt ream
Base Address
ac ity
Ġst ar
list box
Main Form
uff ers
ore tical
Ġv f
Ġv Qry
Box A
UR E
ĠTF loat
os xp
User Info
CE FuncProc
ĠTList Char
Ġma in
ĠTHorseCore Param
Unit X
Ġget mem
ĠTBGRA Pixel
ĠAs DateTime
ĠJ honson
ĠJ ukebox
Ġset length
02 4
ĠTS QL
ook up
RO C
ĠTCustom SynEdit
Run Result
Change Status
peed hack
Combo box
Ġgl Tex
Ġgl Vertex
TC PClient
Ġreg ion
Ġmemo Response
LCL Intf
": "
Coord s
ĠLazarus Package
mall Int
ĠTBack gnd
Ġprovi ded
NE THTTP
Sen ha
NT Header
ĠRemember SimpleMachineLine
Ġassign ed
ĠRGBTo Color
Aj uda
CN PJ
Ġ---------------------------------------------------------------- --------------------------------
rust Interval
container Font
TestFi xture
ĠDEFA ULT
Impress ao
ĠglTex Coord
ĠLazarusPackage Intf
1 8
3 0
7 4
; {$
B reak
D Manager
F e
F ull
G UI
H E
I pl
O riginal
P re
P icture
P olygon
R P
R T
S or
T Proc
T Solution
_ ;<
b rush
c aption
d og
l ation
m essages
r up
s c
s yn
t ine
® ļ
en tes
ĠT JSON
ĠT Model
ĠT Texture
ĠT Stack
ĠT Endereco
ce ce
un k
Ġp re
Ġp ur
Ġc ount
ĠF Stream
tr ans
ĠP ort
ĠP ressed
ĠD Word
ĠD UnitX
Ġl oad
ĠA d
Re ce
ĠG AMMA
Ġb o
Ġd w
Ġd on
interface s
Ġm ark
ĠB ASS
De v
Test Framework
struct s
Rou tine
Ġu Log
Ġ1 2
ĠGet Address
Ġ2 0
Get Current
HT ML
op en
able s
act er
Im port
abel a
HTTP Server
ac a
Handler Data
ĠDe fault
Ġcom bobox
Ġversion s
Us ers
Is Empty
ĠOne Client
ĠCh r
RE AD
An si
pl ate
ĠTR ate
Number Of
Val ues
mo ved
ĠTGBSwaggerModel PathResponse
Free Type
Texture Coords
Ġ200 5
ĠTA d
True Value
Content Type
Trans form
irect ory
Ġsymbolhandler structs
thread s
Ġhe ight
ich ier
Ġoff set
EX CEPTION
Ġtext ure
ĠPa th
Scroll Box
ĠChar Code
Ġval id
Graphic Control
Ġmap s
ĠTJ cl
pack ed
ĠSc reen
ĠTMenu Item
BD D
odul ename
Pressed Key
ĠSp in
Sto re
sC ep
COD ING
tegra cao
Tip o
ĠTBackgnd Obj
ĠPressed Down
* }<
, $
- }<
0 55
7 6
8 5
B evel
B ottom
C l
D lg
F Data
G er
L Object
L UA
N iv
Q U
S ign
T Control
U ses
V CL
a pe
f ont
m ags
s l
t re
u de
w d
w indow
w ait
y t
ç »
Ġ ;
Ġ è
er a
in s
re es
re ur
ĠT Response
ĠT Time
ĠT FormatSettings
or a
ar ted
an nel
ĠS olution
ĠS erver
Ġc orrect
be m
Ġf rame
Ġf irst
Ġf rx
ĠP Color
ĠP os
ĠP AS
Ġl en
Ġl ib
Ġl yt
is te
is ion
ĠA mount
ra ck
ĠL Pairs
Ġw e
Ġw indow
to do
Ġb lock
Ġb gra
Ġm s
Ġm essage
ĠU Entity
ĠV iew
ON G
ĠW MI
Ġde fault
lo t
ĠB C
ĠB ack
ĠM e
Ġ( <
Pa lette
Form Create
Ex e
To Horse
To TObject
ol ver
En tre
Ġcon text
ĠTG UI
File Stream
ener ic
Ar r
Ġt stringlist
Get Api
ĠTB CPanel
Id x
ĠForm Show
Info Cmd
ĠSt arted
Ġg u
Module Data
ĠTP en
ĠĠĠĠĠĠĠĠĠĠĠĠĠĠĠĠ ĠĠĠĠĠĠĠĠĠĠĠĠĠĠĠĠ
Ġbe ing
ĠCreate New
Edit or
Date ToStr
Bit s
ĠRe ct
ĠLua WinControl
ĠTF oundList
ĠTTestHorseCore File
Comp ilerVersion
New KernelHandler
Men us
Sh ut
Modal Ajuda
Ġmem scan
ĠH as
ĠAs Time
Server Module
ĠIGBSwagger Path
ĠJ v
DateTime Picker
02 3
RE ADER
ĠWeb Module
CO DE
Update d
ĠTControle Operacoes
ĠTControle Livre
Start ApiPortListens
ock ets
ĠTCustom Daemon
umer ic
ST R
ĠDo Delete
ĠRegister Daemon
ĠRegister Package
index ed
ME M
MA C
Change Format
Ġdis abled
BO OL
Post Api
ĠTFrm Main
rout ines
Put Api
UN CTION
ĠDate ToStr
ĠTest s
la im
ĠInter face
Ġstr utils
Stop Listen
draw indexed
Ġsc reen
ĠItem Count
ä¸ Ģ
CK DO
Simple Event
VE H
Ġjson parser
Procurar PorId
Ġac cess
Tem p
ĠTRect angle
Sp lash
Side Descriptor
Shared Mem
ĠMag enta
Cam era
************************************************ ******
ĠTRender Object
Ign ore
perat ura
ĠTFloat Field
Rece ber
mags ys
ĠDoDelete Api
' ];<
( )<
- <
5 4
C A
C or
D W
H A
H as
H AT
L az
P art
P TElement
R ange
S M
S UB
T R
V olume
Z E
a Value
a Id
e k
p te
s f
s p
t f
t ure
¥ ½
å Ľ
æ Ī
æ ĺ
è ®
Ġ ti
Ġ es
Ġ et
Ġ ver
Ġ JSON
in put
ĠT Message
se ction
se cted
ti o
le y
le ft
le ep
an ager
de fault
th elper
th day
Ġp e
Ġp ascal
ĠS up
ĠS ingle
Ġc threads
ĠF or
ĠF Time
ĠF Log
Ġf m
Ġf ix
ĠC urrent
In sert
In tegracao
ĠD AO
ri l
Ġl Param
Ġre ct
ist ance
ĠL evel
// $
ĠG IF
Ġw ait
Ġw ritten
Ġb s
Ġb ul
Ġd am
ĠI B
ĠI DAO
Ġm i
Ġm argins
ĠU C
ĠU Int
Ġstring s
ed ley
get Canvas
ĠM ask
ĠIn fo
si de
DA TA
Ġa fter
To Stream
vi ous
um ent
Data base
Ġcon vert
ĠTG ame
Key word
ĠR a
Get Tick
======== ====
>// $
>// $<
ir thday
OR Y
Ġi Router
ĠTC Vector
Ġor igin
Info s
Im aging
ren der
Field Name
Ġdo c
ĠO riginal
Er reur
Integer String
ound s
DL L
Ġcom m
ĠOn Show
ran ch
Or der
Se lection
Ġma ke
ĠId Context
Des ign
No Keyword
ĠTBGRA Neo
ĠAs Date
CH E
TE Data
ĠTS ong
ĠTProc Error
semb ly
lib s
Ġle vel
ĠRegister Unit
au to
ĠList Box
por thelper
Ġsh ow
ni k
Ġapp lication
Cadastro s
Ġtr ans
Tra ce
0000 00
EX YZ
ĠQ ry
Produ cer
ition al
Auto Assembler
Ġdebug ger
yy yy
Ġli ke
Ġinclu ded
Ġsu bject
Ġne ed
Tail le
Property ToTable
Anim ation
ĠTDictionary StringString
ĠIdHTTP WebBroker
tit le
ĠTCI EXYZ
Ġmethod s
fb order
Too an
ĠAc tive
rap per
Ġcol lection
ĠProc urar
rimiti ve
ritical Section
rup ted
ĠTAd vanced
æĺ ¯
NoKeyword s
ĠIdHTTPWebBroker Bridge
( [
* -
, [
1 024
2 04
3 8
6 55
7 3
: '
; );<
> );<
A ct
B U
B LE
B Quantity
B ranch
C I
D otNet
G estion
H ash
J Object
J ni
J honson
L ookup
M ove
M ercado
N Fe
O P
O utput
P D
P P
P en
P Image
P UT
P tch
R cd
S q
S oc
S ync
T ile
T ask
V inc
^ ;<
b on
b tn
c f
e Ptch
f e
g b
h elp
l abel
m y
n own
n os
p atcher
q word
s a
s ource
u ter
Ð ¸
ä º
ä ¼
æ İ
æ ĸ
Ġ &
Ġ ag
Ġ EN
Ġ END
Ġ ]<
Ġ OR
Ġ ï¿½ï¿½
Ġ right
ĩ ªå
Į ī
ķ °
te ad
ĠT Provider
ĠT Pair
ĠT Servico
ĠT erminate
ĠT dm
ti ce
** *
ar ca
ar Documento
de lete
Ġp ush
:= $
ĠF Path
ĠC l
ĠC ar
In dy
ĠD M
ĠD X
ĠD og
Ġl ongint
tem p
Con ven
ect ored
ĠL isten
ĠL Messages
ĠL UA
ĠL inux
Ġb it
Object List
Ġd one
Ġd gl
DE LETE
Ġm ulti
ĠU Unicode
Ġ' -
Ġstring list
(' ');<
ĠW M
ĠW h
ĠW idth
Ġde fined
List Byte
us pen
Ġn on
St orage
lua routine
ĠCon nexion
To Date
Data Base
ase Name
ĠTG ammaTable
ĠTG FileList
Ser ies
Ma th
read y
On Listen
int to
ER R
ER VERSION
Key Down
up date
ĠR ate
ĠE mpty
ĠE Pipe
ht ml
Thread ing
Ġread file
Ġ< =
ĠTP latform
ĠĠĠĠĠĠĠĠĠĠĠĠĠĠĠĠ ĠĠĠĠĠĠĠĠ
ac ao
Date Format
Controller Result
ĠDe vice
ĠDe Select
vel op
Ġfile s
ĠRe move
Comp are
ĠTList String
AP Solution
fm x
Ġus age
create table
Web Request
ĠOne ControllerResult
Serialize Config
Def inition
new table
TE MSI
Dis persion
Dis patcher
Net HTTP
An o
Debug Event
Ġimp ort
IL ERVERSION
ĠDB Grids
pro gram
Lo ader
Pr n
Ġdeta il
ï¿½ï¿½ï¿½ï¿½ ï¿½ï¿½
ment s
ĠAdd Callback
Rect angle
Ġrefer ence
PY ING
Pl ane
ulo Usuario
IS API
BO DY
PE G
Word s
At tach
Ġhe aders
99 99
UN IT
Titulo Pagar
TL B
ptr Uint
the oretical
ermin ated
Ġar g
isi ePtch
ĠTControleConsultaModal TituloCategoria
ĠItem s
Audio System
USE R
erc ial
cs n
ĠTy pe
ĠUser Name
Structure s
ĠTMatrix Object
ĠTMatrix Integer
ĠTMatrix Byte
ĠCO PYING
Fl ag
Che que
Tem plate
ster image
ĠTFD Query
TCustom Attribute
Ġlb Detail
ĠAP I
Note Book
fl m
ĠRef resh
ĠLDog Entity
MOD IFI
ĠAnsi String
Can Continue
isa ac
CEP Model
yr ics
opup Menu
DriverL oaded
Ġlaz arus
tegrityCheck Thread
Four P
ĠTLanguage Type
Tailles SP
ĠTUpdateStatus Helper
sys utils
Ġgiv en
TUni Form
IterationResult s
Nt Headers
ä¹ ī
ĠCOMP ILERVERSION
rf isaac
RT TI
®ļ ä¹ī
Ġpur pose
Tipo Titulo
Ger arDocumento
MAC RO
åĽ ŀ
sected Struct
ĠQry Consulta
ĠTAdvanced DropDown
JObject ToTObject
Mercado Libre
Vinc uloUsuario
ĩªå ®ļä¹ī
Conven io
Ġdgl OpenGL
ĠUUnicode Utils
uspen ded
aseName Definition
ĠEPipe Error
NoteBook Strings
MODIFI ED
. &
2 2
3 5
4 00
B P
C B
C al
C OR
C ancel
D r
D one
E Y
F ill
F ilename
F UNCTION
H elp
L oc
O D
R ating
R adioGroup
S SE
S pace
X S
X MM
X YZ
a bstract
a Pagamento
c x
f ind
f ield
f irst
g ith
l c
m pt
n ames
o se
p re
t us
u ild
£ o
± »
Ã £o
å ı
ç Ķ
ç ±»
Ġ 9
Ġ am
Ġ )<
Ġ implementation
Ġ routines
ĠT Id
ĠT Real
ĠT Usuario
ĠT Ini
ĠT Tab
ĠT Article
ti st
ti debug
ro ss
ro tation
ar Registro
an y
as in
Ġp op
Ġp byte
ta x
:= @
Ġc ust
ĠF I
ĠF Ar
ĠF Finish
ĠF HorseFile
Ġf ib
ĠC ol
ĠC ool
ĠC heat
Ġo b
ĠP Byte
ĠP Pointer
ĠP arent
ĠP TElement
ad ow
Ġ= ================================================================
ri gin
is ing
Re p
Re place
Ġre moved
el ist
ĠL Data
Ġs m
Ġs mall
to variant
im ation
string s
Ġd b
Ġd own
Ġm ag
Ġm essages
at ure
Ġ: <
oo p
(' {"
Ġde stination
il ing
ĠB l
ĠB en
ĠM essage
Pro mpt
Ġa Value
ol ve
ol ute
um entation
Ġh eld
Class Name
ib bon
RA RY
Col R
Ġt control
Ġt memory
Get Address
add PropertyToTable
Ġg ran
Mem scan
ĠTP essoa
ĠTP DManager
Ġex ternal
ac ing
ĠSet up
Inter rupted
ĠDe select
ug h
Error Code
Ġvar i
ID I
ĠCom ponent
View Page
Ġse lected
Ġse gment
her e
ĠTThread Timer
uari os
ĠAs Stream
ĠAs Float
ĠAs Currency
ĠAs ISO
ĠAs Extended
ĠIGBSwagger Info
Ġ" '
ĠTS ymbolListHandler
ms g
Ġhttp pro
ĠMa chine
Ġter min
ĠTGBSwaggerModel Info
osi x
TReal Array
Back Obj
Float Number
Ġ201 1
Helper s
ĠSta tus
ĠTA ction
Entity Type
ema il
Ġno tice
ĠFP Read
ĠVersion s
Ġid TCPClient
Virtual StringTree
IO Utils
Ġevent s
Sub Class
bs olute
Ġli able
ĠTCE Connection
Contains Value
Ġtarget Panel
ĠTDis assembler
ĠSwag ger
Ġunix porthelper
Round s
//////// ////////
=' +
MVC Path
des cription
Ġfphttp server
ĠTT ile
Ġmode l
Ġ****************************************************************************** <
Delphi Demo
rays cale
ĠTIn structionGroup
ĠParam s
Ġct x
Cv n
"} ')<
Mon itor
Ġauthor s
LIB RARY
Ġad ded
ĠTByte s
pn g
we en
Duplic ate
TLua Caller
Ġstar taddress
Ġdam ages
ERR OR
gith ub
Ġhttppro tocol
" <
' );
( $
/ :
6 0
; //
= <
A ME
B IT
D R
D ao
F CGI
G EN
I f
I ZE
K EY
L icense
N G
N a
N ow
P ress
P ixels
R IC
S N
S nap
T Game
T ryGetValue
U tc
V ectored
W ar
W nd
X P
b ri
c r
c pu
d ouble
g es
g rees
h elper
i vi
l ongint
l vm
m x
n om
n ess
p le
p age
r v
r ate
v g
v o
w h
w s
z en
¨ å
» º
Ð ¾
å »º
æ ľ
æ Įī
æ ķ°
è ½
Ġ )
Ġ ack
Ġ Route
Ġ Height
Ġ ****************************************************************
Ķ åĽŀ
en tic
en sagem
ĠT Class
ĠT Type
ĠT Server
ĠT Address
ĠT Static
ti ll
ro ugh
ar s
ĠS F
ĠS can
ĠS tyle
ĠF List
ĠF ill
ĠF Run
ter min
ĠC a
ĠC v
roce s
ĠP tr
ĠP Page
ĠP refix
Ġth ere
ad os
Co u
Ġin s
Ġin stance
Ġin formation
is s
Ġre lease
ĠL ine
ĠL ocal
im e
Ġd x
Ġd ropDown
Ġm in
Ġm nu
ĠU SE
ĠU Graphic
type def
get Width
get connection
iz ar
iz es
ĠM u
ĠM ode
ĠM IDI
Pro blem
Ġ( -
DA EM
Ġresult s
Ġa ct
Ex it
ĠCon tent
Ġh andler
ĠTG raphic
Ma ster
On Terminate
Ġ2 1
ĠTB ase
ĠTB ool
Ch ildHandlesCreated
>// ------------------------------------------------------------------------------<
ĠFM ensagem
Im g
HTTP Method
Ġg roup
Ġg lobal
ĠTP eca
ĠĠĠĠĠĠĠĠĠĠĠĠĠĠĠĠ ĠĠĠ
AT ED
ĠBGRA Graphics
Service Controller
Consulta GerarDocumento
ao lo
ĠTList SimpleEvent
Log ger
Serial iz
Handle SSL
ymb o
Ġse ction
Ġse lf
com p
Is Not
Win control
ĠRes erved
ĠH Util
ĠEx tract
Server Events
val or
Connection s
ĠJ NI
CH EM
ms Of
ĠPointer scan
ĠUni Button
Generic Tree
Generic Matrix
Generic Queue
11 11
ĠTUni Button
Ġnew icon
Ġle ft
pa int
pa olor
ĠTGBSwaggerModel Header
Const s
Ra tio
Ġra sterimage
GL R
Port Printer
Pessoa TituloPagar
Pl aca
PA RAM
ĠMen u
Trans parent
ĠList Val
ĠTService Controller
ĠTService Usuario
ĠTService Pedido
lose Action
Input Device
ĠTDAO Item
clu de
Ġcontainer Border
Cadastro VinculoUsuario
DP ROC
ĠService Controller
Mag Id
IO HandleSSL
Ġsc roll
Ġthread names
ĠLast DisassembleData
Mensagem Aguarde
Mensagem Erro
ĠTDis sectedStruct
ĠVal id
Fl ags
TB ool
Ġsu ch
nowledg ment
Ġpar a
Ġsq l
Ctrl Code
ĠObj FPC
REST Client
ĠCur sor
return s
sh ot
mote Thread
CON T
è¿ ĶåĽŀ
utor ial
ĠTDiagramBlock SideDescriptor
cond ary
pect Ratio
ĠUSong s
ĠTPointer scan
SY N
ä» ¶
Envia MensagemAguarde
ICON DIR
Ġapplic ations
DESC RIC
Impressao Documento
Ipl Image
SM TP
============ ==
Ġdoc umentation
Ġcomm ercial
Cheque Imagem
Ġack nowledgment
DAEM ON
CHEM IN
msOf Service
paolor ossi
DESCRIC AO
( );
* )<
3 9
4 0
6 9
8 9
A ware
A CHE
B C
B ind
C R
C liente
D M
D en
D os
D ock
E H
N ative
N AME
P REC
Q RouterItem
R ole
S el
S ite
S witch
S IGN
T T
T One
T BGRA
U Int
V ec
b x
b lock
b irthday
c anvas
d c
d own
f older
g ative
h ren
k ip
l ink
n p
o uld
t thread
w ap
w arn
Ñ ģ
ä ¿
Ġ ke
Ġ round
Ġ ï¿½ï¿½ï¿½
er msOfService
in stance
re m
re et
re ase
re ating
en v
ĠT Z
ĠT ex
ĠT form
ĠT Entidade
ĠT reeview
ĠT Wincontrol
ro bal
ar b
le TaillesSP
al ity
an ne
Ġp s
Ġp lay
Ġp la
Ġp rint
ic al
ic iente
Ġf a
ĠC ON
ĠC EL
ĠP RI
ĠD ec
ĠD LL
Ġl im
Ġl anguage
ĠA lign
el y
// /
ĠG W
Ġw here
Ġw ould
Ġb ug
Ġb order
ver ter
Ġd yn
Ġd omain
Ġthe m
ĠI S
DE PT
ĠU HTTPServer
and y
ĠW bem
Ġde f
get Address
il able
il ity
lo red
con text
Ġn ow
ĠM in
ĠM icro
ĠM ora
ation Type
Ty pInfo
si te
ot mail
Param ByName
vi g
Ġh ook
Ġcon n
DEFINE D
Th rd
Ġu Gestion
Ġ1 99
On Click
ER GB
Ġt b
Key Press
Ġ* /<
ĠR ound
Get UserInfo
ĠE r
ĠE qual
ĠTD W
ĠTD ouble
Ġi Service
ĠTP DClient
ĠĠĠĠĠĠĠĠĠĠĠĠĠĠĠĠ ĠĠĠĠĠĠĠ
ĠO S
ill Send
ac tivate
he x
Ġst ate
64 7
ĠDe fined
Exception Info
ĠTL az
ĠRe set
Ġcom ctrls
tra ce
AP P
AP ACHE
ĠEx ec
ĠAs String
TInt Array
Ġfp Apache
ĠJ son
time out
ĠTS DL
Custom Button
Ġch ang
win control
Ġhttp d
From Name
From Table
FF T
fer ent
TF oundList
ĠEn gine
Ġstd ctrls
Check Box
ĠTGBSwaggerModel Tag
ĠAdd ress
Ġmacport defines
Ġnumer o
au thor
Trans lator
ĠList ar
ĠList View
Iter ator
bi ano
so le
åĪ ¶
Ġreturn count
Fa iled
Ġcurrent game
Produ ct
ĠuniGUIF rame
Scroll Bar
Ġar ising
ĠIm port
Multi part
FM X
ĠTy pInfo
RY PT
Last Branch
Ġcur sor
ĠSpecialized List
pres ent
ĠVal ues
Ġinclu ding
Debugger Interface
NO M
Ġne eded
ĠDataModule Create
Ġcall back
Ġlb Title
ĠImage NTHeader
ĠTOne RouterItem
Vari ant
ĠLDog DAO
Align ment
ĠTCI ERGB
sect Code
Ġdes cription
Cap ture
ĠTJson Object
ef iciente
tial ias
SwagParam Path
irc ular
Auth entic
Expanded Pixel
Sv c
Ġback ground
Ġcoordin ates
Delim iter
ĠFa biano
HE ADER
rack ets
MEM ORY
Ġet c
ril leTaillesSP
Ġarg ument
Ġcust apache
Ġob tain
ĠTAction Result
Vectored ExceptionHandler
War ning
ymbo ls
PREC ATED
anne ls
DEPT H
ĠMora is
LastBranch Record
' ;
3 3
7 5
7 9
9 6
: ');<
; ;
A Bytes
A CC
B ER
B rackets
C ache
C lip
C ExceptionHandler
D ot
E ffect
F G
F DB
F Time
F oc
F JSONArray
F Items
F FormatSettings
F ichier
G IN
G round
G StartApiPortListens
J PEG
L ink
M app
M icro
O uter
P H
Q Str
S izes
T ER
T Request
T IT
W e
W rapper
Z ip
] =
] )]<
^ (
a le
b mp
c b
c v
c ost
c pm
c ause
f cpm
h orse
h istory
h otmail
j ump
k ing
l ap
l ags
m ag
n Player
o k
o res
p icture
p rimitive
r z
r ing
s oft
s pec
s Machine
v l
v ing
w ise
w mi
y se
y le
z to
} ',
¡ æ
Ð ²
æ ŀ
ç ļ
Ġ !
Ġ ty
Ġ email
ģ ¯
ĩ ä»¶
Ľ å»º
er o
in ly
in line
re er
re al
en cy
ĠT I
ĠT Param
ĠT On
ĠT list
ĠT Commons
ĠT Cheat
ĠT Uptime
ĠT erminated
ĠT ExpandedPixel
se table
st atus
ro te
le ts
as y
Ġp n
Ġp age
Ġp ort
ĠS T
ĠS end
ĠS ymbol
ĠS DK
ĠS andy
Ġc p
Ġc lose
ĠF ield
ĠF Status
ĠF JSONArray
ĠF Rate
ĠF RealQuantity
ĠF Expectation
ĠF SUB
ĠF Dispersion
ĠF GLR
ĠF birthday
et ween
tr ies
ger Interface
ic io
Ġf name
ys zto
str iction
Ġo u
ĠP age
ĠP SDL
Ġth andle
ĠD el
ĠD emo
ĠD ibowski
Ġl messages
ag elist
ĠA Name
ĠA Key
ĠA Type
ĠA DO
ĠA Char
ĠA Instance
ĠA MagId
Re lator
Con d
Con vert
Con cur
Ġre f
Ġre striction
ĠL e
ĠL File
ĠL Field
ĠL Retorno
if ied
ĠG robal
Ġw rote
to tal
Ġb l
Ġb asic
Ġb reak
im agelist
Ġd om
Ġd np
ĠI ter
ĠI Request
ĠI Query
ĠI Entidade
ĠI Conexao
ĠU P
ĠU Language
ĠV irtual
ĠV isible
ĠV EH
Ġ' "}')<
em p
(' {
ĠW arn
List Integer
List Pointer
lo s
Ġn iv
ĠB arb
ĠM od
lean up
Ġ( (
-------- --
ch er
ĠIn sert
Req Multi
per c
si tive
li entes
Ġa o
ĠCon st
ĠCon tains
Ġh ow
Result Code
Data set
De leted
PC h
ur y
ur cher
Ġu Setup
File Path
File Exists
read ln
Ġ1 5
Add Body
Type Def
ĠGet Ping
Get value
He alth
Item Index
As Object
As sembly
As pectRatio
Ġi p
ox o
able Event
ĠTC loseAction
ĠTC FG
Im p
Ġg ener
Sc ores
ĠTP ersistent
ĠĠĠĠĠĠĠĠĠĠĠĠĠĠĠĠ ĠĠĠĠĠĠĠĠĠĠĠĠ
Ġbe cause
ĠO F
Str uc
he it
Controller Base
ĠTL ogin
ĠRe c
ĠRe cord
.. .<
User ID
Se qu
INT ER
Tree view
ĠTList Method
ĠTList NotifyEvent
Sh ape
ĠValue Type
ĠTHorseCore File
Us dx
Ġany one
ĠAs Int
ĠAs Integer
ĠAs Boolean
ĠCh ange
ĠJ cl
Method s
ĠTS imple
Ġal ter
Ġal pha
Ġal tered
ĠTGList Object
ĠTGList String
Char acter
ven ue
ĠPro blem
Ġconst ant
From File
ĠTControle ModalAjuda
ĠLCL Proc
Manager Create
Ġbyte s
Check ed
Ġmodif ication
ĠDo GetApi
ĠDo PostApi
ĠDo PutApi
amp F
angua ges
Json Response
Back Ground
Ra w
ark s
Ġce connection
MA GE
12 8
ĠStart ApiPortListens
************************************************************************ ******
Dog Id
ĠFP RO
ĠTFrm MercadoLibre
TC ryptographer
ĠTDAO Base
Ġtem peratura
ĠTGMatrix Item
ĠTGMatrix Row
Max Connections
Syn chronize
Team s
Token Manage
row ser
Tra iling
ĠAr c
åĪ Ľå»º
ĠQ WORD
Ġmax Width
Only Data
ĠMain Service
ĠStop Api
ĠTGTree Item
ĠTGTree Index
ĠItem Index
Ne gative
Exp r
ĠFT rustInterval
check s
Ġcal led
Ġcal endar
ĠDaemon App
ĠTGQueue List
ĠTGQueue Item
ĠTGQueue Index
ĠStartApiListen s
ĠStartApiListen Port
ĠStartApiListen Host
ĠCdsConsulta ID
Hook ableEvent
ĠDis persion
Duet SixP
ĠUN IT
ĠFC MQuantity
ĠFC BQuantity
MVC HTTPMethod
Ġinitial Pascal
Best RecordNumber
WN DPROC
Anim ator
ĠTQueue Integer
Shared Memory
Six PAvatar
ĠAl tered
Ġsa ved
ĠTDictionary IntegerString
ĠTGMatrixIndex X
ĠTGMatrixIndex Y
ĠAu to
ĠEncode DateTime
hwnd Combo
mi ke
tit ude
Midi Event
Ġem si
Desc r
ell API
ĠApache ModuleData
Ġqu antity
Worse RecordNumber
ĠTREST Request
ĠFAmount IterationMean
ĠFAmount TimeMean
Java Types
WMI Query
ĠTGTreeNode List
ĠnetworkInterface Api
ĠDebug gerInterface
ĠSQL ite
ĠMemory Record
ĠFlast Name
Ġdep reciated
Highligh ter
ĠTStack Integer
Ġmark ed
Ansi Char
Ġbgra bitmap
Shut Down
è® °
ĠSup nik
Ġfix es
Ġbul lets
GetTick Count
æĸ ĩä»¶
ĠEmpty Str
velop ment
ĠTAdvancedDropDown List
ĠFI LE
Ġmag wmi
Ġgran ted
Na vig
Ġins tead
IsNot Null
clude Trailing
hren heit
ä¿ ¡æ
instance d
Ġpla inly
ĠuGestion BDD
ĠImport From
Mapp ing
rz yszto
yse x
çļ Ħ
ĠTCommons Test
setable Thread
ĠAChar set
Relator io
Concur so
Ġrestriction s
ĠWarn ings
ĠBarb our
BackGround s
Navig ator
ä¿¡æ ģ¯
rzyszto f
! ')<
' ',
' ]);<
( "
) (
) ';<
) +'
. )<
0 7
2 3
4 04
7 8
8 0
9 2
> );
? <
B EG
B LO
D iagram
D ados
E val
F D
F low
F MOD
G R
G UID
H ist
I A
I p
K O
M ime
O k
O UT
P g
P Color
P RI
R IT
R adi
R TL
S W
T Text
T Index
U D
V T
W A
Z T
Z oom
b p
b ad
b ers
b uf
b ab
c decl
e vent
g i
h oxo
i tation
j or
l ines
m edi
p ol
p essoa
p info
r andom
s FileName
u se
u pe
v es
w m
w ith
w ard
z p
¦ åĪ
³ ¨å
Ñ Ĥ
å Ń
æ ī
æ į
è ·
ĉ ĉ
Ġ \
Ġ xt
Ġ Handler
Ġ Handle
Ĩ Į
Ļ ä¼
ľ Ģ
er eco
in i
in itialize
re t
ĠT Ch
ĠT Collection
ĠT rans
ĠT Registry
ĠT Application
ĠT TC
ĠT Icon
ĠT Async
ĠT Thrd
se lected
st op
ro upe
ar ge
an k
th es
th is
th andler
as on
Ġp as
Ġp ipe
Ġp latform
ĠS te
ĠS ource
ĠS cript
:= (
Ġc f
Ġc laim
ĠF ast
ĠF Required
ĠF rame
ĠF Pessoa
ĠF Find
ĠF Nome
ĠC P
ĠC V
In c
ate n
ua tion
Ġo p
ĠP lay
ĠP ass
ĠP red
ĠP opulation
ĠP AnsiChar
Co in
ri p
ri or
ĠA ction
Re ceiv
ra se
Con f
ou tp
ĠL en
ĠL JsonResponse
cl ick
Ġs ave
Ġs ymhandler
if ile
if ferent
to bject
Ġb g
Ġend ereco
IN SER
Ġd ibowski
ĠI Printer
DE PRECATED
ĠU S
oo gle
ph an
id o
id er
Ġde c
Ġde lta
Ġde grees
List Array
List Entry
ap ter
Callback Interrupted
ĠB itmap
ĠM id
ĠM READER
Pro ps
per ly
si ve
Ġe ax
Ġe ffect
ĠTG UID
ĠTG eneric
De stination
Ġu FTP
Col B
Col G
Ar g
Ar tist
On Timer
Add r
Add resses
ĠR o
Type Helper
ĠGet Id
ĠGet Base
Ġ2 023
Get Data
Get Proc
ual count
ĠN om
ĠN ot
ec as
Ġread Bytes
Ġg o
Text Object
Ġex ec
ĠCreate ByteTable
tic les
ast er
Ġst ack
Ġst atus
Ġr ate
Inter net
ound list
ĠDe velopers
ĠBGRA Read
ĠBGRA Transform
NU M
IC E
ĠTF ind
ĠCom m
Coun ter
CE CExceptionHandler
Tree View
ĠFree OnTerminate
ĠId Component
Ġ3 3
Ġget X
ĠH igh
ĠH osxp
ĠOne TokenManage
ĠIGBSwagger Contact
ĠIGBSwagger Tag
ĠJ O
Ġq ry
ĠTM ap
ĠTM ouse
Custom Draw
RE GI
An gle
ĠTR tti
From Pointer
PO S
Screen Sing
ĠTUni Query
ĠK rzysztof
Ġnew size
ĠTCustom Memo
ask ar
ĠTString Array
ĠTString Grid
Phys Pg
Ac ces
Http Client
Process Memory
Ġcopy right
control ler
Json Controller
Ġ200 2
Ġ200 6
Ġ200 7
Ġinter ia
Ġall ow
DataModule Create
All ow
Device s
Song Menu
ĠEHorse CallbackInterrupted
line Input
Ġapp reciated
va ilable
Virtual Screen
åĪ °
Fact or
Ġz stream
Ret urn
Symbol List
ĠFT abela
Ġcheck listbox
duce Line
Ġcur r
ĠTCE P
Do Not
ĠTData Source
Fl at
Ġalloc ate
Global POS
Ġscan ner
Duet P
Del ta
Wait For
ĠTFD Connection
WN D
ĠTMemory Stream
Ġplugin s
Ġhandle d
Fail ure
Ġopen cv
ĠAu thor
SysInfo Obj
ffff ffff
Colors pace
ĠTDog Entity
ĠRef lection
Ġadd resses
inition s
ĠTHTTP HandlerData
Ġstop address
Long Ptr
ĠULua ScreenSing
Cap acity
DriverL ink
ĠSimple Project
Ðµ Ð
ĠLId Pedido
Modif ied
REC ORD
åĲ ¦åĪ
Ġfre ely
TString List
Ġfield s
Ġ'. \
conn ected
trans action
ĠPAS API
ĠBC RYPT
ĠTGUI TextObject
ĠCreateNew Demo
ĠWebModule Class
ä¸Ģ ä¸
ĠTIni File
Ġpbyte array
ĠLData Connection
Ġtermin ated
png image
BIT MAP
ĠPtr Int
Ġrelease d
Dos Header
TOne ControllerBase
ĠMicro soft
ĠEr ror
ACC ESS
Ġty pinfo
ĠSymbol List
ĠMemoryRecord Unit
BEG IN
medi ate
³¨å ĨĮ
Ļä¼ ļ
outp ut
GetProc Address
ĠreadBytes FromTable
ĠCreateByteTable FromPointer
REGI ST
PhysPg DriverLink
lineInput Query
åĲ¦åĪ Ļä¼ļ
' '
' ]
( _
) /
) >
) );
+ +
2 7
7 2
9 8
> ('
A A
A SE
A mb
A Button
B R
B Y
B AS
B inary
B ounds
C RA
C UR
D i
D RA
D WORD
F B
G en
G ray
G lyph
I t
I co
L st
L ig
L vl
M X
M AR
P ol
P NG
P ecas
Q ual
R M
S OR
S ort
S mallInt
T Canvas
U X
V ide
\ <
a SQL
d ivi
f q
f ed
f ix
g us
g reen
i ra
i vers
j s
j ected
j peg
l ision
m u
m odulename
n umber
p osition
q lite
s File
s ymbolhandler
s tep
s ymhandler
s PW
u as
} ):
½ ķ
Ã ¡
Î µ
Ð °
Ð »
Ñ Ģ
å ¤
å ħ
Ġ er
Ġ ul
Ġ IN
Ġ ****************
er g
in ished
en c
en try
en tity
ĠT Field
ĠT Inter
ĠT Stat
ĠT Util
ĠT Resource
ĠT ImageList
ĠT Audio
ĠT ComboBox
ĠT IB
se CC
or er
le tion
le ss
un ik
an ew
de b
de l
de m
de vice
Ġp or
Ġp arent
ĠS cale
ĠS mallInt
:= -
Ġc ada
Ġc reating
ĠF Thread
ĠF Query
ĠF Quantity
ĠF Login
ĠF Schema
ĠF ilename
ĠF MachineQuantity
et te
am ic
ic ion
Ġf on
Ġf ade
Ġf gl
du al
ĠC all
ĠC aption
ĠC lose
ĠC lear
ĠC DX
In v
In formation
str ado
ĠP re
ĠP ush
ĠP IplImage
ĠD otNet
orse t
Ġ= ====
ri seCC
Ġl ink
ĠA Button
ĠA Prompt
Re ference
pe at
pe cted
Ġre l
el a
cl ose
Ġs olve
Ġw rit
to ire
Ġb ig
Ġb uf
ver ts
orm ot
IN D
IN DE
Ġd bs
Ġd ifferent
Res olution
Ġm ormot
and nil
ph ore
ub yte
om unik
ĠW nd
get Count
il li
List Form
Call Stack
Ġn Ã£o
ĠB rush
ĠB reer
ĠM on
ĠM ulti
ĠM sg
ĠM OD
Pro gram
EN CODING
ch e
Ġ// ï¿½ï¿½ï¿½ï¿½
ĠIn put
li ance
Ex ported
Value Type
Ġun til
Ġpro perly
', [
To Iso
ol id
Ġe cx
Ġcon tain
Ġcon nection
ase d
ĠTG et
ĠTG IF
Ma c
File Utils
File Version
set Width
Ġ1 00
Path Queue
Add Stream
ĠR L
Type Handler
ĠGet Quantity
Ġ2 2
ten ded
DB Lookup
Ch ildren
Ch annel
Ġ- >
ĠN ative
ĠN UM
>{ *
>{ ******************************************************************************
Id HTTP
Ġx xx
Thread Id
Mode lo
OR DER
vent type
Ġi e
Ġi Pessoa
Ġi Rest
ff ine
ĠTC DClient
ĠTC riticalSection
push value
Ġg over
Module List
ĠWin sock
Field ByName
ĠTP lay
Index Header
Ġbe fore
Ġex p
Edit Box
roup Box
he aders
ĠSet Quantity
ĠSet Gamma
ĠSet MachineQuantity
Image Header
Image NtHeaders
ĠDe leted
ĠBGRA SSE
ĠBGRA BITMAP
ĠRe st
ĠRe venue
Message BoxA
IC K
IC INF
ĠTF ill
ĠTF MX
Or dem
Status InfoCmd
HI LE
ĠId ent
ex pl
ex ecute
form ance
Memory Stream
Ġse lect
Web DAV
SS Unit
bo ard
col orset
new draw
Au thor
Method Property
Read String
Custom Gamma
Ġal ready
ĠTfrm Home
Dis abled
ĠWeb cam
ĠPro vid
Generic Set
Generic Stack
Generic Dictionary
MP layer
ĠTGBSwagger Register
ĠK IND
Record Count
ĠTCustom Edit
ĠEn gl
ĠTString Stream
ĠTString Field
param eter
one Event
Ġfree andnil
Pointer scan
pa ulo
ĠTGBSwaggerModel Schema
Float ToStr
ĠLaz Utils
Send Receiv
Ġ200 3
URL Frame
uti l
ĠTA DO
AS CI
Func s
ĠTW MS
no te
AL IGN
Regist ers
EX EC
Pixel Format
Virtual Memory
åĪ Ĩ
lf anew
TL S
lugin Version
Ġar rays
Ġcomp liance
Point s
ĠUScreen Options
By Id
Lib Name
ĠTE CRA
Filter Scanner
TI ME
Ġcal cul
ĠTo String
ĠFData Stream
ĠSize Of
Alloc ate
ssi ble
stall ation
ĠcontainerFont Names
ĠcontainerFont Colors
ĠDis play
Local ized
ie te
Ġline ar
LO OP
Row State
Ver if
Ġpo ssible
Ġplugin exports
Ġfl ags
Ġï¿½ï¿½ï¿½ï¿½ ï¿½ï¿½
ORM ATION
200 5
SER VER
Match s
ĠTcustom panel
ĠAu dio
ĠCombo Name
PG Def
ĠTe am
ĠTe arDown
ĠTDog s
09 6
Ext FloatNumber
Ext Zoom
Vari able
ĠTMenu Prn
ĠTScreen Party
ĠSyn chronize
Ad apter
dy lib
ga Ini
ĠTLua Server
:=' ';<
ĠCustom TypeHandler
Changed Addresses
service Path
)^. _
ĠTIn tegrityCheckThread
LA ST
My SQL
RES ULT
yr ic
ĠTDB Edit
Chx Mag
ĠApply CustomGamma
ĠLong word
ĠNo te
ĠObter Registros
original draw
ĠLId Usuario
Ġ**************************************************************************** *<
Dbl Word
ĠLAPI Response
Ġcommand s
ĠTJSON ExtFloatNumber
ĠTRate Dao
NumberOf Bytes
ĠAmount IterationMean
ĠIGBSwaggerPath Method
ĠJv Design
Camera ExtZoom
ĠUC DClient
ĠProcurar PorId
BU G
Hash List
PImage DosHeader
Sync Source
Dr ag
Loc ation
ĠCool Dock
Ġsmall int
Snap shot
XP M
bri r
vg Lvl
è½ ½
Ġ**************************************************************** ******
roces ses
ĠTBase Event
ĠTBool Array
rem arks
Ġlim itation
ĠGW LP
getAddress FromName
Authentic ation
Ġargument s
We ak
æŀ ľ
Cond itional
Ġtemperatura Em
BLO B
Eval uation
RIT E
ĠSte phan
Colorspace Helper
RECORD S
BAS ICINF
Lig ne
divi dual
ĠCDX UT
omunik at
Exported Functions
DBLookup ComboBox
>{****************************************************************************** }<
Ġgover ning
ĠTFMX Object
ASCI I
EXEC UT
ĠTECRA cknowledgementCmd
ĠCoolDock Client
vgLvl Tree
Ġlimitation s
BASICINF ORMATION
" ,
) ');<
/ '
1 9
4 8
5 00
: \
A DE
A bout
A cknowledgementCmd
A BLE
B mp
B AD
B illSend
C MD
D omain
D irection
E O
E T
E d
F Swagger
F ChangeStatus
G A
G ate
G IF
G PL
H istory
K omunikat
L Id
L Service
L ock
M IN
M arca
O bter
O rigin
P refix
Q word
R PC
R andom
S al
S ample
S DK
T DB
T ran
T DAO
T NotifyEvent
T PClient
U F
V AR
V ATE
W RITE
Z VT
a ur
c p
c cl
c lasses
f s
f ra
g lobal
h lp
i or
k nown
m en
m ost
n a
n iv
n umeric
o li
o ffset
p layer
p ires
r ToStr
r tti
s Unit
s rc
u il
u ally
y pes
§ åĪ¶
Ã §
å Ļ
å ¥½
å ½ķ
Ġ ):
Ġ ----------------
Ġ ang
Ġ title
Ĥ è½½
Į Ĥè½½
ĵ æŀľ
in it
on de
ĠT ra
ĠT Config
ĠT ryGetValue
ĠT picture
or iz
or ted
un r
un Ã§
tion s
de v
Ġp ixel
Ġp olygon
Ġp erson
ĠS ymbolListHandler
end ing
ta g
Ġc u
Ġc or
ĠF n
ĠF Is
ĠF loat
ĠF error
ĠF FormatSettings
ĠF UnMedida
ĠF ValorUnAtual
ĠF nome
ĠF lags
et or
am aur
ic ial
ic ao
Ġf loat
Ġf TextureCoords
ĠC M
ĠC an
ĠC ra
ĠC md
In s
In ser
ys pires
ĠP E
ĠP ower
ĠP rint
Co lored
ĠD AR
is function
ĠA Data
ĠA ug
ĠA ma
ĠA Obj
ĠA Description
ĠA Caption
ue lta
ou gh
ĠL anguage
Ġs ong
Ġs ite
Ġs peed
Ġs BitBtn
Ġs pecif
Ġs plit
Ġs peedhack
// <
fa ct
ĠG raph
Ġw Param
Ġw ant
Ġb ReadOnly
ver y
IN UE
Ġd c
DE CODING
Ġm y
Ġm odulename
ĠU p
ĠU Party
ĠU frm
ĠV ari
Ġ' \
ph y
id Usuario
ĠW ideString
ed ia
Ġde al
Ġde lete
get Height
get tick
us uario
lo or
con fig
con trols
iz a
ĠB e
ĠB lock
ind Form
ĠM ur
ĠM anager
Pro x
Ġ( *
ch ange
ch ildren
Form Show
ot trace
Param Value
Ġa bsolute
Ġa vailable
Ex tract
ĠCon fig
Ġto bject
To Data
To Hex
um b
Ġh otkey
Ġh old
Ġ{ **<
Ġcon tinue
Create Params
Lua Handler
PC M
Ma il
Ġu Common
Ġu DW
File Size
Respon ses
Ar quivo
ve ira
Path Delimiter
Ġt wo
Ġt wincontrol
Key Type
ĠR S
ĠR DP
ĠGet JSON
Ġ2 44
Get Bytes
ts on
ĠTB rush
TP anel
TP EG
ari an
Ch ave
ĠE m
ĠN od
ĠN ormal
ir d
HT TPClient
ĠFM emo
Array Function
Thread Event
ĠLicense d
IT CH
act ypes
MODE SW
ren ts
ĠTP T
ĠTP ar
ĠTP rocess
ĠĠĠĠĠĠĠĠĠĠĠĠĠĠĠĠ ĠĠĠĠ
ĠĠĠĠĠĠĠĠĠĠĠĠĠĠĠĠ ĠĠĠĠĠĠĠĠĠĠĠĠĠ
Ġex ist
Ġex port
Ġst ream
Ġr l
Ġr t
Ġr andom
ĠBGRA Canvas
Ġvar iant
ĠLua Custom
Ġv mx
UR CE
ma chine
ber tson
Ġj boolean
Se ek
LE CT
text ure
Graphics Content
Code Bar
ex tra
View Text
Table To
com pression
Web Socket
bo th
ĠH ttp
ĠTBGRA Button
val ho
TE D
io bject
Ġal so
Ġch anged
Ġch ildren
ĠTfrm Splash
az ine
RE QU
ĠText GL
CO L
From Stream
FF indForm
ip ulation
http GET
ock et
ĠDB Ctrls
pro gress
Process or
Process ID
Check ListBox
pa ti
ĠNew Item
ME Type
Lay ers
MA IL
rs Inc
agem ap
Show Ip
PT Log
peed Button
Ġdis play
iag nos
And roid
Device Info
JNI Bridge
ĠFP Image
ĠFP image
ĠOneHttp Const
Ġare a
ĠTDAO Orcamento
bl ue
Ġfpjson rtti
)) ));<
Syn ch
Syn tax
201 7
BGRA Bitmap
Tra cer
ĠZ Connection
ĠZ Dataset
so lete
Ġmax size
Ġtime out
Play List
Play ers
ĠFId Pessoa
ĠFId Endereco
ĠFId Rate
Mag ic
Mag enta
Ġar ticles
ĠIm g
ĠInt ToStr
CGI App
ĠLog Niv
igh ts
Ġco eficiente
ĠFind Struc
Ġbtn Start
Ġbtn Stop
ĠSelect Bool
ĠAn gus
erc icio
RY INDE
Ġcheck box
ĠfOn Timer
Ġtemp Folder
Ġjson Obj
enta ge
ĠTFile Desc
ĠVal ide
Load ing
Ġtable index
Conexao Factory
ĠTim e
Ġcustom Control
Ġcustom imagelist
XML RPC
Ġæ ľĢ
debug ger
ĠFade Progress
inkoia Protocol
Ġsq rt
Ġsq lite
Side Bar
ĠTMemory Record
Ġitem s
Ġauto assembler
]:= #
ĠCur rency
ĠCur rToStr
SER VE
return count
SysInfo List
ĠEncode Date
dis assembler
ĠTBack ground
Ref lection
ĠUpdate DateTime
Ġfind dialog
ĠMag azine
CON TEXT
ĠTHTTP Server
ĠAnsi Char
part ly
orrect NumberOf
Permission s
Ġimg Icon
Script ing
My Controller
ĠTEvent Panel
Ġdraw ing
ĠBase Address
AsStream NotFound
ĠTMy Query
Cheat E
Ġte am
ĠTf ViewPage
Neo Button
FC liente
DEV ICE
Layer Original
ĠSM ART
ĠUScreenParty Tournament
THorse Callback
gf id
Ġtim er
alloc s
Gu ess
Sv r
Ġsup port
Arrow Styles
ĠFrom DPI
ĠFlast Update
Highligh ted
VAL UE
ĠUL ONG
ĠJukebox Static
dog s
GetCurrent ThreadId
ĠTRate Entity
ç» ĵæŀľ
ĠBack Obj
CA ST
æĪ ·
Ġes d
ĠRa ise
NFe XML
Ġag re
ĠEN V
ĠCar valho
intto hex
Compare Mem
Ġimport ing
rotation point
ĠBl onde
ĠAsStream NotFound
ĠFPRead JPEG
ĠLocal Search
typedef initions
ĠMode l
Serializ er
ĠExtract FilePath
CONT INUE
Den is
ĠPRI ME
ĠWbem Scripting
Foc us
ĠST ART
ĠFbirthday Date
ĠLe ft
ĠUP DClient
---------- <
lientes Model
PCh ar
cludeTrailing PathDelimiter
pol ation
ĠScript ing
ider ed
ĠMid dleware
ĠRo bertson
ĠTFind Dialog
mediate StatusInfoCmd
REGIST RYINDE
Pol ler
ivers arian
Ġ**************** ***
ĠTInter mediateStatusInfoCmd
Ġcada strado
ĠEngl and
TDAO Base
ZVT Protocol
oli veira
§åĪ¶ åĻ
oriz ont
amaur yspires
ĠCra ig
ĠDAR WIN
ĠAug ust
ĠAma ury
ĠGraph Type
gettick count
ĠMur phy
TPEG inkoiaProtocol
ĠNormal ize
MODESW ITCH
Ġvmx functions
GraphicsContent ViewText
CodeBar re
rsInc orrectNumberOf
ĠTFileDesc WebPage
ĠæľĢ å¥½
ĠBlonde au
REGISTRYINDE X
rsIncorrectNumberOf Parameters
" },
' ])
( #
. {$
1 7
1 000
4 2
4 9
9 7
: ';<
< =
= $
= %
> *
> -
> ><
A CKDO
B in
B Controller
C HI
C rypt
D ac
D pi
D sCep
F ra
G N
G ER
G DB
G MENT
I E
I V
I Response
J ukebox
L D
N um
N umeric
P S
P es
P ER
P Array
P Byte
S TE
S olid
T Mem
T DateTime
T DataSet
T rim
T arget
T WebRequest
V K
W P
W ant
X M
X Chave
Y ou
Y ST
] ;
_ <
a ac
b ility
c ore
d ialogs
d ropDown
e Label
f TextureCoords
g ed
h s
i us
i ased
l en
n k
n List
n ext
s ave
s cri
s cript
s RGB
s cale
s uspended
t Comp
t arget
t method
u List
w n
w r
w param
z ill
z rfisaac
} ';<
¡ ç
¦ ģ
¨ ç±»
¯ çĶ
¾ ĭ
Ã °
Ú µ
ä ¾ĭ
è ¡
è ĩªå®ļä¹ī
é Ĺ
Ġ --
Ġ Quantity
Ĳ Ĩ
er r
on Click
re ation
te am
te ct
te pen
ĠT U
ĠT ce
ĠT To
ĠT op
ĠT Qu
ĠT Version
ĠT Char
ĠT ry
ĠT MachineLine
ĠT DBGrid
ĠT XS
ĠT Health
ĠT TPEGinkoiaProtocol
se conds
or POST
st a
st ock
ar c
le ur
ce p
ce funcproc
un g
an tidebug
de ad
as m
Ġp te
ĠS ER
ĠS ender
ĠS ome
ĠS ample
ĠS ockets
ĠS WP
Ġc b
Ġc lear
Ġc bi
Ġc types
ĠF Value
ĠF Request
ĠF Text
ĠF ilter
ĠF ax
ĠF BufferQuantity
ĠF lot
ĠF BestRecordNumber
ĠF WorseRecordNumber
tr ackbar
Ġf s
Ġf nt
Ġf ilter
ĠC or
ĠC ri
ĠC anvas
ĠC leanup
In File
In icial
Ġo per
Ġo CEPModel
ĠP A
ĠP C
ĠP Float
ĠP osition
ĠP BGRA
ĠP latform
ĠP hoxo
Ġth an
ad ing
Co st
ĠD ir
ĠD MODE
ĠD ave
ĠD IG
Ġin iFiles
Horse Exception
Ġ= ================================
Ġl ines
Ġl uas
is string
ĠSys utils
ĠA ct
ĠA Message
ĠA Params
ĠA FieldName
ĠA WebRequest
Re d
Re ceived
Re moteThread
pe ak
Con struction
Con nexion
Con verter
Ġre st
ck tComp
el ength
ist or
ist able
ect ar
ĠL IN
ĠL Body
ĠL ogin
ĠL anguages
Ġs cript
Ġs tep
Ġs leep
ĠG ate
ĠG amma
ĠG lobal
Ġw ell
Ġb inary
Ġb uffers
ver se
IN C
Ġd ot
IF ft
ĠI Device
ĠI Direct
lic it
Ġm u
Ġm an
ĠU Web
ĠU Note
ĠU fra
Ġ' )
Ġ' {
ss l
ss age
id Team
id Orcamento
Ġde v
get Element
get Column
List SubClass
ap se
iz able
Ġn ormal
ĠB tn
Contro ler
ĠTHorse Rtti
ĠTHorse Compression
ĠM y
ĠM ouse
ĠM ercado
ire d
ire Dac
og ram
ch no
lua L
Ġ// ï¿½
**************** ********
per toire
si ent
si tes
Form Left
Ġa ction
Ġa Nome
Ex ist
Ex pression
Value AsObject
Ġun t
Ġto ken
En code
uct ure
Ġe xt
Result Descr
Ġ{ <
Ġcon s
Ġcon version
Ġcon tex
Ġcon verts
De struction
Ġuni Image
Lua Call
Com m
00 01
Ġu Tooan
Col lision
SE LECT
SE GMENT
Ġ1 000
Swag Required
Swag GET
ener y
ig o
Ar ch
On Paint
ER Y
Ġt reeview
Ġt find
ĠR x
ĠR ibbon
Control Count
ĠGet App
ĠGet Log
ĠGet Headers
ĠGet RealQuantity
ĠGet FileSize
ï¿½ <
Get ById
ĠTB uffer
ĠData base
DB X
TP opulation
Ch ild
======== ==
istr ation
ĠN E
ĠN il
>// #
ender eco
ush count
Ġ0 1
ĠForm Close
ĠTD O
Un known
ec os
Ġread bytes
Reg istration
ĠTC GI
ĠTC aseNameDefinition
ĠTh ird
HTTP HEADER
Ġg lyph
ĠWin Control
Field ID
ĠTP icture
pt BR
Ġex tra
tic s
01 01
ĠGener ic
tn ame
he st
he et
EST BODY
Ġr ange
ĠSet Id
ĠSet BufferQuantity
ĠSet OnListen
Image Index
Image Man
ĠDe let
Exception Logger
Cons idered
ĠBGRA Gradient
Ġas m
Ġas String
Ġas sembler
Ġan imation
Ġvar type
ĠLua Collection
Ġv Idx
ĠUn ix
Ġparam type
ĠOn Mouse
App ro
Ġj int
Ġj ava
Provid ers
Provider Abstract
Ġlist view
Comp letion
ĠTList Object
ĠTList Integer
ĠTList View
ĠTList Pointer
ĠTList Stack
ĠTList Boolean
ĠTList Double
ĠTList SmallInt
AP SE
ĠControle Operacoes
ĠControle Livre
Log o
ĠX PL
Ġus Deleted
Ġus Modified
Ġus Inser
Serial PortPrinter
Equal Function
form s
Memory View
Ġmem rec
Web File
Web site
ĠH ORSE
ĠEx p
ĠEx pectation
ĠOne Multipart
ĠTBGRA Path
ke ys
new size
new kernelhandler
ĠIGBSwagger Register
Address To
Address File
Ġ" ';<
Ġset Id
Ġq ua
Read y
Read Byte
Read Size
Custom er
Ġch ild
Ġch unk
Line ar
Dis able
RE ADE
An y
win s
CO OK
UL O
ĠUni Image
Buffer Memory
ĠTControle ConsultaGerarDocumento
ĠTControle CadastroVinculoUsuario
ĠTControle MensagemErro
ĠTControle EnviaMensagemAguarde
ĠTControle ImpressaoDocumento
Screen Mask
Machine Memory
Ph rase
ĠMa ke
ĠTUni ServerModule
Font Color
RO M
________ __
Ġobject s
ORD RE
Ac count
scan ner
Parent ModuleName
Run Statistic
SQL ite
Check s
ĠDo Bets
ĠDo OnListen
TObject List
ENT RY
**************************************************************** ************************
ĠRegister Components
Ġ201 2
Ġ201 9
ĠLaz FreeType
ME T
MA G
anguage Type
URL SEGMENT
ĠTA lign
RIG GER
ĠNO TE
Ġgl Color
Cmd Event
End Angle
All Printer
ĠStr ucture
Context Record
tes te
Application Descriptor
TC P
TC aseNameDefinition
Ġen try
Ġen US
Ender ecos
Le ave
sg Grid
Ġsh l
Ġsh r
Ġsh ared
thread handle
)) /(
Syn apse
Ġtr ack
UN MODIFIED
Ġreg ister
201 3
BGRA Button
ĠZ oom
ich ar
ĠQ RouterItem
Ġz rfisaac
TL anguageType
DS HTTP
ans ichar
ĠService s
TControle Operacoes
ĠChar set
ĠTControleConsultaModal Banco
ĠTControleConsultaModal Cidade
ĠTControleConsultaModal TipoTitulo
ĠTControleConsultaModal Convenio
ĠTControleConsultaModal PessoaTituloPagar
ĠLog Path
Ret our
Audio Device
ĠFind All
Ġbtn GetUserInfo
Ġ'' )
Auto Created
ä¸ į
Sub Image
Sub ModuleName
ĠTTree String
ĠTTree Integer
ĠTTree Pointer
lip se
Ġsome thing
>/// *
LCL Proc
ĠTMain Form
Orcamento PorId
Ġedit Access
Ġedit UserID
TI PO
Ġlp NumberOfBytes
Ġprocess id
ĠTCE CustomButton
ĠTCE Treeview
Alloc ation
ĠCdsConsulta DESCRICAO
Sock s
ĠTFile Stream
ĠTFile ListByte
mission s
Ġinclu de
Ġalloc s
ĠcontainerFont Styles
ĠcontainerFont Sizes
ĠcontainerFont BackGrounds
ura tion
Connect Dialog
Duet FourP
NO ME
Ġne cess
ĠxId User
ĠxId Orcamento
ĠIs aac
result s
Ġæ ĮĤè½½
ster Image
GET orPOST
Ġk now
ĠTQueue Byte
Ġwork s
ĠAP Is
ĠAP refix
ĠAl loc
DPI Aware
ĠTe chno
CF G
Vari ables
els ius
Ġdu ring
ĠTGSet List
ĠTGSet Item
ĠTGSet Index
ĠTGStack List
ĠTGStack Item
ĠTGStack Index
FT abela
pose Mode
ga tif
nam elength
ĠTLua Caller
ĠUs dx
ĠControleConsultaModal TituloCategoria
fter Construction
mod rm
ĠTRe setableThread
ĠULua Usdx
Properties Store
Exec ution
Internal Listen
WebModule Class
Bl ue
ĠTSet Integer
ĠTSet Pointer
IP List
ĠTDataSet SerializeConfig
Ġnum bers
ĠChart Hist
ªå ¥½
Rest ore
SwagParam Body
ĠTREST Client
ĠApply Gamma
FC e
Four PAvatar
fb client
SO URCE
ĠCURL INFO
Ġtotal Height
ĠTGPair Value
ĠTGPair Key
ĠTGDictionary List
ĠTGDictionary Index
________________________________ ________________________________
quivo Base
THorse ProviderAbstract
gf x
ob solete
Library Location
ĠTStatus InfoCmd
Cool Translator
ĠTClient Aguarde
PACK AGE
PACK RECORDS
CP FCliente
Dll Directory
ĠTText EntityType
fore Destruction
Ġcoordin ate
Wh ats
ĠFD sCep
ĠNe on
ĠNe gatif
ĠTHorseCoreParam Field
Combobox ListHandler
GUI Object
syn thes
QU ERY
Ġè ĩªå®ļä¹ī
Ġfrx Export
ĠAmount TimeMean
ĠMe thod
Updated Status
ĠTControleOperacoes Caixa
ĠTControleLivre ChequeImagem
sp acing
default Brush
ĠMask Edit
ĠTBGRANeo Button
Ġdebugger typedefinitions
ĠActive X
655 36
655 35
Soc iete
sa fed
äº ¤
æİ §åĪ¶åĻ
DELETE D
ĠWh ile
ĠDevice Path
ĠAddCallback s
ĠTControleConsultaModalTituloCategoria Pagar
ĠTControleConsultaModalTituloCategoria Receber
RTTI ä¿¡æģ¯
Fill Rect
ĠPByte Array
Ġ================================================================= ================
Ġtmemory stream
zen as
ĠTStatic GUIObject
rough put
ĠCa ires
ĠMu tation
ĠTListSimpleEvent Base
1111 13
ĠListVal B
ĠTDAOItem Servico
ĠcontainerBorder Color
ĠValid ate
SYN APSE
ĠCEL UA
Ġhook window
Ġconn ect
ĠTSDL InputDevice
Ġnumero Concurso
sectCode Thread
tialias ing
PH PArray
TIT ULO
ĠTlist column
ĠTPersistent class
ĠTListNotifyEvent Base
Raw Image
åĪĽå»º æİ§åĪ¶åĻ
Animator Timer
è®° å½ķ
æĸĩä»¶ è®°å½ķ
ĠImportFrom Internet
KO IA
UD IO
WA IT
ĠTAsync Timer
ĠFast CompareMem
INSER TED
ĠJO YST
askar a
Ġcurr Width
DoNot Encode
Flat Array
ä¸Ģä¸ ªå¥½
åĲ¦åĪĻä¼ļ æĮī
Qual ity
TCanvas Object
Vide o
enc ia
ĠTUtil Banco
del ph
ĠFThread Timer
icion arRegistro
illi seconds
headers ize
ĠWebcam Frame
ĠProvid ers
åĪĨ æĸĩä»¶è®°å½ķ
Ġ********************************************************************** <
Obter Registros
Tran sient
Ġspecif ied
REQU ESTBODY
COL OR
progress bar
ĠValide Numeric
CheatE Coin
ĠRaise HorseException
orizont al
ĠæľĢå¥½ èĩªå®ļä¹ī
"}, {"
Pes qu
TDataSet SerializeConfig
hs Brackets
zill a
¯çĶ ±
ĠTQu ick
ĠTHealth Bar
ĠFax eLabel
ĠFlot ant
ĠCri ado
ĠCleanup LuaCall
ĠDIG CF
ĠLIN UX
ĠGlobal s
IFft View
ĠIDevice Array
ssage BoxA
ĠTHorseRtti TypeHelper
ĠuTooan Class
Ġtfind dialog
ĠTCGI ApplicationDescriptor
ImageMan ipulation
ĠusInser ted
COOK IE
ĠæĮĤè½½ RTTIä¿¡æģ¯
ĠTechno log
ĠChartHist ogram
________________________________________________________________ __________
synthes is
Ġèĩªå®ļä¹ī åĪĽå»ºæİ§åĪ¶åĻ
ĠJOYST ICK
ĠValideNumeric KeyPress
ĠæľĢå¥½èĩªå®ļä¹ī ä¸Ģä¸ªå¥½
Ġèĩªå®ļä¹īåĪĽå»ºæİ§åĪ¶åĻ ¨ç±»
" );<
' ..
' ))
, }
. ',
3 7
3 86
4 73
4 096
5 0
5 3
5 9
5 06
: %
A C
A X
A Data
A WAR
A ULT
B us
B MP
B reakpoint
B rowser
C lipbrd
C laim
D IT
E B
E V
E mail
F il
F Id
F Error
F RE
H ER
H Instance
H Wnd
I MAGE
J o
J OR
J peg
L I
L ang
L GPL
M G
M ob
M edley
N ou
N umer
N ING
O s
P op
P opulation
P opupMenu
P osix
P MEMORY
R L
R S
R UN
S ame
S pecific
S tep
S olver
S rv
S heet
T D
T ur
T Color
T Service
T wo
T WM
T IterationResults
T utorial
U l
V A
V ar
V Scroll
X MPlayer
a int
a ded
a isiePtch
b a
b u
b log
b uffers
c le
c md
c imal
d on
d ire
d ark
e er
e ax
f il
f inal
g end
g ht
h ook
h one
h Process
j a
j an
j um
l ing
l ations
l ong
l param
m over
m emo
n ode
n try
o i
o bj
o ch
p th
p tic
p aolo
p ansichar
q Ini
s ing
s ymbols
t stringlist
u do
w i
w Byte
w db
x tobject
} );<
« ¯
¬ ¦
Ã ©
Ä £
å ¯
å ¹
å ¼
æ Ķ
æ ³¨åĨĮ
ç ¬¦
è ¦ģ
Ġ ro
Ġ ord
Ġ JS
Ġ age
Ġ um
Ġ order
Ġ 9000
Ġ !<
Ĥ æķ°
į ç
Ĺ ç¬¦
er m
er ate
er ial
er ge
in ho
in iFiles
on es
on ize
re q
en sion
en able
en abled
en sitive
ĠT Value
ĠT Register
ĠT Region
ĠT Default
ĠT Encoding
ĠT Webcam
ĠT Network
ro ssi
ar Usuario
un ix
de los
as String
Ġp integer
Ġp os
Ġp agemap
ĠS A
ĠS m
ĠS leep
ĠS cktComp
end Update
Ġc ap
Ġc od
Ġc lick
Ġc ache
Ġc enter
ĠF Object
ĠF ph
ĠF HTTP
ĠF Exception
ĠF Usuario
ĠF min
ĠF Title
ĠF loor
et al
it s
tr ys
tr yn
tr ie
ic om
Ġf q
Ġf Show
Ġf ilename
Ġf mod
Ġf BackObj
Ġf unÃ§
Ġf ading
ter n
ter ior
ls ockets
ĠC o
ĠC ryptographer
ĠC hest
In Thread
In ner
ate HWnd
str aint
Ġo cs
ĠP V
ĠP Buffer
ĠP essoa
ĠP Cv
ĠP osix
ĠP aolo
ĠD irectory
Ġin d
Ġin i
Ġin v
Ġin st
Ġin side
ri tic
ul a
ul ate
Ġl st
Ġl oc
ĠA ler
ĠA Max
ĠA vgLvlTree
Re lease
Re duceLine
ra ting
Ġre cur
Ġre present
Ġre peat
ĠL ock
Ġs v
Ġs end
Ġs ub
Ġs ur
Ġs Service
Ġs pec
Ġs ign
Ġs Only
Ġs amples
Ġs pace
Ġs Duplicate
Ġw ay
to s
to ken
Ġb p
Ġb Required
Ġb uild
Ġb etween
im ension
Ġd r
Ġd ate
Ġd irection
Ġd istance
Res erved
Ġthe y
ĠI P
ĠI con
ĠI mp
ĠI PP
Ġm c
Ġm ac
Ġm ask
ĠU Utils
ĠU Time
ĠU Service
ĠU Main
ĠU Draw
ĠU Chx
ĠV olume
Ġ' +
Ġ' ');<
and ata
ss ize
ss lsockets
em em
(' \
id get
ĠW il
ĠW indow
ĠW ait
ĠW ritten
Ġde sign
Ġde velopment
get Name
get Color
il ite
us uarios
Ġlua object
Te e
Ġn b
ĠB o
ĠB Obj
ĠB AS
ĠB anco
ĠM ac
EN V
ch ild
Ġres pon
Ġres ol
Pa ci
Form Data
Ġa Usuario
To Array
To UTF
En able
Ġe very
Data X
Data Controller
Ġcon fig
Ġcon sole
ĠTG if
ĠTG radient
ĠTG rilleTaillesSP
De st
Ser vid
ur l
Th ick
are n
Ġu Device
Ġu dm
Ġu DM
File Ext
File Mapping
set Name
Ġ1 9
Name d
Sys Types
Sys log
On Enter
ve au
ER O
Path Info
Path Method
Ġt t
Ġt color
Ġt custom
Add Object
ĠR ossi
ĠR ights
ĠGet API
ĠGet AsString
ĠGet ServiceController
ĠGet BGRABitmap
Ġ2 6
Get String
Get ServiceController
TP age
TP ersistent
ĠE vent
def ine
ĠN t
ĠN ome
ĠN Plugin
ĠN pp
Ġit t
AR CHI
FPC ustom
Ġx Token
Ġx ml
Ġread er
Reg ular
ff t
able info
act ualcount
Info Data
Ġg ts
Ġg radient
Ġy et
ram erate
Text Color
mb arc
der eco
DEF AULT
AT URE
ĠGener ate
Str ToInt
ĠSet Animation
Inter polation
Image NTHeader
res can
ĠBGRA Filter
Ġan tidebug
ĠLua List
ĠLua Component
IC S
alse ction
ĠUn less
CL abel
ĠTF View
ĠTF ireDac
Ġparam start
ĠOn ly
ĠCom mon
ĠCom pression
App end
Ġj string
Ġj long
Ġla w
ance led
ĠFree Type
ION S
Ġma de
ponent s
AP ass
AP ReduceLine
ĠTHorseCore Group
ĠX Data
ight ing
Ġmem ds
Ġse m
Ġse conds
Web Const
Header Control
Win sock
ĠRes p
co es
ĠH ave
ĠH DC
ĠEx ists
ĠTThread Object
ĠTThread Procedure
Ġfp Web
Ġfp FCGI
ĠIGBSwagger Schema
key down
ĠJ FieldID
ade cimal
TE E
ĠTS ave
ĠTS ample
ĠTS peedButton
Ġfrm DriverLoaded
Ġwh at
Net Resource
ĠText Name
An iversarian
An terior
ĠWeb ID
ĠWeb Dispatcher
ĠTR L
ĠTR UE
ĠLCL Classes
ĠK ernel
ĠDB K
ĠDB Edit
ĠDB Grid
Ġdar k
ĠTCustom Type
ĠTCustom Control
ĠEn abled
ĠEn dereco
ere vent
param start
ĠTForm aPagamento
HO ST
Ġbyte TableTo
mem Region
record s
Json Obj
NI X
ĠWARRAN TI
Ġra ting
ite xtobject
Ġce gu
Cad Paci
Ġ200 4
Ġed x
ĠTA l
ĠTA BLE
Ġdis sect
Ini Files
Page Control
************************************************************************ **
ader o
Ġsyn chronize
ema phore
ĠSh ellAPI
Ġunit s
ĠinitializeLua List
ĠFP refix
ĠTFrm Basic
ĠTW M
Ġen um
Ġen ough
ĠCE P
ues ize
Block ReadSize
ĠTDAO Bets
ĠTDAO Carro
ĠTDAO Matchs
One Dispatcher
ĠApp end
ĠTUser Info
clu ir
Max Size
ĠPT WM
201 0
ca pe
do Error
la ce
ĠZ ip
ich Edit
0000 000
register function
qu ery
ĠByte s
Region s
Play back
Ġcurrent Game
Produ ce
ĠService Start
ĠService Stop
ĠPa lette
Per formance
WS Menus
Ġ/ **************************************************************************
Ġco uld
Multi lineInputQuery
Ġpt Int
Ne ed
Render er
ĠFT gfid
Lib c
US TEE
Ġval or
Ġcal ls
Min Width
ĠTo JSON
Ġlp te
Ġlp Buffer
max level
ĠExecute Lua
Ġtemp delta
Ġprocess handler
ĠSpecialized Stream
ĠTPoint F
ular ity
TB APSolution
Empty Str
ĠTDM Global
Debugger Attach
ĠTGBSwaggerModelJSON PathResponse
ĠTGBSwaggerModelJSON Contact
Connect List
ĠUM icro
Valid ate
ĠsHTTPItem Name
ĠsHTTPItem Method
ĠsHTTPItem Default
ĠsHTTPItem Enabled
ĠsHTTPItem URI
ĠsHTTPItem Producer
LO C
ĠTJ ava
Ġpar ser
cur l
Sp rite
TCustom FTP
Ġim ages
ĠTDemo JsonController
ĠTDemo MyController
ĠTLog Level
Ġfphttp app
REST Response
Ġimage hlp
ĠAl pha
sh ow
Ġper missions
ĠTDog DAO
ĠFSwagger PathResponse
Ġprovi des
Ġrun ing
Midi Comp
ĠArray Element
ĠGL ext
Action Name
ĠXML Doc
adio Button
ĠUs uario
ĠUs aisiePtch
UB LIC
mod ified
è¿ ĩ
Ġdes c
Ġgame panel
## #
Bl end
Heap Handle
Ġqu ery
Final ize
ĠTDotNet Method
Console UI
ĠTBGRABitmap Array
================================================================ ==============
Column s
ĠApply Inv
ĠLong Int
ĠOpen SSL
Too ls
ĠTMem Scan
ĠTMem Rec
ĠSong File
ĠCURL M
ĠCURL IO
exe ption
ĠTBGRAReader Ico
ĠTlistitem s
Ġpoint s
FP U
ci i
uc cess
ĠInitialize Jni
ĠOra XML
ĠOra cle
TEXT URE
Ġedt Port
CP F
Ġcx PropertiesStore
Relative Scanner
ĠLAPI Source
conn ect
Ġdoes n
plugin id
Ġapplic able
Fast CGI
Sa ved
Wh ite
ĠvQry Pesqu
ĠTSQL ite
ĠTSQL Transaction
Pre view
ĠTModel Routine
ĠAd just
GraphicControl Extension
ĠTJcl FPU
VCL UI
iste Tailles
ĠTGUI Object
Ġgu itextobject
VEH SharedMem
ĠRa wByte
ĠOriginal ComboboxListHandler
Ġcollection Item
73 4
DotNet ObjectList
Output Driver
Pen Style
Sq l
Tile s
æİ ¥
luaroutine Index
intto str
ĠDeSelect H
ĠDeSelect W
ĠType Helpers
NoteBookStrings TabControl
Cal endar
field id
pre ter
åı Ĥæķ°
Ġ================================================================= ==========
Ġvari able
wh en
ĠFList Responses
Cou leur
Ġnewicon stream
Ġnewicon dir
ĠMenu Item
Ġthreadnames CS
69 44
SIGN ATURE
Ġke venttype
ĠCON DIT
Ġdyn libs
Ġdef ines
activate time
Ġchang es
Svc Mgr
Ġpn l
Ġref resh
emp ty
ĠuSetup Di
Assembly Scan
Sequ ence
ĠTSimple Thread
TText EntityType
bab ly
æį ¢
è· ¯çĶ±
ĠHandler CS
ĠTrans lation
rior ity
Ġendereco Integracao
Ġgo ing
ĠTMouse Button
MAR Y
Ð» Ð¾
Ġwrit ing
expl orer
ĠAudio System
ĠTLuaServer Handler
EO F
uil der
Ġang ular
ĠTra sterImage
ĠPE Info
ĠLuaCustom Control
compression stream
Synch ro
LayerOriginal Entry
Ġagre ed
ZVTProtocol Manager
ĠNormalize Path
TMem Scan
reation Time
ĠPhoxo Block
ĠDave c
Ġcontex thandler
ĠThird Party
Completion Cmd
Ġ================================================================================= ==============
CheatECoin Count
ĠTechnolog ies
'.. '
506 647
FId Rcd
Mob ilite
Nou veau
PMEMORY BASICINFORMATION
RUN NING
dire ntry
onize Proc
tryn r
icom ponents
ĠChest Type
ritic alsection
ĠsOnly OneDispatcher
ĠsDuplicate ActionName
ĠIPP eer
ĠBAS IS
Servid or
Thick ness
ĠGetAPI Version
ARCHI V
FPCustom Image
mbarc adero
ĠSetAnimation Progress
ĠWARRANTI ES
Ġcegu icomponents
CadPaci entes
modified LGPL
ĠApplyInv Gamma
ĠRawByte String
Ġ=========================================================================== =<
ĠCONDIT IONS
' ),
( ).
( ));<
( ******************************************************
) ]
) ^
) ')]<
+ (
- }
3 647
4 6
5 8
5 12
6 3
8 3647
= -
> %
> '
> ,<
A ut
A Name
A Key
A Control
A Description
A brir
A ParamValue
A UDIO
A gend
B L
B SO
C Types
C lock
C ESS
C Function
C rypto
C riticalSection
C ross
C elsius
C reationTime
D b
D on
D ig
D word
D Component
D ash
D Words
D etal
E l
E CT
E MET
F JSONObject
F Params
F Run
F HorseFile
G ION
G rilleTaillesSP
H t
H ot
H um
H WND
I face
I GBSwagger
I fft
J ump
L Y
L IN
L List
L ower
N od
O DE
O WN
O BJ
P F
P I
P as
P ri
P ages
P ID
P SS
P ower
P tc
P opup
P lot
Q Word
R C
R s
R v
R EL
R ESS
R ibbon
S li
S pec
T In
T ES
T JSONObject
T Model
T Component
T Iso
T Tooan
T EqualFunction
T Solver
U DE
U AR
U ES
U INT
U DP
W T
W atch
W MS
W ideString
W ritten
Y ER
] ))));<
^ )
a vid
a led
a Registro
b g
b r
b da
c ix
c ard
c opy
c rypt
d q
d ch
d istribu
f x
f loat
g lyph
g ada
g oogle
h l
h igh
h askara
i ers
i ID
l at
l Obj
m r
m ore
m acao
n v
p r
p ublic
p list
p ascal
p aren
r ad
r ticle
s Factory
u i
u ss
v Qry
y Socket
® ¡ç
Ð Ĵ
Ñ ĩ
å ®
å °
ç ®¡ç
Ġ Ã
Ġ RA
Ġ Region
Ġ è¿ĶåĽŀ
in er
in sert
on itor
re move
re Ptc
en s
en um
ĠT O
ĠT Utils
ĠT Integer
ĠT Me
ĠT Machine
ĠT Virtual
ĠT Command
ĠT Scroll
ĠT ModalResult
ĠT rustInterval
ĠT ScrollBox
ĠT AutoAssembler
ĠT sa
ĠT IterationResults
ĠT Variant
ĠT HookableEvent
ĠT CreateParams
ĠT ConexaoFactory
ĠT SerialPortPrinter
ĠT CompletionCmd
ĠT FPCustomImage
or ies
ti po
st able
st yle
ro l
ro zen
ar Pedido
le ave
al Header
al iza
un ch
un coes
Ġp Panel
Ġp erc
ĠS P
ĠS b
ĠS ec
ĠS olver
ĠS HA
ĠS wap
:= _
Ġc r
Ġc are
Ġc md
Ġc US
Ġc rt
ĠF ra
ĠF Version
ĠF SQL
ĠF Token
ĠF Doc
ĠF max
ĠF Headers
ĠF ReadOnly
ĠF DateFormat
ĠF Filename
ĠF DogId
ĠF ROM
ĠF tipo
**** *)<
it ude
Ġf b
Ġf ill
Ġf Mod
Ġf unc
Ġf Gradient
ĠC D
ĠC e
ĠC OR
ĠC ada
ĠC MD
ĠC ross
ĠC SN
ys tem
Ġo wn
ĠP ing
ĠP OS
ĠP ROC
ĠP DWORD
ĠP ImageNtHeaders
ĠP luginVersion
Ġth rough
ĠD b
ĠD s
ĠD GL
ĠD TO
ĠD avid
begin Update
ri ve
ul ink
Ġl t
Ġl on
Ġl am
Ġl at
Ġl ook
Ġl ock
ag low
ĠA S
ĠA Result
ĠA Min
ĠA TrueValue
ĠA Zip
Re paint
Re ason
Con version
Con clu
Con ectar
ĠL A
ĠL o
ĠL ONG
Ġs s
Ġs ymbol
Ġs olution
Ġs tepen
---- <
ĠG en
ĠG UID
ĠG lyph
Ġw m
Ġw ret
to co
Ġb mp
Ġb gr
Ġb reakpoint
Ġb ottom
Ġb pm
Ġb haskara
Object Buffer
IN CL
Ġd ialog
Ġd iff
IF Y
Ġthe se
ĠI MVC
Ġm id
Ġm bi
Ġm ouse
Ġm idi
Ġm illiseconds
ĠU Object
ĠU Config
ĠU SA
ĠU Playlist
ĠU AudioSystem
ĠU HookableEvent
ĠU RL
ĠV CL
Ġ' %
Ġ' <
Ġ' ..
and fix
ub Cadastros
(' $
ed t
Ġde m
Ġde t
Ġde activatetime
ut ar
get Size
get Items
get Max
get ModalResult
il ent
List Thread
List Val
us ted
Call All
ap is
lo ding
Ġn ol
Ġn Size
Ġn ull
ĠB it
ĠB est
ĠB uf
ĠB CPanel
ĠM ap
Pro toco
==== =<
EN ABLE
Ġclass name
Ġ// **<
Ġ// ------------------------------------------------------------------------------<
Pa used
ĠIn i
ĠIn cludeTrailingPathDelimiter
per ts
si ble
Form Top
Ġa b
Ġa Proc
Ġa UnMedida
Ġa ValorUnAtual
Ġa Conditional
lem entation
Ex cept
Ex por
Ex ercicio
Value From
Ġun ame
ĠCon n
To JSONObject
To Module
To RGB
ol ds
um my
String Array
Ġh istory
Ġe p
Ġe asy
Ġ{ *
ase t
De code
Test Get
Test Delete
Test Post
Test Put
Test CreateApi
Test ToHorse
Test GStartApiPortListens
RA R
PC v
Th ree
Th resh
Th umb
00 1
00 3
00 02
Set Event
Set Process
Set Window
Ma jor
Ġu Form
Ġu Types
Ġu Printer
Ġu REST
Ġu Rep
Ġu Synchro
Ġu WMS
File Helper
SE CTION
set Color
set ModalResult
Response Cmd
Ġis keydown
Swag Prop
ig p
ig ger
ig ner
On Error
On Query
On Change
Ġt list
up port
up value
ĠR et
ĠR EC
Type def
ĠGet New
ĠGet Process
ĠGet Game
ĠGet MachineQuantity
ĠGet Temp
ĠGet Localized
ĠGet AllPrinter
Get Dog
ten te
ten ce
ĠTB reak
GRA M
DB Utils
DB DateTimePicker
TP en
TP DClient
ĠE xt
ĠN ow
ĠN um
AR CH
ES ymbol
Id ent
ĠTD ial
ĠTD irectory
Un do
Thread Proc
Thread ID
---------------- ----<
OR ED
ix er
Ġread ing
Ġi DAO
ser ir
able Info
ĠTC ard
ĠTC pu
ĠTC ircular
Types ToString
ĠTh roughput
ĠSt d
ĠSt orage
Ġwrite Bytes
add ing
push MethodProperty
Stream Part
Mem table
Mem AndNil
ĠWin Svc
ĠTP layer
ĠTP assword
ĠTP opupMenu
Event List
der Index
ĠĠĠĠĠĠĠĠĠĠĠĠĠĠĠĠ ĠĠĠĠĠĠĠĠĠĠ
Ġex ten
Ġex ample
Ġex iste
ĠCreate Api
ĠCreate Params
ĠO le
ĠO rd
ĠO derIndex
ac ion
ac tive
Handler Name
Str List
Ġst yle
Ġr c
Ġr x
Ġr db
ĠSet On
ĠSet Size
ĠSet Process
Image Info
Image Descriptor
Image Arr
res pon
ĠDe v
Exception Record
Bit Count
ĠBGRA Text
ĠBGRA Matrix
Ġuse Custom
Service Create
Service Start
Ġas k
ĠRe co
ĠRe cal
data base
Ġv isible
Ġv IdHTTP
Box Top
ma ke
ĠUn lock
ĠUn Render
ĠTF TP
ĠCom Port
Query Ex
os ure
tain ed
Status Bar
Status Mobilite
User Name
ard own
CE D
Ġla titude
Tree Node
ĠFree MemAndNil
LE FT
ĠTList Stream
Sh ader
pen ame
AP refix
AP HashList
ĠId FTP
ĠId CTypes
Log Data
ex ec
ĠX P
ĠX MP
tim o
tim er
Handle d
Memory File
Memory Manager
Memory Alloc
address file
Ġluaclass array
can ti
com mand
Us uarios
bo Power
ited Text
co ef
ĠH AS
ĠEx e
ĠEx cept
ĠEx cluir
ĠTThread Endereco
ĠTThread Aut
ĠOne Thread
ĠOne FileHelper
ĠTBGRA FilterScanner
ĠFPC APACHE
Uni Provider
ĠCh x
ĠCh urcher
new drawindexed
ĠIGBSwagger Parameter
Common ality
val canti
Ġ" $
ĠJ ava
Ġset up
Ġset Full
DateTime Required
DateTime NotRequired
DateTime ErrorFormat
DateTime OnlyData
ĠTM ask
ĠTM idi
Ġpointer scan
ome thing
ĠTS HA
), '
Custom DataSet
Custom HTTPServer
Ġch annels
Char Sequence
Line BitBtn
Line Series
ĠTfrm Progress
ĠTfrm DriverLoaded
ĠTfrm ChangedAddresses
az VirtualStringTree
az ySocket
RE GION
ĠText Score
An apis
lib SDL
pl ine
ĠTR un
ĠTR CC
ĠTR tl
ĠTR etor
Debug SharedMem
ĠPro gress
From Iso
ĠUni Panel
ĠUni Timer
Buffer Size
Generic Stream
ĠButton Procurar
Start Time
FF FF
ĠFile Time
TF rame
ĠTUni Image
ĠTUni Panel
ĠDB Access
ĠDB Navigator
Number TDB
Number GDB
Option alHeader
ĠTCustom Icon
ĠTCustom GroupBox
ĠTCustom Ginkoia
ĠTCustom RadioGroup
ĠEn try
Abstract Class
param count
HO D
HO LD
Ac tivate
Ta king
md aset
Pr int
Parent Color
Pointer Type
Pointer rescan
Process Id
SQL UniProvider
Check StatusMobilite
ĠRegister Mapper
Ġoption s
Config Unit
Back Style
vir on
Window Text
ĠAdd VectoredExceptionHandler
Cad Agend
MA JOR
Change Niv
Canvas Pixels
ĠTA A
PA INT
PA SS
PA DRA
Show Modal
Ġtype defs
Ġdis ableinfo
DataModule ShutDown
AS SE
AS ource
Ġrs M
Ġrs PSS
And roidapi
Device Path
Device Interface
Conn ector
ĠFP assword
ĠTFrm ShowIp
The Owner
Ġen coding
ĠCE Debugger
Meta data
For Thread
cod er
no tation
Ġsh own
Ġsh adow
ni Memscan
Draw Item
thread count
)) ^;<
ĠTUser Mgr
Ġcontainer Color
ĠPT Bool
ĠStatic DuetP
row se
ĠDate Version
Be ats
Next Player
ĠTest Get
ĠTest Delete
ĠTest Post
ĠTest Put
ĠTest CreateApi
ĠTest ToHorse
ĠTest GStartApiPortListens
ĠTest Mime
201 6
202 3
Al ready
ĠZ ero
EX T
Virtual File
Virtual Alloc
Ġstr ParentModuleName
Ġstr SubModuleName
Find User
åĪ ¤
Ġrender Relative
Default Module
Default Manager
TL azVirtualStringTree
DS Server
Fa hrenheit
Player Driver
Stop Api
Stop ApiListen
ĠService Create
ĠService Controler
ĠFId Dog
Mag asin
TControle Livre
ĠStop ped
Ġreq uire
Top Fix
ĠExit Process
False Value
Caption Close
]) ^.
ĠFind Best
ĠFind Worse
ĠUScreen Sing
Ġ'' ;
Auto macao
Left Fix
ps z
rec ision
ĠAn notation
Exp licit
Direct ories
Write Index
Hotkey Ex
MI METype
US UAR
ĠUser name
ĠConvert Data
memory file
memory regions
Structure List
Min or
Min Max
ĠTo Radi
ĠDraw Info
ĠDaemon Main
ĠDaemon Manager
Ġlp BaseAddress
ĠLast Pos
Ġtemp x
Ġcur rents
ĠSpecialized Dictionary
pos te
Do GetApi
Do PostApi
Do PutApi
ĠTData Base
ĠTDis ableInfo
Position Fix
pres sed
ĠFrm Main
Ġlong itude
Ġmodule s
Procurar Usuario
Procurar OrcamentoPorId
ĠThe se
Pipe Server
ĠFOn Update
ĠFOn CanContinue
ĠTHorseProvider IOHandleSSL
Ġalloc ated
/( $
Ġtable s
ĠDis assembler
Ġsu per
Active X
ĠTGBSwaggerModelJSON Header
ĠTGBSwaggerModelJSON Parameter
Duet SixPAvatar
ĠColor Control
ĠDataModule Start
ĠDataModule ShutDown
ĠxId Team
Ġcustom draw
result Reader
Section s
ĠTJ niMemscan
ĠFC or
Valor Total
ĠTFD PhysPgDriverLink
Sp acing
Ġfl ushcount
14 74
ctr l
Init Query
Ġopen sslsockets
ĠTDemo V
ĠTLog Event
Ġcomponent s
ĠTtreenode s
Ġpa lette
ĠAl ter
ĠIdSSLOpenSSL Headers
Ġta b
Ġta g
ĠTcustom trackbar
ĠTcustom progressbar
ĠRun Horse
ĠEdit Btn
Ġstart time
Ġstart game
ĠEncode Time
PAT CH
ĠTDog Rating
Disassembler View
hwnd List
hwnd Item
ĠTH EN
ĠTH osxp
ĠSc ore
ĠFSwagger Info
ĠFSwagger Parameter
Ġprovi de
Security Info
Security Descriptor
ĠTScreen Options
ĠSyn ch
ĠSyn Edit
Ġmode ls
mote Exec
Ġtest andfix
amento s
edit box
ga Model
ĠCustom izable
123 4
ĠTRe moteThread
Exec SQL
tick s
Ġspecific ally
GroupBox Handler
Final Count
LA YER
RES HOLD
single ton
ĠTDB Navigator
Apache ModuleData
Fix ed
wo ConnectList
ĠSimple Demo
ĠEd Find
tegrityCheck Check
ĠClient DataSet
ĠLong Rec
DEV INFO
)* (
TH RESHOLD
TDaemon Mapper
WMI OnQuery
original drawindexed
ĠDO SS
pect or
ĠTGStream List
ĠTGStream Item
ĠTGStream Index
ĠThread Poller
Modif y
Modif ication
StartApiListen s
StartApiListen Port
StartApiListen Host
Dbl Click
gf Id
rc Item
Ġtim erevent
Ġmenu Item
FP HTTPClient
Tool Bar
ik Mod
ĠInitial Pascal
ĠTByte Set
TabControl NoteBookStrings
Track Bar
structionGroup Array
Delim itedText
Duplic ates
Foto Usuario
Sa ir
Sa fe
Single s
VAL ID
aa aa
ĠCal endar
ĠCal cul
Ġvf Major
Ġvf Minor
Combobox ListSubClass
Ġregion s
sc roll
cece cece
Ġpre vious
Ġdon ottrace
Dev uelta
Ġ12 8
HTML Frame
open ssl
Ġcombobox defaultBrush
ĠOneClient Connect
ĠTJcl XMM
Bevel Outer
Dlg s
Sign ature
ĠTResponse Colored
Ġlyt Container
ĠMe gaIni
Exe Name
ĠRect angle
ĠHas Data
ĠRegisterDaemon Class
ĠRegisterDaemon Mapper
Laz FreeType
æĪ ĳ
Ġti po
Ġes p
Ġpe info
ĠFLog Path
ĠFLog Sec
Ġwait for
ĠIB CustomDataSet
Ġmi File
ĠTGame Panel
Infos Base
PP al
PImage NtHeaders
Sq ua
Task Bar
cf d
Ð¸ Ñģ
ĠTProvider Request
ĠCl Monitor
Ġmulti ple
ĠWh en
CanContinue Event
ĠQryConsulta ID
ĠQryConsulta DESCRICAO
Cal c
ĠFAr tid
ĠFAr quivoBase
ĠaValue True
ĠTPessoa Controller
Ġvari ables
ĠMachine Line
ĠTInstructionGroup PointerType
TGame Panel
page index
ĠTServer Utils
ĠScan Data
ĠStyle Buttons
termin ator
ĠPPage Info
Ġdx gi
Ġact ually
Img List
comp ulink
1111 14
ĠListVal A
ĠTDAOItem Peca
ĠcontainerBorder Width
Ġsql transaction
ICONDIR ENTRY
ĠTZ Query
ĠTEntidade Pessoa
ĠTEntidade sFactory
Ġplay ers
Ġfa iled
ĠDec ode
Ġdyn amic
Ġ199 9
Ġtb m
ĠTLaz VirtualStringTree
APP PATH
FFT LineSeries
Clip board
GIN KOIA
mag ic
mag asin
primitive up
ĠTI PTLog
ĠADO SS
ĠContains Key
ĠTListMethod Base
ĠProblem Function
Synchronize Svr
Negative AcknowledgementCmd
Ġsaved scan
PRI MARY
ZT Controller
ĠTCollection Item
ifile s
Ġbg t
ĠTGeneric Iterator
ĠuFTP Files
aster Image
NUM BER
Acces sed
ĠReflection spacing
BY TES
CUR SOR
jected Event
erg ency
ĠCall All
ĠDotNet Pipe
ĠNUM BER
Ġxxx xx
ĠTPlay list
Ordem Servico
Author ization
SendReceiv Controller
ĠtemperaturaEm Celsius
EXECUT ION
BillSend Controller
MIN OR
ĠCM C
fact ory
edia PlayerDriver
Extract FileName
Arquivo NFeXML
ĠTPT NegativeAcknowledgementCmd
iagnos is
ĠTMemoryRecord Hotkey
SERVE UR
scale H
è¡ Į
ĠPC ESymbol
ĠPBGRA Pixel
Ġ================================= =====<
ĠUWeb SDK
Expression s
ĠGetApp Version
Registration Cmd
Appro x
WebFile Controller
ĠExp ense
Account View
ĠStructure s
Whats app
RawImage Data
ĠTQuick List
AX IS
AData Stream
Bus y
EV ENT
FRE E
HER E
Specific Function
Tur boPower
å¹ ´
ĠFHTTP Log
straint s
Ġrecur sive
ĠMac OS
ĠTGif SubImage
Regular Expressions
ĠGenerate ur
ĠTSample Thread
Aniversarian te
ĠKernel Debugger
Ġdark mode
Ġdissect code
Ġ/************************************************************************** \<
DebuggerAttach Timeout
============================================================================== <
Detal he
Ht ml
Hum Rcd
OBJ ECT
RESS ION
dch urcher
vQry Cadastro
ç®¡ç ĲĨ
ĠRA rticle
rePtc Version
ĠTUtils Functions
ĠTInteger Field
ĠTsa isiePtch
aliza Enderecos
ĠFSQL Log
ĠfMod i
ĠCada tr
ĠPROC ESS
aglow ek
Conversion Routine
Conclu ido
INCL UDE
Ġ'.. \
Ġnol oop
ValueFrom Index
Thresh old
ĠuREST DW
ĠuRep riseCC
upvalue index
ĠREC ORD
ĠGetTemp Directory
DBDateTimePicker Rv
ĠTCpu SpecificFunction
ĠTCircular ObjectBuffer
ĠStorage Cost
ĠReco ver
ĠRecal cul
ĠTThreadAut alizaEnderecos
Commonality Scanner
ĠsetFull Width
ĠTRCC CanContinueEvent
ĠTRetor nos
Pointerrescan ConnectDialog
CadAgend amentos
PADRA O
ĠrsPSS IC
ĠTestMime TypesToString
USUAR IO
ĠToRadi ans
1474 83647
moteExec utor
Ġtestandfix cs
ĠPCESymbol Info
" )<
" .<
' #
( -
) ,<
* .
. $
. ,
. ';<
. '+
. ###
2 6
2 9
2 11
2 20
2 30
2 60
3 4
4 5
5 6
5 000
5 23
6 74
7 0
7 7
: ',
; }<
> &
? ');
A B
A List
A ler
A Bitmap
A Instance
A RAM
A VA
B ad
B AR
B Obj
B ORDER
C D
C f
C ar
C ard
C ach
C ette
D a
D s
D ont
D ict
D DR
E ven
E FC
E ASE
F S
F in
F Exception
F ich
F FormLeft
G reen
G TH
G tf
G rayscale
G roupe
H ora
H orizontal
I l
I Log
I tal
K e
K NO
L S
L oaded
L inux
L zp
L RESULT
L yric
M et
M TY
M ULT
N b
O rm
O ff
O LE
O ld
O rig
O OK
P ic
P oo
P Reader
P ersisten
P READER
P rocesses
Q UA
R ST
R INTER
R GN
R INC
S U
S plit
S sf
S wap
T G
T re
T ri
T form
T frm
T Render
T My
T NextProc
T GraphicControl
T Jni
T Problem
T ela
T MemoryStream
T XMPlayer
U LE
U AudioSystem
W E
W PARAM
W HILE
X E
Z PAINT
\ ';<
] ).
^ :=
_ ';<
a w
a Version
b in
b ool
b reakpoint
c m
c ar
c ad
c reen
d k
d p
d ar
d ao
d omain
d Concluido
e ature
f d
f rom
f rame
f oundlist
g s
g ing
h r
h Module
h ip
i bel
i ke
j e
j ni
k o
k In
k ins
l t
l ate
l az
l oneEvent
m atch
m ulti
n um
n ormal
o id
p end
p tem
p atch
p olygon
q uire
r un
r inter
s b
s end
s ers
s Service
s With
s peed
s chema
s kip
t ou
u ce
u id
u ted
u ve
u table
u Ã¡
v ector
v ationType
w ar
w as
w eb
x i
x ml
y les
z e
¡ å¼
¢ æĪ·
§ °
¨ æ
¨ ¡å¼
± è
¾ Ħ
¿ éĹ
å ľ
æ Ŀ
æ ¨¡å¼
ç º
ç «¯
Ġ Ð
Ġ tro
Ġ IF
Ġ implem
Ġ Response
Ġ ve
Ġ Required
Ġ elf
Ġ --------------------------------
Ġ ign
Ġ view
Ġ tid
Ġ kernel
Ġ Registro
Ġ ä¸į
er vationType
in o
in ce
in ity
in stallation
re ch
re set
re lation
re pertoire
te ction
en e
ĠT V
ĠT Co
ĠT Key
ĠT Query
ĠT Web
ĠT Header
ĠT Debug
ĠT API
ĠT Change
ĠT Context
ĠT Element
ĠT game
ĠT Theme
ĠT otal
ĠT Search
ĠT Iso
ĠT WebPage
ĠT rack
ĠT cx
ĠT Problem
ĠT emp
ĠT ela
ĠT Variable
ĠT Komunikat
ĠT ArrowStyles
ĠT OutputDriver
ĠT RegistrationCmd
se ur
or camento
st o
st ar
st ack
st reet
ro k
ro s
ar er
ar System
al led
al endar
un ig
an ted
an els
de stination
th andle
as ier
as sembly
Ġp c
Ġp ass
Ġp assword
Ġp ower
Ġp ixels
ĠS ort
ĠS oc
ĠS plit
ĠS EC
ta ire
Ġc a
Ġc m
Ġc lock
ĠF Type
ĠF DB
ĠF Event
ĠF ull
ĠF TYPE
ĠF FT
ĠF Rest
ĠF ChangeStatus
ĠF Senha
ĠF Ano
ĠF Placa
ĠF dq
-- -
et Store
it count
ing Point
ct ure
tr ap
be at
Ġf d
Ġf u
Ġf Custom
Ġf Max
Ġf ace
Ġf Allow
Ġf connected
Ġf ramerate
ter s
du til
ĠC ap
ĠC ase
ĠC ore
ĠC Port
ĠC liente
ĠC irc
In ven
In struction
In stallation
Ġo z
Ġo pt
ĠP er
ĠP en
ĠP ty
ĠP pt
ĠP Menu
ĠP Function
ĠP The
ĠP Ptr
ĠP FDB
ĠP etStore
Co uld
ĠD oc
ĠD ummy
Ġin te
Ġ= <
ri o
Ġl ay
ĠA FileName
ĠA Default
ĠA Bounds
ĠA fterConstruction
ĠA EMET
pe e
Con ec
Ġre load
Ġre ally
Ġre mote
Ġre place
Ġre ason
Ġre uss
el lo
inter val
inter preter
ĠL P
ĠL b
ĠL JSONArray
ĠL ines
ĠL ars
ĠL udo
Ġs p
Ġs ide
Ġs low
Ġs uspended
Ġs kip
Ġs ysex
Ġs Ligne
---- -
******** ****
if r
if th
ĠG estion
ĠG FX
Ġw on
Ġw rapper
im g
im ize
ver age
IN I
IN LIN
IN VALID
Ġd h
Ġd st
Ġd id
Ġd ll
Ġd md
Res ol
ĠI O
ĠI BGRA
ĠI MAGE
ĠI MG
DE BUG
lic ado
Ġm o
Ġm anager
Ġm actypes
ĠU Thread
ĠU WebPage
ĠU Cool
ĠU Webcam
ĠU MainForm
ĠU DataBase
ĠV ector
at ual
Ġ' "
Ġ' '));<
ode lo
Ġstring length
oo t
oo an
oo ls
ON E
Ġfunction name
Ġfunction ref
Ġfunction namelength
(' #
id os
ĠW ith
ĠW ix
ĠW HILE
ĠW wdb
Ġde leted
get Date
get Top
get Can
us r
lo gin
Ġlua call
Core Update
Core Initialize
Core Transform
Core Finalize
)< /
)< >
Ġn ode
Ġn cf
ĠB ug
ĠB ost
ĠB reakpoint
ĠB ottom
ĠB APSolution
ĠM ET
ĠM ASSE
Pro file
ble me
ire Export
JSON Login
EN UM
EN GTH
og gle
ch ang
Ġ// '
Ġ// ï¿½ï¿½
Ġres olve
ĠIn valid
ĠIn stall
ĠIn tegrityCheckCheck
per ator
per Case
per mission
DA B
DA R
Form Frm
li ght
ot s
Param Type
Ġa Exception
Ġa Login
Ġa Senha
Ex ternal
Ġpro vo
Ġpro plist
ĠCon sole
To Integer
To Screen
To XS
En viron
String Type
Ġh ot
Ġh ost
Ġh ex
ted text
Ġe st
Ġe bx
Ġe asier
Class Type
Ġcon d
Ġcon ven
Ġcon tent
De let
Int ToStr
struct ure
Ġuni Multi
Ġuni ComboBox
Ġuni ScrollBox
Ġuni CheckBox
ĠDE BUG
Ma ke
Ġu Int
Ġu Custom
Ġu Bytes
Ġu Command
Ġu til
Ġu Uptime
Ġu MainForm
File Ctrl
SE T
SE ARCH
read key
set Height
Swag String
ig MemoryAlloc
Ar m
On Win
On Exit
int on
int Field
Path s
Ġt rect
Ġt method
Ġt label
Ġt strings
Ġt jump
Ġt ccl
Add HTTP
ĠR ight
ĠGet Thread
ĠGet Field
ĠGet Dog
ĠGet FormatSettings
ĠGet Nome
Ġ2 000
Ġ2 55
Get Init
ĠTB it
ĠTB PF
DB Set
ari o
ari tion
ĠE ach
ĠE asy
ĠE mbarcadero
Swagger Path
Swagger Info
Swagger Header
Swagger PathResponse
Swagger Parameter
Swagger Contact
ĠN FCe
Ġit self
>// ----------<
>// --------------------<
>{ .$
Ġ0 211
ĠFM in
ĠFM arca
ĠFM OD
ĠFM odelo
Id Dog
Ġx m
ĠTD yn
Un ix
---------------- ------
op tname
Qu estion
art beat
ser data
ff inity
ĠTC liente
ĠTC loneEvent
IT H
ang File
add r
add Polygon
add Rectangle
Ġg ive
Ġg rayscale
Sc ale
dit s
Text Width
Text Style
Text Height
Text Background
Module Loader
ĠTP TA
ĠTP erson
ĠĠĠĠĠĠĠĠĠĠĠĠĠĠĠĠ ĠĠĠĠĠĠĠĠĠĠĠĠĠĠĠ
Ġdo Error
Ġdo Finish
Ġex ists
ĠO rigin
ĠO gada
Client s
Client Server
Client Width
Client Height
Base Form
Base Component
32 54
ac er
ast DisassembleData
Ġst and
Ġr g
ĠSet Nome
ound ing
ĠDe tail
ĠTL astDisassembleData
Ġfile ctrl
ĠBGRA OpenGL
ĠBGRA Gif
ĠBGRA Polygon
ĠBGRA Layers
ĠBGRA NeoButton
Service Poo
ĠRe write
ĠRe place
ĠRe distribu
inc ron
Ġcom pati
ĠLua ByteTable
ĠLua Diagram
ne eded
Ġv s
Ġv ector
oc s
ao b
ĠCom Obj
ĠREST Client
App Settings
Ġj ump
ran ularity
Or Cur
tain ing
Status Form
Status Text
Status Panel
User To
Ġlist a
Ġrecord s
Comp any
Se p
Se gment
Se conds
Se condary
tra it
Router s
LP ARAM
date time
Sh ellAPI
Ġma ch
Code Final
Bitmap RawImageData
UT C
ĠId x
ĠId Global
ĠId Explicit
ĠId BaseComponent
ĠX S
fm od
ĠSe lection
ĠSe lected
Memory Record
address list
Are a
com m
com bobox
her it
Web Cam
Us uÃ¡
Ġ3 1
Win Socket
bo ve
Ġget Query
Ġget Width
Ġget Height
Ġget Texture
Ġget InitQuery
ĠRes ervationType
ĠH ash
ĠH WND
ĠH OOK
ĠTThread Mode
ĠTThread ID
ĠTThread Parse
ĠTThread Srv
ĠTThread Dict
ĠOne Gu
ĠOne ZT
No Change
No Content
ĠTBGRA LayerOriginalEntry
ĠFPC anvas
Server Info
ĠCh ang
new class
Address list
Menu Item
Obj BDD
val u
DO WN
ĠJ CharSequence
Ġq ue
Ġq ueue
ĠTM VC
ĠTM ulti
Panel Unit
TE UR
ĠTS ym
ĠTS ession
ĠTS emaphore
ĠTS ubCadastros
Ġfrm Float
Ġfrm Demo
Ġfrm Splash
Ġfrm Structures
Ġch annel
Line Info
ĠTfrm API
ĠTfrm MultilineInputQuery
ĠTfrm AssemblyScan
ĠTfrm HotkeyEx
ĠTfrm DebuggerAttachTimeout
ĠTfrm PointerrescanConnectDialog
Not Be
evel Select
tif ier
RE CT
ach cpu
Down load
Debug Mode
Debug Interface
ĠPro ject
PO INTER
ĠUni vers
Buffer ed
Buffer Item
Ġimp orted
FF inish
ĠFile Exists
TF unction
TF ont
TF ilter
MP L
Ġdata base
IG HT
app arition
Ġnew hotkey
Ġle a
RO I
RO ID
Style Normal
Record s
ĠTCustom BGRA
ĠTCustom WinSocket
Manager Form
ĠEn ter
param s
Http Code
Http RouterManage
Run Time
Check er
Check Lst
Ġmodif ied
10 3254
ĠNext Pos
ated Gif
Json Object
Config uration
GL uint
ĠCheck Lst
ĠLaz paint
ĠLaz FileUtils
ME ssageBoxA
Send File
ite cture
Ġce custom
Ġce pack
Cad a
URL Client
Change Event
Ġinter section
PA GE
code size
code base
Ġdis assemble
ĠFunction ality
Ġgl u
Ġgl End
Ġgl Begin
Cur l
Cmd ResultCode
IS ession
base address
ĠMen sagem
PE D
ĠStr To
ĠStr ID
ĠStr ToDate
Ġrs No
Ġrs Failure
And Wait
pop up
write index
ĠUnit Login
Word Array
ĠinitializeLua Custom
ĠTService Factory
TC List
Input Processor
Ġen tries
ĠTDAO Teams
Draw er
Ġat tach
One HttpRouterManage
Tab s
Ġapp lied
Ġhe alth
Be at
Be arer
201 9
Al pha
do Finish
Pixel Fmt
Virtual Set
Find Team
Find Dialog
Ġrender object
Ġmax level
Ġmax Devices
Ġcurrent array
Ġcurrent buffer
Por trait
ĠService Exist
ĠMain CFG
Per c
ĠInt ToHex
Oper ation
tribu te
tribu tes
Ġsc ore
Ġcomp are
Audio Format
]) ));<
icon s
icon direntry
Ġbtn Cancel
Ġ'' ):
ĠRead ln
ĠSelect H
ĠSelect W
Multi View
gu iobject
rec ated
Current Path
Sub Item
ĠTTree View
Ġthread id
Ġdebug helper
AD RP
AD RAR
Symbol Data
ĠAND ROID
check was
US es
Ġbase address
Ġbase unix
Background Color
ĠTMain Layout
Entidade s
Ġwhen Error
Ġwhen Finish
memory stream
Structure Form
Min imum
bout Box
item click
ĠLast Change
ĠLast Disassembler
max count
Ġtemp Stream
Last Error
Ġcur l
Ġstatic guiobject
ĠSpecialized Matrix
ĠSpecialized Queue
VE SECTION
Alloc ationType
Do ListForm
ole to
ĠTData Sor
Ġjson Object
Up Down
ĠSwag Prop
Ġmodule handle
Load FromFile
UP DA
UP PORT
ĠFOn Log
25 0
RI VATE
ĠTGBSwaggerModelJSON Utils
ĠTGBSwaggerModelJSON Path
ĠTGBSwaggerModelJSON Info
Local File
net pipe
Ġexception s
ĠDelete User
Ġcustom control
LO G
Ver tical
arch key
Sp in
Ġhandle s
ĠTDiagram Config
Anim atedGif
ĠInternal Check
TJSON FloatNumber
TCustom Control
Ġï¿½ï¿½ï¿½ï¿½ ï¿½ï¿½ï¿½ï¿½ï¿½ï¿½
ĠTDemo BController
ĠTLog ger
Ġfphttp client
AM ES
FI RST
Ġold ExceptionHandler
Ġold AddressFile
Ġdm Banco
Ġgraphic Control
Ġradi an
parent Color
Ġta ke
Ġta king
ĠTMethod CanvasPixels
ĠRun InThread
Ġcv n
Ġcv const
ĠTBack Style
Ġchar acter
tific ation
ĠParse Mouse
CF E
PORT SMTP
ĠTH istor
ĠTRouter s
ĠFSwagger Header
ĠFSwagger Contact
Ref resh
Ġdisassembler view
Begin Update
ĠTScreen Sing
Initialize Events
ped Region
ped idos
ĠGL uint
-------------- -<
defined Symbol
ï¿½ï¿½ï¿½ <
).< /
>( *
Ġservice Exe
Over lay
Over lap
Ġinstall er
service Exe
Mouse Button
Sen sitive
tl Center
tl help
Ġcl ause
Ġcl Gray
Ġmen us
ĠUPath Utils
Ġgame base
ĠTPage Control
ĠSetWindow LongPtr
ĠShow Message
ĠShow Modal
Bl ack
lp te
Extra SymbolData
ĠRT TI
odul arSystem
Ġqu ar
RES SE
ĠTDotNet Pipe
ĠTMy Connection
ĠTf oundlist
ĠTf PPal
tial iased
Chx Com
ĠTRender Command
ĠTREST Response
BASE PORT
ĠRender Engine
ĠOpen GL
ĠFL isteTailles
ĠFL angFile
Ġdiagram types
Ġdiagram block
Ġdiagram link
ĠTBGRAReader Cur
ĠTBGRAReader XPM
åĲ įç
Ġfre emem
atcher Extra
FP S
Tool help
WM ISession
process handle
ĠReg Expr
Cool Web
Ġinfo s
Webcam Frame
ĠMax Count
Pass wd
IFI ER
ĠFormat DateTime
ĠiController Entity
plugin s
Fast Bitmap
ĠFD PhysPgDriverLink
INIT BU
ĠUL yrics
ĠBorder Width
ĠBorder Height
Ġstar ts
ĠvQry Login
Ġmain tained
ĠTBGRAPixel ColorspaceHelper
ĠJukebox SongMenu
ĠTSQL Connection
sc reen
ĠTJSON StringType
Ġload ing
Ġbo ite
Ġdw Length
Dev InfoData
ĠOneClient Helper
Ġoffset s
Ġtexture s
ĠScreen Sing
Cl oneEvent
wait ForThread
ins n
Ġframe work
Ġfrx Class
Ġfrx DBSet
Ġlib fmod
ĠBack ground
Palette Form
ĠĠĠĠĠĠĠĠĠĠĠĠĠĠĠĠĠĠĠĠĠĠĠĠĠĠĠĠĠĠĠĠ ĠĠĠĠĠĠĠĠĠĠĠĠĠĠĠĠĠĠĠĠĠ
STR ING
Camera Mode
****************************************************** *}<
è® ¿éĹ
ĠFor ward
Ġbul let
ĠIB Query
ĠTGame Object
GetTick s
render Relative
ĠOriginal GroupBoxHandler
libs peedhack
Ġtrans form
Ġneed s
rimitive Type
äº ĭ
ä¼ ł
Ġag ain
ĠEND WHILE
ĠTProvider ArquivoNFeXML
ĠTdm Banco
Ġpush Symbol
ĠCl inton
Ġmulti line
Loader Command
9999 9
Template Settings
CB r
çĶ ¨
ĠTTab Sheet
ĠCol B
ĠCol G
Ġdown to
ĠaValue False
ĠSwagger Validator
If Ne
cr icao
æľ ī
ĠTServer Methods
ĠCa valcanti
ĠCv n
ĠPPage EntryArray
Cou Id
Ġdx mdaset
ĠUSE INLIN
izar Pagamento
Ġglobal s
Serializ ers
ĠPointerscan Network
Ġsql connection
SYN C
CHEMIN To
Aware ness
Native Code
link lib
ĠTZ Connection
ĠCEL azySocket
/// *
ĠTDW ServerEvents
ĠiService Factory
ĠTPDClient XMLRPC
FMX ImageList
Ġcoordinates Table
ok ie
Ð² ÐµÐ
ĠTI BO
ĠTExpandedPixel ColorspaceHelper
Ġcp unr
ĠIter ation
ĠVirtual StringTree
ĠVEH SharedMem
ĠuSetup Api
ĠTCFG MAIL
Sequ encia
Radi us
åŃ ĺ
åŃ Ĺç¬¦
ĠTCh est
Ġpas sed
ĠFFind Form
ĠPass wd
Conf ir
ĠUS kins
ĠTCEP Model
27 0
Amb iente
ĠIN I
ĠTField Type
ĠTStat Result
ĠTStat Type
ĠTAudio Input
Ġcreating Brush
ette ur
Ġfon ction
ĠPre vious
ĠPush In
ĠPush Out
Ġ===== <
Reference d
pected Magic
Ġrel ated
Ġrel acion
ĠMOD IFY
ĠMOD IFIER
che aten
ĠInput BoxTop
PathQueue Element
ĠNative ToXS
ĠTADO Connection
TLS ClientServer
Ġcalcul ate
Verif ie
ĠTMenuPrn Data
ĠTMenuPrn Report
ĠTScreenParty Tournament
BAD CFE
LId Usuario
ĠFIs Array
ĠCmd ResultDescr
Ins pector
ĠVari ant
Ġ'\ '
ĠBe foreDestruction
Prox y
ĠEm erson
ĠTPar ser
ĠfOnTimer CS
ĠTfViewPage Template
CodeBarre Type
Dpi Awareness
ĠTTo TIso
ĠTTPEGinkoiaProtocol Received
dead f
ĠSER VER
Ġoper ations
Ġluas erver
Ġrest Client
Ġdot netpipe
ĠTHorseCompression Type
Ġconversion s
Arch itecture
ĠBGRAGradient Scanner
Ġjava owner
Providers Connection
AddressTo Symbol
Ġshared Memory
ĠAlloc ateHWnd
Variables Form
Ġcoordinate Table
tialiasing Mode
delph ifr
AWAR E
Claim s
Jo in
Ul ti
hook TemplateSettings
æĶ ¶
Ġro ta
ĠJS tring
ĠTNetwork Printer
ĠSA VESECTION
ĠSm tp
Ġclick ed
trie ving
ĠPCv Arr
Ġinst alled
ulate InitializeEvents
ĠAler ter
ĠWait For
Ġgradient s
ĠBGRAFilter Type
ĠTFireDac Query
memRegion Pos
Performance Counter
ĠExecuteLua Function
ĠTJava Array
TCustomFTP SendFile
ĠvQryPesqu isa
ĠTModelRoutine Form
æİ¥ æĶ¶
ĠuSetupDi Enum
ĠPEInfo Functions
ARCHIV AGE
Don ate
Dig est
El lipse
IGBSwagger Header
OWN ER
Plot Points
REL EASE
Sli de
TTooan AbstractClass
Ñĩ Ð¸Ñģ
å® ¢æĪ·
ĠÃ ł
Ġè¿ĶåĽŀ ç»ĵæŀľ
ĠLA ZPAINT
ĠLo ic
Ġdialog ue
Ġmid ifile
Ġdem os
ENABLE D
PCv Arr
SetWindow LongPtr
ĠuForm aPagamento
ĠuSynchro ObjBDD
ĠRet urn
ĠExt Dlgs
ĠDev ID
QueryEx Cache
ĠXMP LAYER
Handled DebugEvent
ĠTfrmChangedAddresses CommonalityScanner
ĠTCustomIcon Class
PASS W
ĠrsM ML
ĠSynch onizeProc
Safe CriticalSection
ediaPlayerDriver Class
iagnosis Cmd
523 01
674 52301
Aler t
Bad Request
Cf g
EFC DAB
Hora ireExport
Il licado
MTY ID
Persisten ce
QUA DS
Tre ino
TJni Memscan
ibel le
jni GetString
kIn dConcluido
tou serdata
æ¨¡å¼ ı
Ġtro uve
Ġimplem ented
unig e
Ġclock wise
ĠFRest Server
ĠFdq Sequencia
ingPoint PanelUnit
trap aram
ĠfAllow UserTo
Inven taire
ĠPThe Event
ĠPPtr Uint
Could NotBe
ĠAEMET TEUR
Conec ta
Ġreuss it
ĠLudo vic
Ġskip AddressToSymbol
Ġluacall er
ĠBost on
ĠBreakpoint TypeDef
ĠInstall Service
Ġprovo que
Environ ment
ĠuniMulti Item
igMemoryAlloc Handler
Ġtccl ib
GetInit RouterManage
ĠEasy LazFreeType
ffinity Mask
ĠTPTA cknowledgementCmd
ĠBGRAGif Format
ServicePoo ler
BitmapRawImageData Move
ĠIdExplicit TLSClientServer
UsuÃ¡ rio
ĠHOOK EVENT
ĠTThreadParse List
ĠTThreadSrv CheckStatusMobilite
ĠOneGu ID
ĠOneZT Manage
ĠfrmFloat ingPointPanelUnit
ĠTfrmAPI hookTemplateSettings
POINTER S
103254 76
Ġcecustom button
ADRP RINC
ADRAR CH
checkwas valid
ĠLastDisassembler Data
ĠTDataSor uce
ĠTHistor ical
ĠclGray Text
åĲįç §°
INITBU F
è®¿éĹ ®
ĠUSEINLIN ING
Ġrelacion ado
Inspector Form
ĠTTPEGinkoiaProtocolReceived CmdEvent
å®¢æĪ· ç«¯
HoraireExport Now
ĠIdExplicitTLSClientServer Base
! !
' ve
) ),
) ^;<
* (
* ((
+ }{$
- ##
. '<
/ .<
/ '+
2 8
2 10
3 1
4 1
4 7
8 8
; *.
; _';<
> +
> _
> >;<
A UT
A ge
A vatar
A fter
A Project
A Work
A FieldName
A bsolute
A ffinityMask
B G
B al
B urn
B Mask
B uf
B old
B ias
B uild
B CLabel
B oleto
C el
C are
C AP
C Region
C pp
C lientesModel
D ist
D DL
D Contact
D MQuantity
D RESSE
E A
E PL
F r
F ON
F ram
F uncoes
F HumRcd
G ENT
G Mask
G AMMA
H al
H int
I X
I DE
I Request
I PL
J og
J PG
J WT
J AVA
K L
K nown
L and
L SE
L Field
L ight
L Body
L Foto
L hsBrackets
M B
M Sc
M ost
M ute
M ark
M Node
M argins
M erge
N AL
N CF
N KL
O ID
P ad
P ix
P Next
P UID
P IPList
P RINTER
Q Words
R V
R o
R u
R LE
R ich
R Mask
S K
S ound
S oftware
S IZE
S ung
S uccess
S FS
S incron
T Id
T ill
T Button
T Stat
T CE
T Bitmap
T Dis
T MP
T ermin
T custom
T Encoding
T Vector
T XT
T Gu
T FileStream
T erminated
T USER
T CEPModel
T Monitor
T ImageNtHeaders
T SyncSource
T RIGGER
U Lua
U tf
U CoolTranslator
V end
V ars
W as
W ID
W rap
W ServerEvents
X or
Z one
Z FREE
[ (
\ ****************************************************************************************
] :
] )<
^ ,
^ [
_ }<
a ir
a vg
b et
b ook
b ass
b Nouveau
c u
c re
c function
c our
c ust
c io
c rs
c ancel
c gi
d bs
d ency
e ip
f in
f im
f Id
f ec
f ill
g ew
g ory
g raphic
g gle
h ow
h debug
h its
i an
i ao
i Row
j p
j ob
k l
l on
l st
l am
l us
l Param
l dd
l Index
l Help
l PortPrinter
l Komunikat
l psz
m cd
m actypes
m rok
n Retorno
n mcd
o fp
o tify
o ther
o CEPModel
o zilla
o ClientesModel
p ly
p Panel
p riseCC
q l
q ues
q rt
r us
r nil
s A
s witch
s amples
s pecific
s Lines
s Bet
s Url
s Fichier
s qlite
s peak
s cape
t k
t strings
u ree
u Item
v v
v end
v Design
w ide
x typedef
y pe
y bda
z er
} ,<
¥ è®°
§ £
´ Ð¸
Ã Ń
Æ ²
È £
Ð ³
Ð ´
Ð ¹
Ñ ´
å ·
å ĩ
å Ĭ
å ĳ
å ŀ
æ ł
ç ī
é ¾Ħ
ĉ Ġ
Ġ ue
Ġ Object
Ġ vi
Ġ tra
Ġ Header
Ġ ];<
Ġ ************************************************
Ġ Registros
Ġ rotation
Ġ ERROR
Ġ ?<
Ġ rip
Ġ ç»ĵæŀľ
Ġ äº¤
Ġ __________________________________________________________________________
Ġ Æ²
Ģ æľī
Ħ ı
ĵ ä¹
Ĺ ¥è®°
er ies
in herited
in valid
on ce
on al
on Type
on Change
on KeyDown
re ction
re tch
re aded
re trieving
te e
te ch
te io
en ames
en tidade
en tifier
ĠT s
ĠT ag
ĠT em
ĠT ree
ĠT ww
ĠT EL
ĠT Read
ĠT An
ĠT ick
ĠT Open
ĠT Progress
ĠT Team
ĠT color
ĠT Auto
ĠT Tag
ĠT Connect
ĠT Enum
ĠT OS
ĠT ab
ĠT Nt
ĠT Import
ĠT Animation
ĠT AudioSystem
ĠT Utc
ĠT Seek
ĠT target
ĠT ProvidersConnection
se en
or ize
ti ces
st amp
ro f
ar th
ar Token
ar Servidor
le x
le gram
le lPortPrinter
al s
al one
al Registry
al result
al pha
al lelPortPrinter
un ther
de coder
as is
as ch
as ync
as sign
as Ordem
as Numer
as cii
Ġp I
Ġp i
Ġp y
Ġp an
Ġp ag
Ġp ut
Ġp word
Ġp ages
Ġp atch
Ġp essoa
Ġp lease
Ġp rim
Ġp ain
Ġp oly
Ġp ause
Ġp iss
ĠS en
ĠS am
ĠS chema
ĠS amples
ĠS UB
ĠS WebPage
ĠS TR
ĠS PD
ĠS ysex
ĠS CGIApp
Ġc ls
Ġc oun
Ġc op
Ġc aption
Ġc irc
Ġc ircular
Ġc anceled
ĠF un
ĠF ss
ĠF Color
ĠF Date
ĠF address
ĠF API
ĠF Cmd
ĠF Items
ĠF Context
ĠF Conn
ĠF cod
ĠF AL
ĠF DS
ĠF Detail
ĠF RequiredMessage
ĠF Contains
ĠF inish
ĠF older
ĠF des
ĠF InvalidFormat
ĠF Nom
ĠF TrueValue
ĠF ContentType
ĠF FileStream
ĠF FieldName
ĠF Return
ĠF inished
ĠF url
ĠF FormTop
ĠF Gtf
es igner
et o
et ros
et Alert
et lKomunikat
ing a
tr ast
ic ate
be d
Ġf x
Ġf ar
Ġf il
Ġf ac
Ġf Canvas
Ġf Enabled
Ġf Render
Ġf owner
Ġf ichier
Ġf Filename
Ġf CustomDraw
Ġf Children
Ġf eature
ter ial
ter line
du cer
ĠC DE
ĠC Buffer
ĠC Machine
ĠC ST
ĠC rypt
ĠC MQuantity
ĠC BQuantity
ĠC rnil
In tro
In ch
In Set
In form
In FileName
In dividual
In jectedEvent
ate st
ys wi
Ġo ur
Ġo CS
ĠP Re
ĠP oint
ĠP TInt
ĠP RO
ĠP TReal
ĠP Context
ĠP VE
ĠP Alloc
ĠP Midi
ĠP SP
ĠP lot
ĠP NG
ĠP MidiEvent
ĠP rocesses
ĠP adding
Ġth ree
Ġth ink
Co ur
ĠD on
ĠD irect
ĠD IB
ĠD OS
ĠD Ã©
ĠD WServerEvents
ĠD uree
ĠD ybda
orse RecordNumber
Ġin ject
Ġin tegrity
ri er
ul ls
Ġl cl
Ġl ower
Ġl oaded
Ġl dark
ag ged
ag ens
is Call
is nil
ĠA t
ĠA Color
ĠA DataSet
ĠA Show
ĠA Source
ĠA Active
ĠA Rate
ĠA Playlist
ĠA ContentType
ĠA FileStream
ĠA Dest
ĠA CBr
Re set
Re do
Re member
Re setableThread
Re lations
Re mover
Re taining
ra us
ra ps
Con tra
Ġre set
ou ken
ou wm
ĠL ant
ĠL oto
ĠL Foto
ĠL yrics
cl ampF
Ġs f
Ġs im
Ġs ent
Ġs wag
Ġs ound
Ġs Bar
Ġs imple
Ġs pecial
Ġs pk
Ġs urface
Ġs sl
Ġs till
Ġs ymbols
Ġs peak
ĠG T
ĠG Ex
ĠG RA
ĠG oogle
ĠG roupBox
ĠG APPPATH
Ġw ww
Ġw ere
Ġw raps
to Integer
Ġb ar
Ġb To
Ġb ox
Ġb Sh
Ġb irthday
Ġb asis
im o
im eter
Ġd L
Ġd i
Ġd og
Ġd irect
Ġd irectory
Ġd dc
Res ize
Res ample
ata CNPJ
ĠI Service
ĠI Async
Ġprocedure s
lic ations
Ġm ut
Ġm Panel
Ġm ove
Ġm any
ĠU I
ĠU Text
ĠU Controller
ĠU Util
ĠU Record
ĠU RI
ĠU Sing
ĠU SER
ĠU NIX
ĠV er
Ġ' /
Ġ' ',
and ling
function name
function pointer
ph one
ub scri
em e
(' %
(' @
(' ')
id User
id Servico
id Match
id Carro
id Peca
ĠW orseRecordNumber
ed Update
Ġde lay
Ġde zenas
type info
ut Down
get Index
get Bitmap
get Selected
il le
il iti
List ar
List String
List Update
List All
List ListByte
Call Or
lo bj
back up
Te legram
)< >(
iz er
Ġn t
Ġn et
Ġn one
Ġn ative
Ġn pp
ĠB in
ĠB AR
ĠB ias
ĠB uffers
ĠB etween
ĠB uilder
ĠTHorse List
ĠM an
ĠM ost
ĠM EM
ĠM ozilla
St retch
Pro d
Pro log
Ġ( :
Ġ( ((
Sta ts
Ġover Flow
Pa use
ĠIn dividual
ĠIn serir
DA ddress
Form Main
Form Unit
li ers
Param str
Ġa fim
Value d
Ġpro ject
Ġpro perties
Ġpro bably
ĠCon text
ess o
Ġto ggle
To JSONArray
To XYZ
To Native
To Bin
To Lower
To Clipboard
To Fr
En gl
En tries
En crypt
um in
String To
String UTF
Ġh r
Ġh orse
Ġh igh
Ġh andling
Ġe lement
Ġe ps
Ġe quiv
Ġe bp
Ġe enabled
Ġbegin ning
Result Array
Result Team
Data Source
Data Block
Data Ready
Ġcon tnrs
ĠTG L
ĠTG Point
ĠTG inkoia
ĠTG nk
De zenas
De pth
ib us
ib ge
Create S
Create Form
Create Id
Ġuni Timer
Ġuni Memo
Ġuni ProgressBar
Ġuni DateTimePicker
Ġuni URLFrame
Ġuni Syntax
Ġuni ScreenMask
Lua vm
RA DDR
ĠDE MO
Com Obj
Ap ura
Ġ[ {"
are ct
Set Select
Set Evaluation
Ġu Message
Ġu Version
Ġu Defs
Ġu Msg
Ġu Frm
Ġu Tile
Ġu FMOD
Ġu ZVTProtocolManager
File Description
File Desc
set Id
set Format
set tings
set Column
set LastBranchRecord
Ġ1 4
Name A
Ġis Break
Ġis first
load FromFile
State Index
Sys Memo
Swag Path
Swag POST
Swag PUT
Swag DELETE
Ar rays
Ar qIni
On ce
On Destroy
On TaskBar
On ibus
Ġt l
Ġt q
Ġt stream
Ġt canvas
Add Url
Add VectoredExceptionHandler
ĠR LP
ĠR ating
ĠR PG
ĠR tl
ĠR adioGroup
ĠR ichEdit
Type Info
ĠGet Code
ĠGet Read
ĠGet Current
ĠGet ComboBox
ĠGet Extension
ĠGet Statistic
ĠGet UnMedida
ĠGet BufferQuantity
ĠGet ErrorCode
ĠGet Random
ĠGet BufferMemory
ĠGet MachineMemory
ĠGet Clock
ĠGet InfosBase
ï¿½ .<
Ġ2 147483647
Get top
Get Count
Get Progress
Get ModuleName
Get Statistic
Get Localized
ten dency
ĠTB reakpoint
ĠTB inary
ĠTB ounds
ĠTB igMemoryAllocHandler
TP T
TP ointer
TP DManager
TP hone
ual Song
ari ou
Ch r
Ch unk
ĠString s
ĠE Http
ĠE CR
ĠE LSE
istr ar
ĠN etwork
>// *
>// \****************************************************************************************
>{ __________________________________________________________________________
ers pec
AR ate
Ġ0 4
Ġx x
Ġx JSONLogin
ĠForm Destroy
Time Series
Time ToIso
ĠTD iagnosisCmd
ĠTD esigner
Array äºĭ
Un defined
Thread Debug
Thread Env
Mode ls
ec x
Item Id
clar ation
op code
op Logo
Ġi pt
Ġi Model
Ġi Generic
Ġi Dao
word press
UI Graphics
ser vico
able Bitmap
ure nt
ĠTC MD
ĠTC SN
ĠTC SSUnit
ĠTC alendar
ĠTC DContact
ĠTC PUID
ĠTC DAddress
ĠTh andle
Color Int
Color Set
Color Box
Im agens
ĠSt as
Ġwrite file
Ġwrite bytes
push number
push ccl
HTTP Prod
Ġg r
Ġg oto
Ġg eneric
Ġg raus
******************************** ************
Sc al
Sc ene
Text File
Text Rect
Text ura
Module Info
Module Handle
Field Values
Field ValueAsObject
ĠTP opulation
ĠTP rinter
Event Handle
der line
ĠĠĠĠĠĠĠĠĠĠĠĠĠĠĠĠ ĠĠĠĠĠĠĠĠĠĠĠ
ĠĠĠĠĠĠĠĠĠĠĠĠĠĠĠĠ ĠĠĠĠĠĠĠĠĠĠĠĠĠĠĠĠĠĠ
Ġbe at
Ġex tended
AT US
AT IV
ĠCreate Brush
ĠO ut
ĠO ld
ĠO ffset
Client Class
Base Data
Base Dialog
Edit From
tic a
32 5
ac cess
Ġ+ $
Date To
Str ToDate
he alth
Ġst uff
Ġst yles
Ġr bp
ĠSet Data
ĠSet Style
ĠSet Progress
ĠSet Select
ĠSet UnMedida
ĠSet ErrorCode
ĠSet nRetorno
ĠSet EditFrom
Inter act
Inter base
Image Button
ĠDe f
ĠDe clarations
ĠDe jan
Exception s
Exception On
Exception Code
out liers
ĠTL Message
ĠTL ocal
ĠTL oad
ĠTL arge
Ġfile list
ĠBGRA Button
ĠBGRA Win
ĠBGRA Samples
ĠBGRA Palette
ĠBGRA VirtualScreen
ĠBGRA ImageManipulation
ĠBGRA Scene
Ġuse ascii
Me Down
ĠRe lease
ĠRe mote
ĠRe duceLine
list unit
data type
ly Event
inc Color
Par ts
Par ser
Ġcom press
Message Info
IC ODE
Ġv g
Ġv k
vid er
UR SOR
ma th
Ġprogram a
Gener alRegistry
ĠTF rame
ĠTF RM
ĠREST Response
ĠREST ServicePooler
App ly
Ġj s
Ġj Env
Ġj peg
Query FileName
Or Equal
tain ment
New Object
New List
New Record
New Solution
New Round
CE Debugger
anv alue
ance s
Ġon ce
HI S
ĠFree BufferMemory
ĠFree MachineMemory
LE BAR
ĠTList ObjectList
Sh ort
Sh adow
Ġma trix
AP GA
Code Object
Code point
ĠControle ModalAjuda
ĠControle ConsultaGerarDocumento
ĠControle CadastroVinculoUsuario
ĠControle MensagemErro
ĠControle EnviaMensagemAguarde
ĠControle ImpressaoDocumento
ĠId Log
ĠId Header
ĠId URI
ĠId WebDAV
ĠId Socks
ĠId UDP
ĠId CustomHTTPServer
Log s
Log Form
Log Status
ex ported
ĠX ml
ĠX PW
Ġus uario
Serial ized
ĠSe ction
ĠSe condary
Register Modification
Memory Le
View s
Ġmem rech
Ġse par
Ġse condary
Ġse archkey
Interface Uses
Table s
Table Names
com port
com ments
com men
Ġ3 0
Ġ3 00
Is Exp
Win Update
Ġget B
Ġget s
Ġget Tab
Ġget ArrayFunction
co eficiente
ĠH ome
ĠH ook
ĠH ANDL
ĠH DEVINFO
ĠOne Get
ĠOne Global
ĠOne ILog
ĠTBGRA Vector
Def ect
Uni MainModule
Ġfp anel
ĠCh p
new hotkey
ĠIGBSwagger Security
ĠIGBSwagger Validator
pec a
Address List
ĠDataSet Converter
Menu Index
val ues
DO SS
Ġset Width
Ġset Height
Ġset ArrayFunction
Ġset DsCep
Messages Form
Panel Class
Ġpointer s
Ġpointer parser
Ġpointer addresslist
ĠTS P
ĠTS pk
Ġfrm Main
Ġfrm Consulta
Ġfrm Process
Ġfrm Stack
Ġfrm Help
Ġfrm Micro
Ġfrm Tracer
Custom Ginkoia
Ġal gor
ĠTGList ObjectList
Char s
Line Order
Line Thickness
TY P
ĠTfrm Devuelta
ĠTfrm Aniversariante
ĠAN aglowek
Ġme an
RE GE
RE ATE
RE PID
ĠText String
An tialiased
ms Hex
Ġsize ofp
atch ListForm
lib fbclient
pl ode
ĠTR GB
Ġconst ants
From Edit
From Address
From XYZ
ĠUni Memo
ĠUni Speed
ĠUni ProgressBar
ĠUni ServerModule
ĠUni DateTimePicker
ĠUni URLFrame
ĠUni DBLookupComboBox
Update Checker
Generic FileList
FF A
fer ed
ĠFile Ctrl
ĠFile Infos
ip RelativeScanner
lock ed
MP lugin
Ġdata Apura
ĠMa il
ĠMa jor
IG O
ĠTUni Memo
ĠTUni ImageList
ĠTUni ProgressBar
ĠTUni DateTimePicker
ĠTUni DBLookupComboBox
ĠTGBSwagger Security
app lications
Font Collection
Ġle t
Ġmod alresult
Record List
ĠTCustom ImageList
Val ide
ĠEn um
ĠEn cd
ere g
mo zilla
ool PaletteForm
ĠTString list
pro perty
pro bab
pro vider
param type
ĠTForm Class
ĠTForm Mensagem
reg arToken
Ġbyte size
Ġbyte stable
mem region
ux e
record Signature
round ing
Frame Loaded
Process List
Process Messages
Run time
Check Group
ĠDo Check
ĠDo Checks
Ġwar quivo
Ġred F
bar Mode
ĠNext Screen
Free Heap
Free VirtualMemory
ENT TYPE
**************************************************************** ******
json object
json Arrayäºĭ
ated Region
ï¿½ï¿½ï¿½ï¿½ ï¿½
osi tive
ĠRegister Routers
ild card
000 8
MS WINDOWS
Entry Table
Entry Point
Window Proc
ak s
Ġ4 00
ĠCheck Box
ĠCheck ListBox
ĠAdd er
ĠAdd Bet
LIC ATION
MA DE
Ġ5 100
Ġ200 1
API BASE
API Wrapper
Ġinter act
Ġinter val
Ġinter est
Pl age
Pl ace
ĠTA ffine
ĠTA boutBox
Open Key
Progress ive
Show Dll
Ġgl Disable
Ġgl Enable
,' ');<
Ġstruct name
ĠStart Restore
bal ls
base Config
End Update
End Cap
iag onal
ized Font
************************************************************************ ****
All Dialog
BO F
roll back
ĠStr ToStr
Ġrs p
And AspectRatio
And Checks
gal Copy
Device List
Ġmemory view
Ġmemory regions
Func ion
file list
au ssi
of s
of All
ĠSh utDown
Word Wrap
ĠTStream Integer
ĠTStream Pointer
Ġno te
Ġcontrol ler
ĠTService Auth
ĠTService Cliente
ĠFP S
ĠFP Img
ĠTFrm AccountView
Raise ExceptionOn
ĠTW nd
ĠTW ork
Input ID
Input box
The oretical
Element s
Ġen able
Ġen gine
Ġen trynr
Ġare ct
Le galCopy
Block SideDescriptor
po ListArray
po AutoCreated
po PHPArray
po DoNotEncode
po FlatArray
po Transient
ĠTDAO Factory
ĠTDAO Pecas
Draw s
Draw Effect
One Work
column s
Tab uList
Put ing
Ġcontainer Height
Max Width
Ġtr usted
Ġtr igger
ĠPT B
ĠPT String
ĠPT Char
ĠPT MachineLine
par a
UN KNO
row s
AL L
Next Pos
Next Caller
Ġlast Name
Ġlast Update
Ġlast Accessed
Tra v
Tra iner
Ġstr Result
ĠTNew HeaderControl
ĠTNew NoteBookStringsTabControl
ĠTNew StatusBar
ĠAr tist
ĠAr gs
wa terline
ĠQ Add
ĠQ lp
ĠQ Sort
Ġreturn ed
VERSION ING
Destroy Heap
Default Fields
Default Dll
Command s
Command ListUpdate
Play ing
ĠKey Type
ĠMain Form
ĠMain Module
24 0
24 4
24 24
Per Pixel
lugin version
Ġar ch
ĠChar InSet
ĠTControleConsultaModal CPFCliente
ition s
Ġsc enery
Ġsc anvalue
Servico PorId
]) +'
]) ),'
ĠFind User
icon dir
Ġbtn OK
Ġbtn Ok
ĠUScreen Jukebox
Ġ'' %
Ġ'' );
Ġevent List
ĠRead Index
ĠRead ProcessMemory
ĠSelect Rounds
Auto Calc
Multi Selected
gu i
ä¸ Ĭ
ĠTRequest Client
ĠTRequest Handler
ĠTRequest Indy
ĠTRequest NetHTTP
Ġpt Socks
Select All
Sub scri
Ġthread list
Ġdebug Helper
AD DRESSE
ĠPar sers
>/// ****************************************************************************************
Write Byte
Write Buffer
Write ToStream
ĠFT ermsOfService
ĠPB reakpoint
check only
US R
ĠTMain Menu
Orcamento s
Ġedit or
CT ORED
Filter ed
Filter Options
ĠfOn Change
ĠUser List
ĠUser Gate
ĠConvert String
Entidade Factory
GenericList Object
GenericList String
Du Process
Double s
Double Buffered
Solution Number
ĠTo ken
ĠLast Break
Ġtemp string
Ġtemp BGRAButton
rit er
Execute Function
Found list
INF INIT
Paint ImageHeader
start AnimatorTimer
ĠCO INIT
ĠTDis poseMode
Ġjson Array
ĠCdsConsulta COD
ĠCdsConsulta TIPO
ĠCdsConsulta NOME
ĠCdsConsulta ATIV
Position al
last size
enta gew
ĠTFile ListListByte
ĠFrm Principal
ĠFrm MercadoLibre
ĠFrm CustomGinkoia
ĠMem DS
ĠMem Directory
ĠMem Funcs
ĠMem DataX
ĠMem orize
ĠThe Message
Load Library
Load FromStream
Map pedRegion
Round Count
TB rush
Ġinclu des
',' ');<
Ġalloc ssize
Ġtable size
ĠDis sectCodeThread
Ġscan ning
ĠUMenu Text
ĠUMenu Interact
Tex H
Tex W
Tex X
Connect Event
Duet FourPAvatar
bit packed
object pos
ĠxId Usuario
ĠxId Servico
ĠxId Match
ĠxId Carro
ĠxId Peca
Interval Text
ĠDelete File
ĠDelete Items
ĠComp are
ĠComp ute
Border Color
Save ToStream
Ġline end
ĠIs Base
ĠIs Enabled
Ġac tive
LO W
Tem peratura
game pos
Ġæ ³¨åĨĮ
Ġæ Ĺ¥è®°
Ġerror Message
ĠTJ PEG
Ġpo ListArray
Ġpo AutoCreated
Ġpo PHPArray
Ġpo DoNotEncode
Ġpo FlatArray
Ġpo Transient
Ġpar l
ĠFade In
Ca ses
cur ity
des criptor
Ġinitial ized
ĠTFD Memtable
Amount IterationMean
pk FILE
pk HTTPHEADER
pk URLSEGMENT
pk GETorPOST
pk QUERY
pk REQUESTBODY
pk COOKIE
Ġfl AllocationType
ĠInternal Handler
ĠInternal Read
dhook Unit
Ġk k
ĠTQueue Pointer
ĠTQueue ListByte
ĠTQueue ListInteger
ĠTQueue ListPointer
Ġcall er
Init Flags
ĠWrite ToStream
ĠWrite ProcessMemory
ĠTDemo DataController
ĠTDemo WebFileController
ĠTLog s
200 1
200 4
Clear type
FI X
for um
ĠTT ermsOfService
Ġsa x
Display Name
SC AN
Tick s
Ġ6 0
ĠTMethod Type
ĠTMethod Request
ĠTMethod BitmapRawImageDataMove
ĠTcustom Url
ffff ff
ĠCombo Box
dis able
dis play
fl ush
fl ags
sh ort
ĠTOne WebSocket
Ġper m
Ġcv Create
Rec No
Directory Edit
mi tente
ĠTH READE
ĠTrim Left
ĠTrim Right
Ref lect
Enum Values
Dec d
Dec rease
Ġrun time
Ġrun ning
ĠPaint Controls
Ġdu mm
Ġem RowState
ĠSyn Highlighter
ĠGL R
pha Color
old en
Desc FileName
Ġhttps end
>( *<
Action s
Delphi Utils
edit main
edit Access
edit UserID
MOD ULE
ĠXML Read
Ad vance
Ad icionarRegistro
Over Rect
Over Flow
Over Area
Session s
ha ven
tc anvas
ĠTLua PipeServer
ĠTHTTP Response
ĠTHTTP Request
ĠFirst Approx
ĠFirst RecordList
ĠCustom LineInfo
Ġ', ';<
ored Module
ĠControleConsultaModal Banco
ĠControleConsultaModal Cidade
ĠControleConsultaModal TipoTitulo
ĠControleConsultaModal Convenio
ĠControleConsultaModal PessoaTituloPagar
TControleConsultaModal TituloCategoria
Mouse OverArea
NE T
ĠTRe priseCC
ĠTDataModule BD
Ġcl Form
Ġcl White
Project ManagerForm
Exec utar
ĠTPage Index
ĠTPage Cadastros
Events teste
Internal Name
main ing
main threadhandle
Carro PorId
NT RY
macport defines
ĠTSet ListInteger
ĠTSet ListPointer
Ġpk FILE
Ġpk HTTPHEADER
Ġpk URLSEGMENT
Ġpk GETorPOST
Ġpk QUERY
Ġpk REQUESTBODY
Ġpk COOKIE
isa fec
GroupBox SubClass
Extension Proc
First Scan
FORM AT
LA ZFREE
PRO SUB
PRO CESS
PRO GRAM
PRO CED
Pool Work
TList Byte
TList Method
TList Char
TList NotifyEvent
TList SimpleEvent
ĠTDB VM
Ġinc rease
Ġlbl Sub
ĠBuffer Quantity
ĠTDotNet Module
ĠTDotNet TypeDef
ĠTDotNet Domain
ĠRemember Bets
Compress ableBitmap
ĠTBGRABitmap Arrays
ĠChart TimeSeries
ĠChart Theoretical
ĠChart Positional
ĠTMy Class
Plugin s
Ġfoundlist helper
HANDL ER
Peca PorId
ĠSave Song
SwagParam Query
ĠEd t
Ġlaz utils
ĠTListByte Base
tegrityCheck Value
Fade Progress
ĠClient Aguarde
ĠObter Registro
ĠTLanguage EntryArray
path s
Layer ed
ĠTTreeNode String
ĠTTreeNode Integer
ĠTTreeNode Pointer
ĠTTreeNode ListInteger
ĠTTreeNode ListPointer
ĠTTreeNode ListString
"} ]<
Mon Soc
SO FT
dr Ã¡
ĠFL hsBrackets
ĠDO M
Ġtotal Width
URI Parts
Sto ck
Total s
delphi haven
Ġgiv ing
Produto s
Gu id
SY STE
Tool Win
Tool bar
ci us
pi pename
process Handle
xId User
xId Team
xId Orcamento
ĠReg istrar
ĠTStatus Bar
Ġinfo button
Ġsup ported
Ġmr POST
Ġmr PUT
Ġmr DELETE
Ġmr Ok
Ġmr PATCH
ĠInitial ized
ĠInitialize Lua
Arrow Size
Hex adecimal
ĠTClient DataSet
ĠTListBox Item
ĠMax Size
ĠMax Capacity
Ġedt Hotkey
PACK ENUM
ĠMemory Browser
Pass Phrase
we etAlert
Ġicon dir
Ġcolor s
ĠLAPI Client
Ġdep recated
rimiti ves
Track bar
Foto Produto
ĠFa hrenheit
ĠCal c
ĠUFiles ystem
DAV Store
MainForm OnTaskBar
Ġvf Release
Ġvf Build
ĠvQry Records
ĠTListChar Base
ĠTHorseCoreParam Header
containerFont Names
containerFont Colors
containerFont Styles
containerFont Sizes
containerFont BackGrounds
Full Repaint
GUI Bitmap
Original FileName
Pre ference
Sor ted
Sor tead
Sor teio
syn cobjs
syn chronize
ĠTStack Pointer
ĠTEndereco Integracao
trans parentColor
ĠAd icionarRegistro
Dev s
ĠuLog ger
READ WRITE
ĠTJcl MM
Bevel Width
Bevel Inner
Cl ampF
sl ouken
wait for
ç» Ł
ĠPos Y
Ġbgra Controls
ĠMe gaModel
Ġgu iobject
ĠĠĠĠĠĠĠĠĠĠĠĠĠĠĠĠĠĠĠĠĠĠĠĠĠĠĠĠĠĠĠĠ ĠĠĠĠĠĠĠ
Bits PerPixel
Shut MeDown
ĠInterface Automacao
CKDO s
****************************************************** *<
Ignore Properties
Has DebugEvent
Has Children
Has HandledDebugEvent
Laz Paint
Ġti les
Ġver tices
ĠJSON Schema
input query
ĠTMessage Event
section s
ĠFor ce
ĠFTime Format
ĠCurrent Last
ĠGIF GraphicControlExtension
libs dl
000000 01
ĠTDictionaryStringString List
ĠActive Cach
æĺ¯ jsonobject
([ [
Act n
Act nList
Act ualSong
PD F
btn GetUserInfo
ĠTPair StringString
ĠTPair IntegerString
ĠTerminate Extension
ĠCl ampF
ĠCar regarToken
ĠDX Class
ĠDX Draws
temp ts
temp BGRAButton
Ġbit s
ĠTGFileList List
ĠTGFileList Item
ĠTGFileList Index
ĠDevice ID
ĠRemove Bet
Loader ThreadEvent
Ġreference s
ISAPI App
Ġheaders ize
ĠTMatrixObject Index
ĠTMatrixObject Row
ĠTMatrixInteger Index
ĠTMatrixInteger Row
ĠTMatrixByte Index
ĠTMatrixByte Row
ĠRefresh Grid
ĠRefresh Bets
ĠRefresh Totals
ĠQryConsulta TIPO
ç±» åŀ
tax checkonly
Rep lyEvent
ĠLData Source
Ġsm tp
Ġsm Party
ĠBl ack
Ġselected Item
ĠMachine Quantity
ĠTDisassembler View
ĠTTile Value
ĠTTile Detail
;// ;<
GEN MAG
If Already
TGame Base
bri ef
ivi seur
æľ ¬
ĠFill Char
termin ate
roces sed
iss ing
iss ariou
ĠdropDown On
ĠdropDown Width
ĠdropDown Height
Ġmnu Sair
ĠUSE LAZFREE
ĠUGraphic Classes
Ġact ual
Ġact ualcount
ĠTGraphic Control
Ġgroup scan
ĠExtract FileName
ĠJNI Utils
ĠMenu Prn
ĠTServicePedido Item
CONT ENTTYPE
è¿ĶåĽŀ æĺ¯jsonobject
ĠTPointerscan resultReader
ĠTPointerscan ConnectEvent
39 0
BC Types
Sel Text
Sel Start
Sel End
TT V
Ġplay ing
ĠDec rypt
ĠMin or
Ġconn ected
Ġ199 8
Ġtb ps
ĠEqual Function
ĠTDW Params
ĠiService Endereco
activate d
ĠTLaz Project
APP LICATION
ĠExec SQL
Ġchang ename
FFT data
Product Name
Product Version
ScrollBar s
;; ;
Outer Color
PH ICS
TER EPL
cb Size
lap se
ok a
ring ToFr
ĠTUptime Rec
ĠSend File
ĠField Name
ĠField ValueAsObject
ĠPage Control
ĠAName Site
ĠADO DB
ĠAInstance Name
ĠIter Rs
ĠIEntidade Factory
perc entage
Ġip f
Imp lementation
Ġgener ated
ĠChange FileExt
ĠTGListObject Item
ĠTGListObject Index
ĠTGListString Item
ĠTGListString Index
ĠUNIT VERSIONING
ĠTDictionaryIntegerString List
Descr icao
ĠDebuggerInterface APIWrapper
ĠImportFrom LocalFile
ä¿¡æģ¯ name
)+' .'+
78 4
Diagram BlockSideDescriptor
ÑĤ Ðµ
æī Ģæľī
æī ĵä¹
æį ®
ĉĉ ĉ
ĠTThrd Import
ĠTThrd SynchronizeSvr
selected Item
stop AnimatorTimer
ank s
ĠPass Phrase
ĠUS DX
Ġdec rease
ĠComm Ctrl
ĠTMouse OverRect
ĠTRtti Type
ĠTRtti Field
HttpClient Component
Ġallow OverFlow
Allow Gray
åĪ° è·¯çĶ±
åĪ° ä¿¡æģ¯name
Return s
ĠTCEP DAO
Ġallocate SharedMemory
DRA W
Ġul timo
entry Items
ĠTResource Config
ĠTResource Factory
device Index
Ġparent font
ĠScale DPI
ĠFSchema Str
amic NKL
ĠClear Bets
ĠWnd Class
CallStack Form
ĠMulti lineInputQuery
Ġ//ï¿½ï¿½ï¿½ï¿½ ï¿½ï¿½ï¿½ï¿½ï¿½ï¿½
ĠRL Report
ĠNUM ERO
ĠTPlay List
parameter Value
parameter ValueType
ĠTADO Query
ĠTWMS Inventaire
TIME OUT
Allocate Heap
Allocate VirtualMemory
LAST VERSION
ĠJvDesign Surface
CameraExtZoom AndAspectRatio
ĠtemperaturaEm Fahrenheit
EXECUT E
Bmp Info
Ed ge
Gate Info
GIF Animator
LId Pedido
cp unr
player count
ĠTConfig Ambiente
ĠFn Retorno
ĠCan Connect
Prox imo
ĠuDW About
ĠEm ulateInitializeEvents
ĠBGRACanvas GL
ĠHttp ExtensionProc
ĠTime Zone
ĠTHTTPServer CGI
Guess Sep
ĠLocalSearch Index
Crypt Pass
Want Tabs
Want Returns
dropDown Width
dropDown Height
save ToFile
ä¾ĭ æ¨¡å¼ı
ĠTU CS
ĠTVersion Field
ĠTVersion Fields
ĠTry ISO
stock r
ĠSample Buffer
ĠCor p
ĠAct nList
Ġmu ch
Ġmu dutil
Ġman age
idTeam A
idTeam B
getElement Count
ĠBtn Down
Ġcons ists
ĠGetHeaders List
ĠTDO MNode
ĠDelet arRegistro
ĠTListStack Integer
ĠTListStack Pointer
ĠControleOperacoes Caixa
ĠControleLivre ChequeImagem
ĠXPL MSc
ĠXPL MPlugin
Website Info
ĠsetId Pessoa
ĠsetId Endereco
Ġqua d
Ġqua drÃ¡
READE D
ĠMake Code
scanner destroy
ĠDoBets AndChecks
ĠLazFreeType FontCollection
ĠTAlign ment
DSHTTP WebBroker
Retour DuProcess
ĠbtnGetUserInfo Click
ĠlpNumberOfBytes Read
ĠlpNumberOfBytes Written
ĠTCECustomButton State
Ġnecess ary
ĠControleConsultaModalTituloCategoria Pagar
ĠControleConsultaModalTituloCategoria Receber
modrm Value
modrm ValueType
ĠTResetableThread Execute
ĠTHorseCoreParamField LhsBrackets
ĠfrxExport BaseDialog
ĠfrxExport PDF
ĠMethod Ptr
ĠMutation Index
ĠMutation Parameter
ĠnumeroConcurso Anterior
ĠnumeroConcurso Proximo
ĠImportFromInternet File
59 3
LI ST
RS AP
Same Object
final ization
jum ps
obj len
å¯ Ĩ
enable Console
ĠTValue Relations
ĠTRegister Info
ĠTRegion Ex
ĠTDefault Message
ĠFph ones
ĠFmin imum
ĠfunÃ§ Ã£o
ĠCo InitFlags
ĠDirectory Exists
Ġind icate
Ġloc ated
Ġrepresent ing
Ġmc Any
idget Defs
Ġrespon sible
Ġresol vend
Ġevery thing
Named SecurityInfo
ĠEvent OneWork
ĠNt Status
NetResource Array
ĠTAl phaColor
Ġenum s
ĠAppend InFile
lace d
ĠZip per
ĠUMicro Thread
Validate Properties
ĠCURLIO E
æį¢ æīĵä¹
(****************************************************** <
)^ =
Dash Dot
Pas te
Pri x
mr GET
ui SafeCriticalSection
ÐĴ Ð²ÐµÐ
ĠRegion Size
ĠTMe gaIni
ĠTVirtual QueryExCache
ĠTScroll bar
ĠFmax imum
ĠCMD UPDA
ĠCross over
ĠDs Entidade
Ġss r
Ġbgr as
ĠIMVC RESTResponse
ĠVCL Tee
ListVal A
ĠBest RecordNumber
Expor ta
ĠConn ect
Three P
003 13
ĠGetNew Connexion
ĠTBreak Option
ĠTCard DAVStore
ĠOle Ctrls
Ġrc Draw
ĠSetOn Log
Ġask permission
ĠTFTP Ctrl
ĠXP UIGraphics
ĠProgress Bar
ĠTCustomGinkoia FormFrm
Print Preview
DeviceInterface Data
DrawItem Struct
ĠTUserMgr Engine
ĠUScreenSing Controller
Ġcustomdraw n
ĠCalcul ate
scroll bar
æĪĳ æİ¥æĶ¶
Ġtipo Jog
Squa re
OrdemServico Consulta
Authorization State
ĠGetAppVersion Str
ĠStructures Frm
å¹´ é¾Ħ
ĠrsPSSIC L
moteExecutor SharedMemory
Fin ally
MULT ITH
Ssf CodeFinal
Tform Consulta
TMy Object
WE MADE
domain s
åľ ¨
æĿ ¥
çº §
Ġve hdebug
ĠTCo okie
ĠTgame panel
ĠTSearch Rec
ĠTrack Bar
ĠTcx ComboBox
ĠTemp Class
ĠTVariable Type
Ġfu ck
ĠfMax BitCount
ĠCase Sensitive
Ġopt name
pee ch
ĠIBGRA Scanner
ĠUThread Ex
ĠUCool Audio
ĠBug fix
ĠMET HOD
oggle Box
External Storage
Ġconven tion
AddHTTP PoolWork
ĠDetail Version
ĠRewrite File
aob scan
Ġlista Dezenas
Company Name
Secondary Highlighted
ĠIdx Last
ĠTMulti LineBitBtn
ĠTSym Handler
ĠEnter tainment
ĠLazpaint Channel
Ġdisassemble d
ĠStrToDate GuessSep
Overlap ped
Ġquar ts
Ġmultiline inputquery
çĶ¨ æĪ·
IfNe eded
ĠPointerscanNetwork Commands
åŃĹç¬¦ ä¸
ĠPasswd Fail
ĠPushOut First
Join Style
Ulti map
ÑĩÐ¸Ñģ Ð»Ð¾
Bal ls
Dist MinMax
FON T
GENT RIGGER
Land scape
Mute x
Ru ta
SFS weetAlert
Till Done
TStat Result
TGu i
ULua Usdx
WID TH
job nik
rus tee
specific cpu
wide char
´Ð¸ ÑĤÐµ
åĳ ĺ
Ġ************************************************ *****)<
Ġç»ĵæŀľ è¿ĶåĽŀæĺ¯jsonobject
Ġäº¤ æį¢æīĵä¹
Ġ__________________________________________________________________________ _}<
ĠTree View
ĠTww DBDateTimePickerRv
ĠTEL og
ĠTEnum Menu
ĠTOS Infos
ĠTAnimation Object
ĠTSeek Origin
asOrdem Sorteio
asNumer os
Ġpain ted
ĠSPD RP
ĠFss f
ĠFAPI Client
ĠFCmd Type
ĠFAL SE
ĠFDS qlite
ĠFdes cricao
ĠFInvalidFormat Message
ĠFReturn UTC
Ġfac iliti
ĠfRender Collision
ĠfChildren Only
ĠCrnil a
Intro ducer
Inform acao
yswi etlKomunikat
ĠoCS N
ĠPVE CTORED
ĠPlot Point
ĠDirect X
ĠDOS Time
ĠDÃ© clarations
ĠDybda hl
Remember SimpleMachineLine
ouwm ans
ĠLant inga
ĠGEx perts
ĠGRA PHICS
ĠUSing Scores
edUpdate s
Ġdezenas Sortead
CallOr AllDialog
Prolog ue
ĠoverFlow Counter
Engl ish
ĠTGinkoia Tools
ĠuniSyntax Editor
setLastBranchRecord ing
AddUrl Segment
ĠRPG Types
ĠRichEdit Mensagem
ĠGetComboBox Info
ĠGetExtension Version
ĠGetRandom Balls
ĠTBounds Dbl
ĠECR S
>//\**************************************************************************************** /<
>{__________________________________________________________________________ _<
erspec tive
ThreadDebug NameA
ĠiModel Main
ĠiGeneric Iterator
ĠiDao Pessoa
urent Capacity
ĠTCMD Params
ĠTCPUID Result
ĠTCDAddress book
pushccl osure
******************************************** }<
ĠTLoad ListThread
Codepoint Size
ĠIdLog File
ĠIdHeader List
ĠXPW idgetDefs
MemoryLe aks
InterfaceUses Section
comments override
commen ded
IsExp loding
ĠHome page
ĠHANDL E
ĠTBGRAVector izedFont
REGE X
Ġsizeofp luginversion
ĠUniSpeed CaptionClose
ĠdataApura cao
ĠEncd Decd
probab ility
jsonArrayäºĭ ä¾ĭ
ShowDll Form
aussi an
ĠFPImg C
LegalCopy Right
Ġtrigger once
UNKNO WN
DefaultDll Directories
AutoCalc Fields
ADDRESSE S
>///**************************************************************************************** \<
INFINIT E
ĠCdsConsultaCOD IGO
ĠCdsConsultaATIV O
entagew idth
ĠMemorize Bets
Temperatura F
Ġæ³¨åĨĮ åĪ°è·¯çĶ±
ĠTHREADE NTRY
Decrease Count
ĠFirstApprox imation
Executar Consulta
Eventsteste ReplyEvent
isafec riticalsection
PROSUB ID
PROCED URE
ĠChartTheoretical DistMinMax
SYSTE M
ĠMemoryBrowser FormUnit
ĠActiveCach edUpdates
btnGetUserInfo Click
ç±»åŀ ĭ
IfAlready Running
ĠUSELAZFREE TYPE
TEREPL Y
ringToFr ont
AllowGray ed
Ġultimo Concurso
ĠTWMSInventaire File
ĠTConfigAmbiente DTO
ĠTimeZone Bias
ĠXPLMSc enery
ĠquadrÃ¡ tica
ĠTValueRelations hip
Ġresolvend o
ÐĴÐ²ÐµÐ ´Ð¸ÑĤÐµ
ĠCMDUPDA TEREPLY
æĪĳæİ¥æĶ¶ åĪ°ä¿¡æģ¯name
ĠtipoJog o
å¹´é¾Ħ age
MULTITH READED
Ġvehdebug active
ĠTCookie List
Ġmultilineinputquery unit
Ġfaciliti es
ĠdezenasSortead asOrdemSorteio
! ');<
" -
" ><
" );
( *<
) :=
) ',
) "}')<
, @
, {
- (
- >
- //
- '+
. ,<
/ ';<
/ ');<
1 01
2 80
4 14
4 54
7 00
8 1
9 5
: '+
; {
> ************************************************
> *)<
A ri
A li
A Result
A Sender
A Query
A Collection
A Max
A Caption
A Valid
A bility
A fterConstruction
A verage
B B
B o
B Type
B ill
B ound
B GL
B ASS
B oto
B GR
B uilder
C W
C TYPE
C reating
C SSUnit
D yn
D Common
D FF
D Helper
D Word
D Render
D rop
D KeyDown
D iagnos
D imension
D rive
E E
E ta
E AL
E Tag
E MAIL
E ssageBoxA
F List
F JSON
F Stream
F ID
F Count
F ak
F FileName
F Bytes
F Schema
F Imp
F inished
F ired
F ulls
G P
G raph
G EST
G SC
G ril
G ranularity
G olden
H i
H ave
H ide
H ello
I AT
I AN
I ID
I VE
I METype
I CodeObject
K v
K EN
K PD
L F
L n
L im
L Data
L Retorno
L ATE
L Pairs
L oop
L DR
L aten
L ENGTH
M o
M ON
M INE
M EN
M IT
M ESS
M dl
M edia
M ixer
N g
N m
N ation
N EL
N ak
N pp
N FCe
N AMES
O ME
O AD
O CK
P al
P ed
P RE
P oly
P wd
P rocessed
Q R
Q r
Q UE
Q Bill
R DP
R tl
R aster
S END
S IT
S oft
S hould
S ilent
S upport
S Fixed
S DDL
T V
T f
T Param
T AT
T Handler
T Main
T Graphics
T Pair
T Server
T Method
T Char
T Syn
T Region
T Audio
T Symbol
T Dictionary
T MVC
T SpeedButton
T WebModule
T SP
T iff
T plugin
T Gif
T UserInfo
T rees
T ermsOfService
T DebuggerInterface
T PCM
T erm
T iers
T TCList
T oggleBox
U f
U ST
U sed
U NIX
V P
V ol
V ers
W RA
W CH
W bem
W atcherExtra
X ml
X CEPTION
X LS
Y Y
Y TE
Y PE
Z Buffer
Z Lib
Z ONE
\ '
\ ',
] );
] ),
_ "
a h
a im
a ug
a Message
a Query
a ux
a round
a Parent
a Pessoa
a ved
a Layout
a fe
a unch
a Exercicio
b ul
b ort
b etter
b ask
b reak
c as
c ut
c ap
c arro
d Util
d one
e ver
e ven
f re
f ar
f Picture
f inished
f req
f rozen
f Da
g ot
g ener
g roup
g rid
g eneric
h b
h h
h i
h ap
h our
h osxp
i w
i ble
i que
i ada
i SubItem
j out
j wa
k Free
k Ng
l ls
l rs
l loc
l br
l cius
m n
m or
m an
m id
m ation
m per
m handler
m nu
m section
m anager
n l
n ed
n ers
n FImp
o ption
o ff
o bo
o va
p ue
p word
p ost
p tif
p icker
p rv
p js
q ln
q ini
r ange
r incipal
s S
s X
s m
s up
s peedhack
s till
s Ligne
s ilent
s omething
s qrt
s peech
t m
t le
t Client
t list
t wo
t ury
t memorystream
u is
u rite
u dar
v Pos
v isible
v None
w ritten
w ano
x ec
x Theme
x mplayer
x ImageArr
y per
y Song
y tics
y ah
z ip
z Label
z oom
{ ,
{ ================================================================
{ *******************************************************<
¨ ĭ
« ä»
¯ å
² æ³¨åĨĮ
³ è¿ĩ
³ ¨æ
µ es
½ æķ°
Ã ³
Ã µes
Ñ Į
ã Ģ
å į
å ®ļ
æ ĭ
æ Ĺ
ç Ľ
ç ¨ĭ
é ļ
Ġ |
Ġ ********
Ġ il
Ġ iz
Ġ 00
Ġ __
Ġ );
Ġ api
Ġ ill
Ġ >;<
Ġ HTML
Ġ ******************************************************
Ġ ***
Ġ å¤
Ġ teste
Ġ igp
Ġ å®¢æĪ·ç«¯
ķ åħ
Ļ ļ
ļ ä¾ĭæ¨¡å¼ı
Ł æľ
Ń æĺ¯
ĠĠ ĉĉĉ
er om
er Unit
in us
in table
in side
in till
on Value
on ts
on Helper
re a
re y
re st
re as
re ame
re port
re ference
en a
en tra
en trynr
ĠT function
ĠT JS
ĠT array
ĠT Path
ĠT able
ĠT View
ĠT Http
ĠT Kernel
ĠT Node
ĠT Hotkey
ĠT Orcamento
ĠT Score
ĠT Section
ĠT Exec
ĠT Continue
ĠT IterationResult
ĠT fore
ĠT CheckBox
ĠT ScrollBar
ĠT PCM
ĠT Tracer
ĠT Protoco
ĠT ConversionRoutine
ĠT StructureForm
ĠT PathQueueElement
ĠT ModuleInfo
ĠT MessagesForm
ĠT ProjectManagerForm
ĠT CallStackForm
ĠT YPE
ĠT bul
se e
or ing
or igin
ti tion
st at
st ab
st reame
** *<
ar ter
ar pen
ar ances
le c
le aved
ce ler
ce ive
al Base
al ance
al gor
al ytics
un pack
un ication
un ference
an ti
an si
an tes
an ie
de st
de vent
de velopment
de compressionstream
th s
as ure
as Sock
Ġp m
Ġp p
Ġp x
Ġp string
Ġp ec
Ġp res
Ġp ptruint
Ġp opup
Ġp js
Ġp memRegionPos
Ġp rimitives
Ġp widechar
Ġp rincipal
ĠS o
ĠS IZE
ĠS kip
ĠS WA
ĠS ocket
ĠS uccess
ĠS Ticks
end ant
ta b
Ġc lean
Ġc our
Ġc ard
Ġc reg
Ġc ause
Ġc leanup
Ġc RC
Ġc ereg
ĠF K
ĠF S
ĠF l
ĠF in
ĠF ult
ĠF TP
ĠF act
ĠF Client
ĠF ID
ĠF ran
ĠF User
ĠF Code
ĠF Format
ĠF unc
ĠF state
ĠF reg
ĠF Send
ĠF Show
ĠF Max
ĠF Body
ĠF Caption
ĠF Level
ĠF Auto
ĠF Currency
ĠF Contact
ĠF Active
ĠF Conexao
ĠF Interval
ĠF uf
ĠF REST
ĠF parent
ĠF Url
ĠF Values
ĠF ichier
ĠF UNCTION
ĠF Erreur
ĠF Rating
ĠF description
ĠF status
ĠF perc
ĠF Bounds
ĠF tag
ĠF FormLeft
ĠF NOME
ĠF RESTResponse
ĠF ValorTotal
ĠF street
ĠF ifth
ĠF ClassType
ĠF HttpCode
ĠF VirtualSet
ĠF Entidades
ĠF Age
ĠF DOSS
ĠF IgnoreProperties
ĠF EMAIL
es p
es ted
et ti
et ch
et orno
et utorial
et ko
ing Par
ing Forms
am jan
am etutorial
tr ib
tr ip
tr aca
ic o
ic ul
be ay
Ġf is
Ġf Color
Ġf ast
Ġf Button
Ġf ull
Ġf Use
Ġf Auto
Ġf Current
Ġf older
Ġf Script
Ġf Picture
Ġf ViewPage
Ġf texture
Ġf oi
Ġf BackStyle
Ġf locked
Ġf percentage
Ġf IsExploding
ĠC er
ĠC ad
ĠC GI
ĠC One
ĠC VERSION
ĠC URSOR
ĠC SIT
ses ensitive
In st
In Res
In itial
In Memo
In tegrity
In cludeTrailingPathDelimiter
In structionGroupArray
In herit
ate Value
ys ical
ys qln
gin ed
Ġo m
Ġo CEP
ĠP X
ĠP l
ĠP ER
ĠP Memory
ĠP TObject
ĠP ixel
ĠP PT
ĠP lugin
ĠP SA
ĠP EXCEPTION
ĠP TEData
ĠP ICONDIR
ĠP ExportedFunctions
ĠP Qword
ĠP PCM
ĠP UBLIC
ĠP FIdRcd
ĠP recision
ĠP PIPList
ĠP MappedRegion
ĠP InstructionGroupArray
Ġth s
Ġth ing
Ġth ings
Ġth umb
Co der
ĠD R
ĠD m
ĠD em
ĠD ial
ĠD word
ĠD one
ĠD iagram
ĠD ash
ĠD sCep
ĠD AC
ĠD ICS
ĠD PI
ĠD iviseur
ĠD anie
ĠD amjan
Ġin form
Ġin struction
Ġin jected
Ġin ÃŃ
Ġin tegrityCheckValue
Ġ= )"}')<
ri r
ri end
ri bu
ul tic
Ġl n
Ġl ow
Ġl abel
Ġl FileName
Ġl cs
Ġl vm
Ġl ookup
Ġl oop
Ġl arge
Ġl JsonObj
Ġl RGN
Ġl umin
is ations
is Id
is Code
is Ret
is Conditional
is Jump
is assembly
ĠSys ErrorMessage
ĠSys ToUTF
ĠA J
ĠA L
ĠA State
ĠA Control
ĠA Text
ĠA Count
ĠA tual
ĠA Usuario
ĠA Font
ĠA Style
ĠA select
ĠA Compression
ĠA RM
ĠA brir
ĠA ParamValue
Ġ:= <
tem ent
Re v
Re pe
ra o
ra x
pe ur
pe dits
pe arances
Con straints
Ġre c
Ġre move
ist ers
ou ro
inter leaved
ĠL ow
ĠL ink
ĠL ualib
ĠL Wait
ĠL oop
ĠL PARAM
ĠL ibelle
ĠL URIParts
cl aim
Ġs b
Ġs ing
Ġs ig
Ġs ure
Ġs chema
Ġs Msg
Ġs ockets
Ġs Fichier
Ġs orted
Ġs ocket
Ġs erial
Ġs ince
---- -<
if y
ĠG PATH
ĠG rayscale
ĠG aussian
tro py
Ġw or
Ġw yn
Ġw he
Ġw nd
to ol
to NFe
Ġb in
Ġb og
Ġb Cancel
Ġb ank
Ġb Nouveau
Ġb alance
im ento
Object Sc
Object ChangeStatus
ver ted
all och
ult ar
Ġd Y
Ġd a
Ġd ig
Ġd ir
Res ume
Res olver
Ġthe ir
ĠI pl
ĠI Selection
ĠI Tooan
lic ite
Ġm b
Ġm on
Ġm ags
Ġm edley
Ġm onitor
Ġm ysqln
Ġm ultic
ĠU Form
ĠU HTTP
ĠU Image
ĠU Stack
ĠU Command
ĠU Audio
ĠU tc
ĠU Pool
ĠU Dll
ĠU Database
ĠU DLL
ĠU ExceptionLogger
ĠU TCP
ĠU MIMEType
ĠU Html
ĠU Avatar
ĠU ResetableThread
ĠU xTheme
ĠV AR
ĠV ide
at tempts
ent ual
Ġ' __
Ġ' {"
function id
function namelength
Ġof sX
oo d
oo th
ph andle
ph ones
ub s
ON TEXT
em ory
em ergency
id a
ĠW S
ĠW ork
ĠW PARAM
ĠW HERE
ĠW KPD
ed x
ed ata
ed Ability
Ġde l
Ġde st
Ġde vel
type defs
ut f
ut ure
get File
get Text
get Option
get Description
get Icon
get Caption
get Left
get Hotkey
get Position
get last
get Owner
get LastBranchRecord
get Checked
get XM
get ResponseCmd
get DisassemblerView
get CurrentPath
get TableNames
get Hexadecimal
ile s
aram inus
List Result
List view
List End
List Single
List ChangeStatus
us pend
Call Back
Call Java
ap er
ap pen
ap lus
lo sed
lo aded
Te ardown
iz acao
Ġn ome
ĠB G
ĠB N
ĠB ut
ĠB etter
ĠB reak
ĠB uild
ĠB UF
ĠB APReduceLine
ĠB rowse
ĠB ounding
ind ing
ĠTHorse GBSwagger
ĠM M
ĠM az
ĠM ark
ĠM edley
ĠM ikMod
ĠM EssageBoxA
ĠM IMEType
ĠM asSock
ĠM iles
St d
Pro ven
Pro bleme
ire frame
JSON Schema
ch or
ch iff
ch annels
Sta tement
Ġ// ï¿½ï¿½ï¿½ï¿½ï¿½ï¿½
Ty p
ize buffers
Ġres ize
Ġres ume
Ġres istor
per m
DA TAB
Form Close
li es
ot t
Param Str
ew are
Ġa a
Ġa x
Ġa Param
Ġa Name
Ġa Index
Ġa Params
Ġa Uni
Ġa Cor
Ġa Act
Ġa Ano
Ġa Placa
Ġa Modelo
Ġa Marca
Ġa ula
Ġa bove
lem s
Ex pl
Value Information
Ġun icode
Ġun used
Ġun less
Ġpro blem
Ġpro tect
Ġpro tection
Ġpro pedits
ĠCon v
ĠCon nection
Ġto ge
To Sys
To BGRA
To Null
To Expanded
To Utf
vi arServidor
String list
Ġh s
Ġh is
Ġh ts
Ġh ass
Ġh elp
Ġh orizontal
Ġh appen
ted it
ted irection
od alBase
Result Settings
Data Size
Data Structures
Ġ{ %
Ġ{ **
Ġcon ten
Ġcon tin
Ġcon straints
ĠTG RP
ĠTG roupBox
ĠTG uiSafeCriticalSection
De velop
Create Thread
Create Destroy
Create Toolhelp
Ser vic
Ser ie
Lua State
RA T
RA IT
RA ME
RA vatar
PC X
Com Port
Com ments
ur pose
Ap pearances
00 2
00 6
Set Id
Set Element
Set Volume
Set ThreadDebugNameA
Ġu id
Ġu Main
Ġu Http
Ġu Process
Ġu Long
Ġu Taille
Ġu AcknowledgementCmd
Ġu ThreadProc
File Info
File Extension
Col lapse
read er
set up
set top
set Text
set Caption
set Position
set Selected
set Checked
set MethodProperty
set dp
Ġ1 0000
Ġ1 024
Ġis Unicode
State Change
ĠFire light
Ar c
On Post
On Hotkey
ton umber
ve ur
ve xtypedef
Ġt m
Ġt xt
Ġt Thread
Ġt ask
Ġt urn
Ġt treenode
Key Handler
Key Combo
Add s
Add To
up ento
mode switch
ĠR andom
ĠR etor
ĠR nFImp
Type Data
Request Text
ĠGet Module
ĠGet Version
ĠGet Dis
ĠGet Usuario
ĠGet Length
ĠGet Application
ĠGet Login
ĠGet Solution
ĠGet Article
ĠGet ValorUnAtual
ĠGet Total
ĠGet Track
ĠGet Senha
ĠGet Users
ĠGet Environment
ĠGet IntervalText
ĠGet MouseOverArea
ĠGet InterfaceUsesSection
Ġ2 4
Ġ2 02
Ġ2 04
Get JSON
Get Id
Get Window
Get Instance
Get Temp
Get LastBranchRecord
Get RecordCount
Get TextHeight
Get LastError
Get ModuleHandle
ten try
ten tial
ĠTB L
ĠTB mp
ĠTB APSolution
ĠData X
ĠData Stream
ĠData Snap
Ġfor ce
DB C
DB VM
ual ModuleLoader
Ch ines
Ch annels
ĠString Grid
ĠString Replace
ĠString HashList
ĠE DataSet
ĠE sta
ĠE crs
ĠE arth
ĠE VP
def token
fo to
ĠN ets
ĠN ov
>// ==============================================================================<
>{ *<
AR M
AR ange
AR GB
Ġ0 8
Ġ0 9
ĠFM VC
ĠFM essage
ĠFM odalBase
Id entifier
Id Cour
Ġx User
cord ing
ĠForm Edit
ĠForm Activate
Time Format
Time Progress
ĠTD Lib
Array Of
Un derline
Thread s
Thread State
Thread Handler
ĠTObject InspectorForm
ec tentry
Ġread s
Ġread only
op le
op Menu
Qu arter
Qu anti
Ġi v
Ġi Header
Ġi Playlist
Ġi DataBase
MO USE
ĠTC List
ĠTC lientesModel
ĠTC riticalsection
ĠTC rePtcVersion
Ġwith Typedef
Mess aging
top unit
top tname
IT OR
IT EM
IT ooan
ĠTh ey
ĠTh ere
ĠTh eme
ĠTh anks
Color Info
Color Player
Color Interpolation
Color Quanti
ĠSt reet
eb x
HTTP Application
Ġg e
Ġg s
Ġg ot
Ġg raph
Ġg amma
Ġg unther
Ġg ametutorial
Sc andata
Mem rec
Text Tiles
ĠTP ublic
ĠTP os
ĠTP osition
ĠTP hoxo
ï¿½ï¿½ <
Event Handler
Event Count
Event Log
pt None
ĠĠĠĠĠĠĠĠĠĠĠĠĠĠĠĠ ĠĠĠĠĠĠĠĠĠĠĠĠĠĠĠĠĠ
ĠĠĠĠĠĠĠĠĠĠĠĠĠĠĠĠ ĠĠĠĠĠĠĠĠĠĠĠĠĠĠ
Ġdo or
Index Info
Index NotFound
Index DiferentCase
DEF LATE
Ġex ercicio
Ġex traparam
AT rue
AT itle
ĠCreate Type
ĠO B
ĠO b
ĠO BSO
ĠO kNg
Client Nation
Base Dir
Base ClientNation
Edit Value
ĠuniG roupBox
01 9
32 76
ac ode
tn om
tn otify
Ġ+ '
Str To
ast Bitmap
Ġst ored
Ġst ates
lay out
Ġr ang
Ġr bx
ĠSet F
ĠSet Value
ĠSet Usuario
ĠSet Parent
ĠSet Login
ĠSet Active
ĠSet ValorUnAtual
ĠSet Senha
ĠSet Values
ĠSet Output
ĠSet Inv
ĠSet DefaultDllDirectories
Inter laced
Controller Parent
ound Code
Intf Drawer
Image Offset
res ume
res izebuffers
ĠDe st
ĠDe tect
Exception Form
Exception RI
map s
ĠTL S
ĠTL ine
ĠTL ines
ĠTL iste
ĠTL yrics
ĠTL yric
ĠTL ighting
ĠTL evelSelect
Ġfile data
Ġfile dialog
Ġfile util
ĠBGRA D
ĠBGRA Path
ĠBGRA Ph
ĠBGRA FreeType
ĠBGRA Lzp
ĠBGRA ColorInt
Button Click
Ġas s
Ġas Center
ĠRe mover
ĠRe ceive
Group box
DL ink
list s
Main CFG
Ġan tialias
Par a
Ġcom ing
Ġcom pression
Ġcom ments
Ġcom obj
ĠLua Common
ĠLua Structure
ĠLua Pipe
NU MSI
.. .
Message Digest
EL L
EL DS
EL OP
ma e
ma phore
Gener ateValue
ĠTF ra
ĠTF ilter
ĠTF Entidade
ĠTF astBitmap
ĠTF oundCode
Ġparam s
Byte Disassembler
ĠCom press
rom e
Ġj t
Ġj VM
Ġj edi
Query Params
Query Cadastro
Query PerformanceCounter
Or se
os ity
User Path
cri ptif
ĠDelphi File
Ġlist Type
Ġlist cs
Comp ressed
New Parent
New Structure
CE CustomButton
Ġla unch
thod s
Ġon es
LE TO
ĠTList Column
Sh are
Sh ift
Sh lObj
text width
Ġma is
Size Of
ĠId Message
ĠId Pessoa
ĠId Endereco
ĠId IO
ĠId Rate
ĠId TCPClient
ĠId Hash
ĠId SMTP
ĠId Multipart
ĠId TCP
ĠId Kv
ĠId Coder
Log on
Log Event
ex tended
ĠX YZ
Grid Fil
tim isations
Format DateTime
Register Known
Memory Size
ln s
Version s
Ġmem Region
Ġse per
Ġse curity
com mon
com bo
com pati
Des erial
Ġ3 05
Ġ3 17
Is Array
Is Enabled
Is Null
Is SameObject
Win XP
bo se
Ġget A
Ġget Name
Ġget Count
Ġget Length
Ġget Dog
Ġget Top
Ġget Point
Ġget ting
Ġget ResponseCmd
Ġget DataBlock
ĠRes ample
Ġany thing
Ġany more
co in
co res
co ordin
co ins
ĠH z
ĠH ow
ĠH ide
ĠH istory
ĠH olds
ĠH Orse
ĠEx tra
ĠEx cludeTrailing
ĠEx pectedMagic
ĠTThread StatusForm
ĠOne Log
ĠOne Ne
ĠOne Rtti
ĠOne VirtualFile
No tif
Serialize Exception
ĠTBGRA Sample
ĠTBGRA Ribbon
ĠTBGRA AnimatedGif
ĠTBGRA CompressableBitmap
ĠAs sembler
ke For
Server Controller
Ġfp CGI
ĠCh anged
ĠCh annel
ĠCh kIndConcluido
new index
new icon
ange Info
Address Of
ĠDataSet Provider
Menu itemclick
ide bar
ĠJ e
Ġset Length
Ġset Detail
Ġset OnTimer
DateTime ToIso
ĠTM ov
ĠTM EM
ĠTM usic
ĠTM edley
ĠTM onitor
ĠTM ediaPlayerDriverClass
Ġpointer value
TE CR
Read Index
Read Integer
ome one
02 00
io Map
ĠTS p
ĠTS end
ĠTS olution
ĠTS plit
ĠTS peedhack
ĠTS ocket
ĠTS afe
Ġfrm Cadastro
Ġfrm Home
Ġfrm DotNetObjectList
Ġfrm Referenced
Custom Type
Ġal titude
Ġal iased
Line Render
TA lloc
ĠTfrm Main
ĠTfrm Principal
ĠTfrm Delphi
ĠTfrm Structures
ĠTfrm DotNetObjectList
ĠTfrm NCF
Not Raise
Not ContainsKey
Not ContainsValue
rig ger
ign es
ign ored
Dis sect
Dis sectCode
Dis connected
Ġme venttype
RE PE
RE VER
RE AM
ĠText Team
ĠText DuetP
ĠText Tiles
ĠText NextPlayer
ĠText ColorPlayer
An alytics
CO S
CO MP
UL L
lib rary
ĠTR USTEE
ĠTR aw
ĠTR etorno
ĠPro tected
From BGRA
From RGB
From DPI
From Expanded
ĠUni Class
ĠUni Provider
Update User
Update AuthorizationState
Screen Descriptor
Generic Hotkey
Start Event
Start Click
FF ER
FF IX
fer red
fer encia
ĠFile Info
box topunit
Ph ase
Ph one
TF D
TF rm
TF PReader
http s
http POST
MP ointer
Ġdata type
Ġdata Source
>. &
IL L
IL TER
ĠTUni Connection
ĠTUni SQL
ĠTUni SendReceivController
ĠTUni BillSendController
ĠTUni DataSource
ĠTGBSwagger ParamType
ĠDB GP
Font Size
Ġnew scan
Ġnew bi
Ġnew addressfile
Ġnew memoryfile
Number ToDate
RO LL
ĠTCustom Form
ĠTCustom Connection
ĠTCustom listbox
ĠEn v
ĠEn able
ĠEn coding
ĠEn trys
ĠEn viarServidor
cal endar
one Number
ĠTForm TemperaturaF
reg istry
Ġbyte count
Ġbyte interpreter
Ac c
Ac quire
Ta iw
Ġwithout Typedef
ST ER
ST ATUS
ST REAM
mem alloch
scan Result
Process Handle
SQL Transaction
Check box
ĠDo Ping
ĠTButton State
10 3
10 39
pa use
Ġwar ning
Ġwar qini
Ġcopy file
Ġform ChangedAddresses
Free OnTerminate
Ġyour self
ï¿½ï¿½ï¿½ï¿½ <
Ġaddress string
Const antes
000 4
ia ware
Texture s
Json Path
sed ValueInformation
Config Name
Config Service
Window Mode
Float List
ful l
Ġ201 4
Ġ201 5
Ġ201 6
)= '
GL ubyte
Ġ4 05
ĠCheck Synchronize
With Arrow
With CSSUnit
ĠLaz Class
ĠLaz IDE
Send Score
Send CmdEvent
ope d
ĠINT O
les TaillesSP
Ġfin ish
Ġfin ished
CHAN GE
CHAN NEL
Ġce plugins
ĠAdd itional
ĠAdd DllDirectory
Cad Pessoa
Cad ena
MA L
MA SK
Ġ5 0
Ġ5 1
Ġ5 4
Ġ5 023
Ġ5 50
Ġsystem info
Ġed i
Change Register
ĠSta ck
Ġinter action
Ġall ows
Ġall icons
ĠTA Series
ĠTA Graph
Open FileMapping
PA S
code d
rs cr
Delete User
Show Magasin
12 5
PT Command
Ġtype id
Ġtype deftoken
Ġdis car
ĠNO D
ĠFunction s
Stack Size
ĠTColor Int
Ini File
Cmd ResultDescr
Page EntryArray
Content Stream
Ġtoo ls
End Event
Memo Line
cam inho
AS ID
AS ubscri
BO X
ĠGame Tutorial
ĠCopy File
Scan Line
Scan Done
Ġrs S
Ġrs AL
Ġrs Invalid
Ġrs RP
Ġrs CouldNotBe
Ġrs GSC
Device Interfaces
Ġmemory stream
Ġmemory region
Ġmemory left
Of File
file s
Conn Info
Conn ectentry
Ġsyn edit
Song List
Song Result
au sed
ĠSh ell
ĠSh ape
ĠSh adow
ĠSh lObj
ĠUnit Principal
Trans late
ait Result
Ġunit CadPacientes
ĠTStream Byte
Ġno tify
Ġno tes
Bytes InRes
point s
ĠFP re
ĠTFrm Warning
ĠTFrm LogData
ĠTFrm CreateId
ĠTFrm SysMemo
ĠTFrm QueryFileName
ĠTFrm InputID
ĠTFrm MonSoc
lear GA
Ġ/// <
ĠAssign File
ĠTW atchListForm
ĠTW aitResult
System Architecture
13 01
Ġen em
Ġen umer
Ġen coded
ĠCE Plugin
55 36
Will NotRaise
ĠTInt List
ĠTInt Array
Ġsh are
Ġsh ort
Ġsh ift
Ġsh ows
Block Id
po ses
ĠTDAO Servico
astro s
Draw Panel
bl ename
Ġtem per
Ġtem perat
thread var
Ġcommon dialog
Tab NoteBookStrings
Ġhe artbeat
ĠTUser Entry
ĠTUser definedSymbol
ĠTUser ByteDisassembler
Ġtr acer
Token Sign
Ġid x
ĠHead ers
test s
valid ate
ĠStatic Team
ĠStatic NextPlayer
UN C
UN D
UN ICODE
ĠException Info
ref resh
ĠDate Time
ĠDate Gen
Endereco Integracao
Be foreDestruction
Ġlast tick
Ġlast shot
Ġlast checkwasvalid
Ġreg isters
Al titude
BGRA NeoButton
ĠZ Query
ĠZ obo
Ġwin sock
ĠInter val
Pixel wise
Virtual Item
play XM
Ġstr ict
Ġstr Sign
Ġstr Met
ĠTNew Form
ĠTNew ComboBox
ĠTNew SpeedButton
ĠTNew GroupBox
ĠTNew TabControl
ĠTNew PageControl
ĠAr qIni
Find Match
Find Struc
Mask Edit
wa ys
åĪ «
ADO SS
Fact ura
Ġz lib
Ġz pos
Ġz oom
Ġz ero
Ġz erom
Ġz streame
Ġ************************************************************************ **
Ġ************************************************************************ **<
Ġhas setdp
Ġmax width
Ġmax Timeout
ĠClass Name
Basic Information
Basic Authentication
Copy From
Copy Directory
DS witch
DS Auth
DS Proxy
DS idebar
Fa ce
Stop Click
WIN BOOL
Ġtext render
Login s
ĠKey Handler
Scroll box
ĠMain Unit
ĠMain Menu
ĠMain Frm
Per Inch
Ġar row
Ġar mor
ĠInt Ptr
ĠLog BaseDir
Icon s
Ret Message
Ret Code
Ġsc andata
Ġsc rol
Ġcomp ressed
Audio InputProcessor
Pos te
ĠTNotifyEvent F
Ġco res
Ġco lored
ĠFind First
ĠRead Ini
ĠRead Only
ĠRead FileVersion
ĠSelect Value
ĠSelect Int
ĠSelect Bl
ĠSelect ColR
ĠSelect ColB
ĠSelect ColG
Left Cor
ä¸ ĭ
ĠTRequest Event
Ġpt String
Ġpt Boolean
Ġpt Disassembler
Ġpt UInt
Ġpt cmd
Ġjwa Windows
Select Slide
Descriptor WebPage
Current DebuggerInterface
Sub Items
bs Clear
bs Solid
Ġdebug ging
Parameter List
Exp and
04 5
04 045
rd b
Render To
Write Line
Write Fmt
Write PNG
ep Consulta
ĠFT otal
check box
ED I
Pedid os
Speed hack
ĠTE Data
ĠProcess ID
Detail Data
Schema Name
Ġli beay
Ġedit Nome
Filter At
THTTP Server
rect patch
Ġcheck s
ĠfOn Error
ĠfOn Click
ĠfOn Tab
ĠfOn Paint
ĠfOn Connected
ĠfOn Timeout
ĠfOn Drag
ĠUser Id
ĠUser Handle
ĠConvert ToData
memory region
memory recordhotkey
() )<
Min Height
ĠTo Array
ĠTo Utc
ĠTComponent Class
ĠTComponent SideBar
ĠDraw n
Ġlp m
Ġlp CreationTime
Ġdestroy ed
max width
Ġtemp table
Host Resolver
Last Tick
Ġcur ren
ĠFData baseConfig
Coord Data
Execute Direct
ĠSpecialized Set
ĠSpecialized Tree
ĠSpecialized Stack
gl u
Invalid File
Invalid FileName
ĠUse MachineLine
ĠUse SSE
Paint Controls
Game Panel
start game
Ġtarget s
ĠTDis play
ĠTDis sectCodeThread
Ġformat tedtext
Close Key
Gamma Cor
TO DO
TO KEN
ĠTFile Time
ĠTFile Format
ĠSwag String
ĠSwag Class
ĠSwag Date
ĠSwag Number
ĠSwag ValidateProperties
ĠFrm ShowIp
ĠFrm Inicial
ĠFrm LogData
Ġmodule path
ĠVal B
ĠVal or
Procurar ServicoPorId
Procurar CarroPorId
Procurar PecaPorId
Load Texture
Ġstructure s
Hook Except
Round ing
ĠFOn Message
ĠFOn Timer
ĠFOn Produce
Score Local
Ġalloc size
Empty FileName
FTP Manager
Global Exception
Ġsu c
ĠUMenu Button
Tex Num
ĠTDM Ginkoia
ĠTexture Cam
Active Record
Connect ing
Connect Entry
Local Format
Local Player
Local Execution
bit s
mall int
Ġcode size
Ġcode base
ĠColor Box
Ġmap Altitude
ĠDataModule Unit
AsString Required
AsString NotRequired
AsString DiferentCase
Valid Pipe
Ġcustom type
Ġcustom Normal
Ġline start
ĠLoad Ini
ĠLoad QueryParams
Ġac celer
Ġac cording
Ver bose
XML Write
game tick
Ġæ ¯
Ġæ ³¨æ
Ġpo tential
Ġpar ts
Ġpar tial
ĠFade Tex
ĠFade LastTick
+' \
Ca traca
MVC DoNot
cur rents
ĠTArray Of
Ġinitial time
Ġlog Trace
ĠLuaClass Array
Amount Iteration
Best Quality
Side bar
Ġ7 100
ĠTMemory Browser
ĠTMemory BasicInformation
Ġplugin id
ĠTDiagram Link
14 3
Cate gory
Ġk ill
Ġï¿½ï¿½ï¿½ï¿½ ï¿½
Ġï¿½ï¿½ï¿½ï¿½ ï¿½ï¿½ï¿½
Ġcall ing
Ġopen ed
Ġinput s
Ġinput boxtopunit
Ġwork around
ĠWrite ln
ĠWrite Ln
ĠTDemo ZTController
ĠTLog Form
Shared Path
Ġauto assemble
200 6
Clear Selection
Dir Name
FI ELDS
RGB Color
mt Any
ĠTT oolPaletteForm
Ġpa int
Ġsa ir
Ġsa fe
Ġsa isiePtch
Ġsa ving
AsDateTime Required
AsDateTime NotRequired
AsDateTime InvalidFormat
AsDateTime ChangeFormat
AsDateTime OnlyData
Ġgraphic control
Ġradi us
DI RECT
Gradient Repe
SC ROLL
que uesize
Ġ6 5536
Ġta Center
Ġta mper
return type
Ġdevice Index
ĠRun Result
ĠRun Statistic
ĠRun AndWait
ĠReal izarPagamento
ĠEncode Token
Docum ent
dis sect
gle xt
sh ell
ĠTe ardown
ĠIndex Count
ĠIndex Of
ĠIndex NotFound
ĠIndex DiferentCase
Ġprodu to
Strings Unit
ĠRef Internal
ĠRef LocalPlayer
ĠParse Lyric
=" ..
pack et
ĠTH READ
ĠSc roll
ĠSc ott
ĠFSwagger Path
Static Files
Enum s
Setup Api
AsInteger Required
AsInteger NotRequired
AsInteger ErrorFormat
Midi In
ĠArray Of
da ter
ĠLDog Serialized
ĠGL ubyte
Ġmode s
ĠUpdate User
Transaction s
Ġ****************************************************************************** *<
Delphi File
Ġadd ing
Ġfind Close
Ġfind reader
ĠID s
ĠID List
ĠID StrList
Ġmt Get
Ġmt Head
Ġmt Delete
Ġmt Post
Ġmt Put
Ġmt Patch
ĠMag asin
AsCurrency Required
AsCurrency NotRequired
AsCurrency ErrorFormat
AsCurrency DecimalSeparator
ĠXML Intf
ĠXML Components
Ad min
Ad just
Ad vanced
Over ride
ĠTLua file
Ġcpu id
ĠFirst Word
ĠUs ers
idade s
AsTime Required
AsTime NotRequired
AsTime InvalidFormat
AsTime ChangeFormat
AsDate Required
AsDate NotRequired
AsDate InvalidFormat
AsDate ChangeFormat
AsFloat Required
AsFloat NotRequired
AsFloat ErrorFormat
AsFloat DecimalSeparator
AsExtended Required
AsExtended NotRequired
AsExtended ErrorFormat
AsExtended DecimalSeparator
Ġjni TObject
ĠAnsi ToUtf
Dif fDa
Sen tence
Vcl LogForm
ax is
module s
module size
è¿ Ľ
tep ad
ĠTRe st
ĠTRe verse
Ġcl rscr
ĠULua Core
Ġgame tick
ĠTPage List
ĠTPage Map
ĠTPage Producer
Search Path
OS X
Work er
Work ing
ĠParam Str
Extra LineRender
Heap List
ĠTFont Style
Ġqu ick
ĠTDiagramBlock Side
Ġimg List
ĠOKBtn Click
LA G
PRO PER
single object
ĠTDB CustomDraw
ĠTDataSet Provider
ĠTJson String
ĠTJson Array
argin size
Ġct t
Ġlbl Sal
ĠBase Unix
AsStream SaveToFile
ĠRemember MachineLine
ĠTMy SQLUniProvider
Plugin Version
Ġcompile d
DX GI
Ġte lls
ĠTf Main
cond itional
ump ag
Chx String
ĠEd ID
ĠEd Code
ĠEd Memo
ĠTBGRACustom Layered
method s
(( (
Fade Tex
Fade Out
Normal ize
Normal Data
mm reg
ĠFName Site
ĠClient Class
DEV ELOP
ĠWIN DOWS
ĠNo tepad
Assign ed
"} ');<
Bet ween
Mon th
Out Of
TH ash
Ðµ Ñģ
ĠTMem DataX
ĠSong ID
ĠFL icense
ĠFL ock
ĠLId Item
client width
Ġdiagram Block
Ġtotal path
Ġup per
AsBoolean Param
AsBoolean Required
AsBoolean NotRequired
ĠOneHttpController Rtti
ĠUScreenParty Win
ĠUScreenParty Score
ĠUScreenParty NewRound
ersistent Form
Ġwidestring manager
åĲ İ
Ġtim es
Ġpoint sto
Ġfre eware
alloc ssize
Ġ25 3
Ġ25 6
Ġgb m
Ġgiv es
ContainsKey DiferentCase
vanced records
ĠRGBTo XYZ
Ign oredModule
ive File
pi Controls
Ġad vancedrecords
tegra tion
Cool Bar
Ġsup ply
Ġsup rir
Ġtp Liv
ĠTClient Utils
ĠOra Call
ĠMax imum
Cursor Pos
Pass Word
current time
current Game
current buffer
Ġicon list
ĠTText Style
ĠTController Login
iff icul
Ġdep th
ĠCOMP RESSION
Em etteur
TLua Server
VAL UES
rf Replace
Ġ.. .<
Ġ.. .)<
Ġci Linear
Ġcs Highlighted
Ġcs SecondaryHighlighted
ĠFD Connection
ĠFD Conexao
Ġft String
Ġft ArrayOf
Report Form
Ġwidth needed
INIT IAT
ĠUPlatform Windows
ĠUPlatform Linux
ĠNe ed
Ġmain unit
Ġmain threadhandle
ĠAsDateTime Required
ĠAsDateTime NotRequired
ĠAsDateTime InvalidFormat
ĠAsDateTime ChangeFormat
ĠAsDateTime OnlyData
ĠJukebox Text
Ġregion count
HE AP
HE IGHT
Ipl ROI
Pre Draw
Pre vious
ĠTJSON Number
ĠTModel Pessoa
ĠTModel BaseForm
unk now
Ġpre fered
Ġpre vPos
Ġpur poses
Ġbo th
Dev ID
GetCurrent Process
HTML Filter
ĠDefault s
ĠDefault StackSize
ĠOneClient DataSet
Ġvalid ate
ĠSpin Edit
ĠSpin etti
Tipo Usuario
Cl tnom
Sign aled
Ġè Ļļ
ĠTTime barMode
ĠServer Name
ĠServer Index
ĠPos X
ĠPos Ex
Ġlib z
Ġlyt Principal
Ġlyt Logo
Ġlyt Boto
Ġwe ther
Ġblock s
ĠView s
ĠBC Types
Ġgu isafecriticalsection
ĠHas Space
ĠAsTime Required
ĠAsTime NotRequired
ĠAsTime InvalidFormat
ĠAsTime ChangeFormat
ĠWebModule Create
ĠWebModule Destroy
ä¸Ģ æł
VEH DebugSharedMem
Ġaccess ing
Laz arus
Range Internal
TR UE
Ġver tical
Ġpe ople
ĠFLog on
Ġfm Create
Ġrect angle
ĠGIF ImageDescriptor
ĠUC rePtcVersion
ĠInfo Size
ĠInfo DataSize
DATA SET
ORY BASICINFORMATION
Ġdoc upento
DLL SearchPath
Selection Change
ĠAsDate Required
ĠAsDate NotRequired
ĠAsDate InvalidFormat
ĠAsDate ChangeFormat
auto Guess
Ġshow ip
Ġshow message
Ġtrans formation
AutoAssembler Command
Ġneed synchronize
Taille Array
CI AL
Gestion ar
Sq lite
Tile Info
btn StartClick
btn StopClick
æĸ Ńæĺ¯
ĠTProvider FotoProduto
ĠTerminate IfAlreadyRunning
temp Folder
Storage Bin
ĠRate Dog
ĠEmpty FileName
ĠTPlatform Windows
ĠRemove DllDirectory
DebugEvent Data
9999 99999
Ġarg s
COR S
Cancel Click
Fill Info
XMM ListSingle
XMM FIELDS
åı ¯
Ġam ount
ĠTReal Array
ĠTIni Struct
ĠTTab list
ĠTTab CreateDestroy
any file
Ġpop fq
Ġpop fd
ĠPPointer ListEntry
Ġsmall er
Ġdb transaction
Ġmag ic
Ġtmemory regions
ĠTPDManager Item
ĠTPDManager Items
ĠSetup Di
ĠDeselect Int
ĠDeselect ColR
ĠDeselect ColB
ĠDeselect ColG
ĠAsStream SaveToFile
ĠAsFloat Required
ĠAsFloat NotRequired
ĠAsFloat ErrorFormat
ĠAsFloat DecimalSeparator
ĠAsCurrency Required
ĠAsCurrency NotRequired
ĠAsCurrency ErrorFormat
ĠAsCurrency DecimalSeparator
ĠAsExtended Required
ĠAsExtended NotRequired
ĠAsExtended ErrorFormat
ĠAsExtended DecimalSeparator
ĠVersions id
ĠVersions version
ĠVersions Patch
ĠVersions nom
//////////////// ////
//////////////// ////////
ĠTTile Color
ĠTInstructionGroup Array
Monitor ing
GEN PARAM
Pixels PerInch
TryGetValue False
TryGetValue DiferentCase
cr erg
wh at
wh ile
Ġ**************************************************************** ****************
ĠTType Data
ĠTAddress list
ĠStyle Ribbon
ĠFList HoraireExportNow
termin ated
ĠCv etko
ĠPtr UInt
ĠLine Pos
ĠLocal Time
ĠMu dUtil
Ġhandler s
Ġgroup name
Ġsection s
comp are
comp any
ĠPointerscan Structures
InputDevice Config
Ġscroll bar
ĠValid ation
Dock ingForms
Native Thread
TBGRA FilterScanner
Ġke ep
Ġround ing
Ġï¿½ï¿½ï¿½ <
reet ype
ĠTform Principal
Ġfa anyfile
ĠCON T
ĠAlign ment
ĠGW L
verter F
Ġdomain s
Ġthem es
Ġdef ine
context mem
ĠMin imum
Ġ199 7
ĠTPDClient Class
ĠOS D
ĠOS Exception
ĠTLaz PaintImageHeader
ĠExec Name
ĠExec Dir
ĠAsString Required
ĠAsString NotRequired
ĠAsString DiferentCase
ĠAddress Of
Authentic ator
FDB Header
Foc used
TIT LEBAR
Ð² Ð¾
Ġ! ');<
ĠTOn MidiEvent
ĠTOn Produce
ĠTUptime Event
ĠSend Mail
Ġcp ux
ĠField Type
ĠFRate Number
ĠDel ay
ĠDel Tree
Convert ErrorMessage
Ġbl ack
Ġbl ending
ĠVEH DebugSharedMem
los He
ĠInsert User
ĠContains Value
PCh angeInfo
ĠTPersistent Class
ĠRec og
ĠAsInteger Required
ĠAsInteger NotRequired
ĠAsInteger ErrorFormat
ĠAsBoolean Param
ĠAsBoolean Required
ĠAsBoolean NotRequired
ĠJcl Debug
ĠJcl HookExcept
ĠTSimple Lock
ĠAuto Score
ĠAuto GenerateValue
ĠSQLite DLL
Ġbgrabitmap types
)+' -'+
TText Style
bp c
lines unit
wm es
ward s
zp Compression
è· ³è¿ĩ
ĠTCh art
ĠTTC P
ĠTTC List
ĠTTC CRegion
ĠTIcon Picker
ĠTThrd Export
selected Record
ĠSource Buffer
ĠFrame work
ĠCP UI
Ġop code
ĠPlay List
ĠPlay lists
INSER T
ĠIPrinter Exception
ĠTGeneric Hotkey
GetData Event
ĠNot ContainsKey
ĠNot ContainsValue
Ġexec utor
NUM ERO
ĠTRtti Property
askar aplus
Acces Base
Ġallow ed
GlobalPOS Utils
ĠTMemoryStream Reader
ÐµÐ ½
Ġ'.\ !
ĠCreateNewDemo JsonController
ä¸Ģä¸ ª
ĠError s
ĠError Code
åĲ¦åĪĻä¼ļ åĪ¤
++ <
Amb iant
MAR GIN
green F
ÑĢ Ð¾
ÑĢ ÐµÑģ
Ġul trast
ĠTField Structure
ĠTAudio Playback
ĠScale Y
Ġfon ts
Ġbig memalloch
Ġbuf size
Ġdbs d
Ġdbs Bottom
ĠWnd Proc
ĠWnd Title
ĠMon th
che at
ĠTGet Me
ĠTGIF GraphicControlExtension
ĠTGIF ImageDescriptor
Mac Bitmap
Mac OSX
ĠNative Int
Ġxxx x
ĠiRest Params
IndexHeader Ex
Ġexp anded
Ġexp licite
EditBox Margins
ImageHeader Ex
ĠDeleted Count
expl ode
Pointerscan ResultSettings
Funcs Array
Ġcalcul ated
ĠDisplay Label
Adapter s
MySQL Def
ĠJvDesign Utils
getAddressFromName L
", "
Direction al
FSwagger Parameter
Sal var
na Arquivo
Ġ---------------- -<
ĠTConfig Service
ĠTryGetValue True
ĠTryGetValue False
ĠTryGetValue DiferentCase
Ġpolygon s
Ġcor ba
Ġcor respon
ĠFn umpag
ĠFloat ToStr
ĠCmd ResultCode
ĠAData Stream
Ġspeedhack version
Ġmy self
ĠUp perCase
ĠUParty Tournament
ĠVari ous
ĠBlock Size
ToData Lua
Ġhotkey handler
ĠFMemo Line
Android Permission
DeviceInfo Set
blue F
PlayList s
ĠbtnStart Click
ĠbtnStop Click
debugger thread
AsStreamNotFound Required
AsStreamNotFound NotRequired
AsStreamNotFound SaveToFile
DEVICE INTERFACE
ĠUScreenPartyTournament Win
ĠJukeboxStatic SongMenu
ĠAsStreamNotFound Required
ĠAsStreamNotFound NotRequired
ĠAsStreamNotFound SaveToFile
=% .
Dpi Controls
PS D
wr Timeout
wr Signaled
ĠTTo DoListForm
ĠTXS Time
ĠTXS DateTime
cep table
asm mode
ĠSER VE
Ġcb Size
ĠPA imStuff
Ġstep per
ĠGate Idx
ĠUfra Team
ĠUfra Match
Ġdev Name
ĠTHorseCompression TypeHelper
ĠMy SQLUniProvider
ĠMouse Down
Comm it
ĠRx Lookup
ĠGetLog Path
ĠGetLog ical
Ġvartype strings
ĠLuaCollection Item
ĠIGBSwaggerRegister Response
AddressTo New
ĠTAlign Layout
Allocation Granularity
Ġallocs pos
Ġnecess idade
Ġknow s
Fil enames
Numer o
Pop Menu
Population Index
don ottrace
fil ler
jum pline
och rome
å¯ ¹
è¦ģ ä¸Ģæł
Ġum a
ĠTDefault ZVTProtocolManager
Ġcod igo
ĠFph oneNumber
ĠFmin Length
tern ate
ĠPV SFixed
ĠAMax imum
Ġrepresent s
Ġdr agged
ĠIP List
ĠIP StrList
ĠImp lement
Ġmc Char
ĠUChx Plage
Ġdesign ed
Ġresol ved
Ġtcustom listbox
ĠGetBGRABitmap Elements
ĠNpp Forms
ĠNpp DockingForms
ĠTFView Background
ĠHave JPG
ĠTSave FirstScan
ĠTSave SongResult
ĠTextName Team
ĠTextName Player
ĠTFormaPagamento Boleto
ĠTFormaPagamento Pix
ĠTAl loc
ĠCEP Model
ĠZip File
Ġprocesshandler unit
ĠUMicro Threading
LOC AL
Ġdesc endant
ĠCURLIO CMD
ĠTBGRAReaderIco OrCur
Sql Expr
åıĤæķ° ç±»åŀĭ
Couleur Array
Ġpnl Background
è·¯çĶ± åĲįç§°
ĠAudioSystem FMOD
ĠIPPeer Client
ĠIPPeer Server
BSO LETE
Hot Sync
TIn structionGroupArray
copy right
fx dll
high gui
pr n
pr incipal
paren cy
rad Changed
å° ±
ĠTAutoAssembler Callback
Ġperc entage
ĠSec urite
Ġcr ash
ĠFDoc URL
ĠFDoc Description
Ġfb order
ĠCe Rtl
ĠAS RV
ĠAMin Length
Ġsymbol name
ĠGen ova
('$ '
edt Host
getMax LastBranchRecord
Protoco ls
Except Obj
Ġ{* !<
SetProcess DPIAware
SetProcess DpiAwareness
igp Group
ĠGetGame UserPath
ĠGetGame SharedPath
ĠGetLocalized Name
ĠGetLocalized Description
GetDog s
ĠiDAO Factory
ĠStd XML
ĠStd VCL
ĠTPassword Dlg
EventList Item
Ġexten sion
ĠOderIndex BP
ImageInfo Ex
ĠBGRAText FX
ĠExcept Addr
ĠChx Mag
ĠTMask Char
ĠTMidi Track
ĠTextScore Team
ĠButtonProcurar Click
ĠTCustomGroupBox Helper
ĠTAA ExceptionInfo
ĠTAA ExceptionRI
EXT EN
åĪ¤ æĸŃæĺ¯
Ġrequire s
Ġcurrents ong
ĠTDataBase X
ĠTDataBase System
ProcurarUsuario PorId
ĠDisassembler Thumb
ĠEdFind ID
ĠEdFind IP
aaaa aa
ĠTJclXMM Register
ĠTIPTLog LoaderCommand
ĠContainsKey DiferentCase
Ġsavedscan handler
Ġsavedscan name
Ġxxxxx x
ç®¡çĲĨ åĳĺ
ĠuRESTDW ServerEvents
ĠuRepriseCC Illicado
Car losHe
Card Number
Ds gn
Dont Care
Fich aExercicio
Ital ic
Ke ys
OLE Variant
SU FFIX
TG nk
Tri ed
Tela Anterior
laz arus
war quivo
ĠÐ ¿
Ġign ore
Ġä¸į è¦ģä¸Ģæł
ĠTKey Values
ĠTQuery ParameterList
ĠTHeader Sections
ĠTDebug ThreadHandler
ĠTAPI Error
star taddress
ĠSort Items
ĠCap ture
ĠCliente Model
Instruction s
Ġinte l
Ġlay er
Ġremote thread
Ġreplace d
ĠGestion Log
Resol ved
Ġmo ved
getDate LocalFormat
ĠInvalid FileName
DAR WIN
Ġcond itions
Delet ing
ĠuCustom FTPManager
Ġutil izacao
ĠGetThread Context
ĠGetDog s
ĠTBit Map
Ġ0211 0
Ġxm lns
ĠTDyn amicNKL
ĠTCliente Controller
ĠTCloneEvent Callback
Ġstand alone
ĠBGRAOpenGL Type
ĠRedistribu tions
Ġcompati bility
ĠXS ToNative
ĠChang es
Ġque uesize
ĠTMVC Engine
ĠUnivers it
TFilter Options
Ġcepack exe
Cada str
Curl UI
Perc ent
ĠLastChange Record
RIVATE BLOB
Refresh Flag
Ġdisassemblerview linesunit
ĠTScreenSing View
CHEMINTo Directory
ĠTIBO Table
ĠPushIn ListEnd
Ġrota tedirection
ĠuSetupDiEnum DeviceInfo
ĠReturn s
Cfg Index
ĠLastDisassemblerData ToTable
ĠTHistorical Detail
Cel ular
Fram es
Merge PointerscanResultSettings
Pad rao
PNext Put
Rich Filter
Termin ator
TUSER S
Vend a
kl in
lpsz Name
å· ²æ³¨åĨĮ
åĩ ½æķ°
onType Str
ĠTs BitBtn
ĠTRead only
ĠTAn tialiasingMode
ĠTAuto RefreshFlag
ĠTConnect EntryArray
Ġpessoa Controller
ĠSen tence
ĠSTR ING
Ġcoun ter
Ġcop iada
ĠFun iID
ĠFcod ibge
ĠFGtf ID
ĠPContext Element
ĠPMidi BufferItem
ĠAShow InMemo
Ġswag ger
Ġspk t
ĠGroupBox SubClass
Ġbirthday Date
ĠUText Encoding
ĠVer Value
Telegram Client
Ġnpp plugin
ĠTGnk Gen
CreateS uspended
TPT Command
TPDManager Item
ĠTDesigner DC
Ġgeneric Hotkey
DateTo Number
ĠDef inition
ĠTLocal VariablesForm
ĠTLarge intField
ĠBGRAScene Types
ĠIdUDP Server
Ġmemrech otkey
ĠHook GlobalException
Defect Data
ĠfrmStack View
ĠfrmTracer Unit
********************************************************************** *<
**************************************************************************** *}<
ofs Y
ĠTWnd Method
ä¸Ĭ æĿ¥
ĠUserGate Idx
ĠMemDirectory Entry
ĠCompute FilterAt
ĠTTermsOfService Text
GENMAG GEST
Ġactual threadcount
Ġdecrease CheatECoinCount
ĠUMicroThread List
Prix File
Ġbgras se
çº§ åĪ«
ĠUCoolAudio Config
åŃĹç¬¦ä¸ ²
TGui Object
ĠTGinkoiaTools Status
erspective Mode
"- "
>************************************************ ***<
Ari al
Bound ary
DFF ilter
DKeyDown Event
Diagnos tics
Eta pe
Fak tury
Fulls creen
Gril lesTaillesSP
LData Connection
LDR EN
Laten cy
MINE NUMSI
MESS AGE
Nak edAbility
Npp Data
NFCe DTO
Soft Mixer
Tf ViewPage
TGraphics DrawEffect
TSymbol LoaderThreadEvent
TMVC Controller
Tplugin Version
Term inal
WRA P
WCH AR
Wbem Object
XLS Filter
better Controls
bask araminus
jwa windows
kFree Space
lbr buf
pue xec
prv dr
yah oo
å®ļ å·²æ³¨åĨĮ
æĭ Łæľ
Ġill Get
Ġ****************************************************** *)<
Ġå¤ ļä¾ĭæ¨¡å¼ı
Ġigp Instructions
ĠĠĉĉĉ ĠĠ
entra le
ĠTJS onValue
ĠTView Principal
ĠTKernel DebugInterface
ĠTHotkey ThreadState
ĠTExec Buffer
ĠTContinue Option
ĠTfore achcpu
ĠTTracer Ignore
ĠTProtoco lo
ĠTbul let
Ġpres ent
ĠSWA G
Ġcreg roupe
ĠFult Ped
ĠFact ID
ĠFran klin
ĠFUser Mgr
ĠFreg iao
ĠFSend Response
ĠFAuto Work
ĠFCurrency Code
ĠFREST Request
ĠFperc entual
ĠFVirtualSet List
ingPar ticle
trip atch
ĠfScript Uses
ĠCad astros
ĠCSIT A
Inherit Handle
gined ir
ĠoCEP DAO
ĠPMemory Regions
ĠPSA MPLE
Ġthumb na
ĠDem my
ĠDPI Helper
ĠDanie le
Ġinform acoes
Ġinjected Events
ĠinÃŃ cio
ribu tos
Ġlumin osity
isConditional Jump
ĠAtual izar
ĠAselect text
ĠACompression Threshold
peur Pascal
ĠLWait Result
Ġschema Name
Ġwyn ik
Ġwhe ther
toNFe DTO
Ġbog us
ObjectSc ope
Ġdig ite
ĠISelection s
ĠITooan Iface
Ġmags ubs
Ġmysqln prvdr
Ġmultic puexec
ĠUHTTP Session
ĠUStack Trace
ĠUCommand Line
ĠUDll Manager
ĠUDLL Manager
ĠUTCP Server
ĠUHtml Classes
ĠUAvatar s
ĠWKPD ID
Ġdevel oped
getlast error
getXM MPointer
getHexadecimal View
ĠBrowse For
ĠBounding Rect
ĠMIMEType List
Proven ance
chiff ler
Ġresistor s
DATAB ASE
ĠaUni ID
ĠaAct ID
Expl orer
Ġtoge ther
Ġhass omething
Ġconten ts
Ġcontin ues
Develop peurPascal
Servic os
Serie Factura
LuaState IfNeeded
OnPost Hotkey
ĠtThread Entry
KeyCombo ToString
ĠRandom ize
ĠGetModule FileName
ĠGetDis kFreeSpace
ĠGetApplication FileName
Ġ202 2
GetTemp Path
GetLastBranchRecord s
Chines se
ĠEDataSet SerializeException
ĠNets cape
IdCour tClient
ĠFormEdit ing
ĠiDataBase Config
ITooan Iface
ĠTPosition Dbl
Ġextraparam eter
ATrue Value
BaseClientNation ale
tnotify event
ĠSetOutput Mode
ĠDetect LocalExecution
ĠTListe GrillesTaillesSP
ĠTLyrics SyncSource
ĠTLyric Engine
ĠBGRALzp Common
ĠLuaCommon Dialog
ĠTFilter Task
ĠTFoundCode Dialog
ĠIdIO Handler
ĠIdHash MessageDigest
ĠIdMultipart FormData
ĠIdTCP Connection
ĠXYZ ToRGB
GridFil a
RegisterKnown PTCommand
Ġ317 7
WinXP anels
coordin ate
ĠOneNe onHelper
ĠOneRtti Helper
Notif ied
ĠTBGRASample Style
ĠTBGRARibbon Style
ĠAssembler unit
newicon stream
ĠTMov ingParticle
ĠTMEM ORYBASICINFORMATION
ĠTMusic SyncSource
Ġpointervalue list
TECR Command
ĠTSafe Dictionary
ĠTfrmDelphi CallJava
REPE AT
REVER SE
COMP RESSION
ĠTRaw Image
Ġnewscan method
Ġnewbi e
Taiw an
Ġ405 6
WithArrow s
Ġceplugins dk
Ġdiscar ded
ASubscri ber
WillNotRaise WithMessage
Ġtemperat ure
ĠTUserdefinedSymbol Callback
ĠstrMet od
Ġzerom emory
Ġzstreame xt
Ġhassetdp iaware
ĠSelectBl ink
LeftCor ner
Ġptcmd t
GammaCor rection
Ġæ³¨æ Ħı
Ġpotential threadcount
MVCDoNot Serialize
currents ong
GradientRepe tition
shell api
DiffDa ys
ĠTReverse ConversionRoutine
ĠTDBCustomDraw Event
ĠTBGRACustomLayered Bitmap
DEVELOP MENT
ifficul ty
rfReplace All
INITIAT IVE
ĠèĻļ æĭŁæľ
ĠlytBoto es
XMMListSingle Entry
ĠTTabCreateDestroy Event
ĠVersionsnom version
crerg roupe
TBGRAFilterScanner Pixelwise
ĠTOnProduce Event
åĲ¦åĪĻä¼ļåĪ¤ å®ļå·²æ³¨åĨĮ
Ġultrast ar
Ġbigmemalloch andler
Ġexplicite ly
jumpline State
ĠPVSFixed FileInfo
ĠTSaveFirstScan Thread
ĠTAAExceptionRI PChangeInfo
Ġä¸įè¦ģä¸Ģæł ·
GENMAGGEST ION
MINENUMSI ZE
Ġå¤ļä¾ĭæ¨¡å¼ı æ³¨åĨĮ
Ġmulticpuexec ution
ĠèĻļæĭŁæľ º
åĲ¦åĪĻä¼ļåĪ¤å®ļå·²æ³¨åĨĮ è¿ĩ
" ?
' :
' m
' ll
' ')
' ');
( {$
( ['
( **<
( ***
) [
) /(
) "<
* ;<
* /<
+ ,
+ _
- ');<
. %
. \
/ ?
/ *<
/ ']);<
1 0000
2 000
2 128
2 147483647
3 00
4 3
5 1
5 11
5 19
6 5
6 6
6 8
6 15
6 72
6 17
7 79
8 4
8 7
8 000
8 08
8 74
8 75
8 80
9 0
9 85
9 89
9 78
: (
= [
= {$
= ',
> $
> )
> ';<
? }<
A Y
A y
A ls
A cl
A Type
A Swagger
A Stream
A Text
A Client
A Par
A LP
A Log
A Obj
A Resource
A Canvas
A Dog
A Le
A cess
A do
A Mask
A CK
A Properties
A cknowledgement
A DataBase
A Filename
A Prompt
A ErrorCode
A MagId
A DogId
A ffine
A Seek
A IdDog
A JsonObject
A Minimum
A CouId
A bort
B E
B I
B M
B an
B as
B and
B ug
B UT
B etter
B MA
B MI
B FC
B PortPrinter
B uil
B rowse
B air
B ouwmans
B ringToFront
C M
C V
C e
C st
C DE
C ut
C ust
C ID
C ade
C TL
C pu
C tl
C irc
C anceled
C REATE
C losed
D U
D V
D m
D n
D t
D ra
D IF
D em
D State
D Debug
D Click
D Texture
D IS
D iag
D Device
D istance
D bx
D wm
D History
D COLOR
E F
E K
E of
E MSI
E igh
E tc
E rase
E sta
E mbarcadero
E mitente
F re
F us
F Request
F AR
F tp
F AN
F Query
F Status
F IG
F Pessoa
F UN
F lip
F RM
F Lock
F ROM
F rozen
F FormTop
F lex
F RAME
F CopyDirectory
F LAG
G K
G M
G S
G e
G o
G SE
G Params
G DI
G RP
G APPPATH
H S
H our
H ard
H over
H AS
H Scroll
H DR
H itcount
H MODULE
I o
I IF
I ST
I ENT
I ME
I Max
I PTLog
I Unknown
I RoundCount
K B
K P
K ER
L en
L ow
L INE
L PC
L AP
L ASS
L Invalid
L ONG
L yrics
L anguages
L GR
L arge
L dark
L ighting
L ike
L IGHT
L ibelle
M u
M ou
M ust
M ES
M ix
M AN
M Scroll
M usic
M argin
M iter
M cb
M illiseconds
M ikMod
M ediaPlayerDriverClass
M opLogo
M issing
N on
N at
N PO
N ORED
O F
O p
O FF
O pa
O VER
O MBO
O Auth
O BSOLETE
P K
P i
P s
P v
P at
P List
P ublic
P EN
P od
P ush
P LE
P Buffer
P char
P rim
P ref
P rec
P ie
P buffer
P ane
P IplImage
P rior
P ending
P riority
P adding
P recision
P ots
P rimitiveType
P esso
P DrawItemStruct
P urpose
Q E
Q ua
Q UI
Q Json
Q WORD
Q nt
Q RT
Q Customer
Q JsonObj
R B
R ap
R ac
R gn
R ENT
R ITY
R CC
R SAF
R ichEdit
R USTEE
R adioButton
R asterImage
R oot
R ipRelativeScanner
S V
S ent
S lo
S EN
S ib
S up
S ug
S TY
S CO
S ING
S PE
S pecial
S US
S old
S ob
S leep
S ysex
S IA
S RC
S pline
T M
T g
T Re
T IN
T Stream
T Event
T Client
T Base
T Edit
T EST
T New
T Router
T win
T Buffer
T Machine
T RAN
T Memo
T Draw
T ComboBox
T TO
T Graphic
T RI
T Rate
T Msg
T NE
T utor
T SynEdit
T ProgressBar
T Uptime
T IterationResult
T rustInterval
T STR
T Wnd
T DM
T JPEG
T Shape
T TreeView
T TIME
T cp
T RemoteThread
T RunStatistic
T VA
T compressionstream
T gfId
T ICONDIRENTRY
T StatusPanel
T STRING
T lHelp
T SetEvaluation
T FileDesc
T MessageInfo
T RegisterModification
T TabuList
T rustee
T ELL
T rigger
T HostResolver
U TP
U Time
U SS
U ME
U ExceptionLogger
U GeneralRegistry
U UpdateChecker
U PrintPreview
U FFER
U CoolBar
V EL
V TE
V IS
V ICE
V oid
V OID
V SCROLL
W if
W OR
W ise
W ide
W ITHOUT
W HERE
W anted
W ildcard
W yswietlKomunikat
W inding
W ireframe
X Y
X Ctrls
X TA
Y ell
Z AO
Z IP
Z ORDER
[ |
] }<
] '}<
] ^.
] ],
^ );<
^ );
_ *
a ys
a Param
a String
a ine
a bl
a Body
a Pack
a Break
a bsolute
a je
a ille
b ut
b lo
b ine
b yn
b Required
b ran
b Sh
b bo
b asic
b ody
b Printer
b pm
b rowser
b Cases
b ringToFront
b vNone
b askaraplus
b InheritHandle
c un
c ss
c si
c ase
c ari
c ook
c ache
c cs
c ular
c enter
c ie
c ryp
d B
d L
d Y
d g
d t
d or
d st
d ot
d yn
d ac
d iv
d os
d Btn
d call
d ente
d mission
d Del
d acity
d irectory
d istance
d igo
d Horizontal
d Vertical
e o
e in
e ed
e lement
e ars
e Dem
f y
f ect
f Graphics
f nt
f ilter
f ilename
f Gradient
f db
f ik
f OnClick
f timeout
f ramerate
f BackStyle
f reetype
g t
g v
g as
g ic
g oo
g ol
g um
g ree
g raphics
g File
g ac
g ex
g radient
g ov
g Ext
g ranularity
h ind
h DC
h Wnd
h Snapshot
h itcount
h ello
i i
i ro
i ce
i ver
i od
i State
i pt
i ented
i CD
j l
j v
j eto
k a
k b
k in
k le
k es
k Must
l string
l Class
l ang
l ated
l bl
l cs
l close
m ul
m ut
m ey
m io
m Per
m edida
m odul
m ixer
m etteur
m ooth
n b
n n
n r
n y
n orm
n vi
n Mode
n Size
n one
n Length
n ized
n Gradient
n ime
n rof
o h
o in
o ted
o Endereco
o Caixa
o hl
p c
p f
p ag
p is
p rivate
p uest
p ts
p ite
p red
p rior
p memRegionPos
p esso
q ueue
r u
r as
r ag
r ch
r ics
r der
r buf
r Acess
s d
s n
s u
s in
s en
s is
s ame
s om
s Value
s ong
s name
s ymbol
s ity
s URL
s imple
s witches
s pecial
s uf
s Msg
s lash
s tepen
s Appro
s upport
s asch
t b
t as
t ck
t Id
t mp
t rect
t tf
t description
t utorial
t wincontrol
t Ins
t tribute
u d
u ls
u ite
u Bytes
u arde
u Long
u MopLogo
v ile
v Instance
v Encoding
v ement
v IdHTTP
v Registers
v Ã©
v Proxy
w on
w or
w ay
w here
w DBDateTimePickerRv
w atcherExtra
w riter
x or
x Image
x pl
x GIFAnimator
y et
y ou
y ment
y None
y pis
z k
z lib
z ier
z ero
z emem
z Pod
{ %
{ ----------------------------------------------------------------
{ ********************************************}<
{ *****************************************************************************}<
} ]
} :=
¢ ĥ
¤ åį
¥ è®¿éĹ®
¦ Ĥ
¦ æį¢
© åĪĨæĸĩä»¶è®°å½ķ
¬ æĺ¯
¬ æīĢæľī
¯ æľ¬
± ï¿½
± åĬ
³ »
³ éĹ
´ ¥
µ ï¿½
¶ åĪĨæĸĩä»¶è®°å½ķ
º åĪ¶
º «ä»
» è¦ģ
½ ®
½ Ð°
¾ åľ¨
¿ ÐµÐ½
Å ©
Æ ®
È ½
È ¿
Ë »
Ì µï¿½
Ð º
Ð Ķ
Ð Ŀ
Ð ŀ
Ð Ł
Ð ½Ð°
Ñ ĭ
Ö ±ï¿½
ä ½
å ¸
å º
å Ĥ
å Ĩ
å ī
å ¦Ĥ
æ ı
ç İ
ç ĲĨ
ç ³»
è Ī
è º«ä»
é Ģ
é ħ
é ľĢ
ĉ ĠĠĠĠĠĠĠĠ
Ġ ****
Ġ ua
Ġ ap
Ġ ).
Ġ ten
Ġ bel
Ġ rid
Ġ Util
Ġ ull
Ġ ******
Ġ ado
Ġ Handles
Ġ INFO
Ġ tick
Ġ Heap
Ġ --------------<
Ġ RAM
Ġ Hex
Ġ vers
Ġ HandlerData
Ġ Ð¸
Ġ 9999
Ġ trace
Ġ ubyte
Ġ Ð»Ð¾
Ġ 99999
Ġ ÑĩÐ¸ÑģÐ»Ð¾
Ġ utf
Ġ åĪ¤æĸŃæĺ¯
Ġ åĩ½æķ°
Ġ INITIATIVE
ĥ ½
ĥ ä¸
ħ åŃĺ
Ī æľ¬
į åĬ
ı æĹ
ı éļ
Ĳ äº¤
Ĳ è¡Į
ĳ åĲ
ľ įåĬ
ł å¯Ĩ
Ń Ĺç¬¦
Ń æīĢæľī
Ń ¤åį
er tion
er ation
er Program
in to
in at
in Module
in ject
in formation
in tegracao
in tegrityCheckThread
in serir
>< /
>< ?
on s
on ing
on ed
on Exit
on click
re ce
re ator
re mo
re ment
re view
re va
re moved
re initialize
re lations
re commended
te f
te t
te te
te ti
te vent
en r
en cl
en em
en eck
en tries
en ko
en asNumeros
ĠT p
ĠT ot
ĠT En
ĠT Create
ĠT Col
ĠT Add
ĠT Route
ĠT Un
ĠT Mode
ĠT Item
ĠT Index
ĠT AT
ĠT Handler
ĠT Se
ĠT Us
ĠT ool
ĠT Show
ĠT file
ĠT Struct
ĠT Regist
ĠT do
ĠT arget
ĠT TL
ĠT Copy
ĠT ermin
ĠT Oper
ĠT Null
ĠT Paint
ĠT Debugger
ĠT XML
ĠT Vector
ĠT edit
ĠT JNIEnv
ĠT Statistic
ĠT ProgressBar
ĠT Url
ĠT Arrow
ĠT TCPClient
ĠT EXCEPTION
ĠT Erreur
ĠT Order
ĠT Taille
ĠT ws
ĠT ermsOfService
ĠT Props
ĠT ICK
ĠT ExportedFunctions
ĠT men
ĠT WebSocket
ĠT gfid
ĠT PChar
ĠT CodeBarre
ĠT Collision
ĠT EqualFunction
ĠT NoteBookStringsTabControl
ĠT compressionstream
ĠT EXT
ĠT woConnectList
ĠT TabControlNoteBookStrings
ĠT ICONDIRENTRY
ĠT Profile
ĠT AppSettings
ĠT RECT
ĠT UpDown
ĠT NativeCode
ĠT Conecta
ĠT lHelp
ĠT Resample
ĠT HIS
ĠT Inputbox
ĠT rustee
ĠT CallOrAllDialog
ĠT decompressionstream
ĠT Arc
ĠT SystemArchitecture
ĠT memoryrecordhotkey
ĠT TelegramClient
ĠT aille
ĠT rece
se c
se udo
se valu
se maphore
or ten
ti con
ti vid
ti vo
ti eDem
st dcall
ar m
ar il
ar ree
ar co
ar tes
ar ising
ar ticles
ar FotoUsuario
ar range
le xt
le dle
ce c
ce Terminate
al k
al t
al ent
al Result
al Size
al ign
un registerfunction
un medida
an u
an ar
an es
an ics
an Info
an iversarian
de mo
de bit
de grees
de initialize
de pth
de pend
th ost
th readed
as id
as Integer
as semb
as dh
as mx
Ġp h
Ġp ri
Ġp ub
Ġp id
Ġp lo
Ġp ure
Ġp tic
Ġp ick
Ġp Aim
Ġp qword
Ġp rv
Ġp riority
Ġp ositive
Ġp seudo
ĠS K
ĠS a
ĠS er
ĠS ound
ĠS witch
ĠS ans
ĠS ession
ĠS pk
ĠS urface
ĠS sf
ĠS peedButton
ĠS ung
ĠS UPPORT
ĠS air
ĠS ql
ĠS eries
ĠS chiffler
ĠS QRT
ĠS uite
end Name
end ialog
end Texture
end Transaction
end CommandListUpdate
ta o
ta ils
ta Left
ta Livre
ta Center
ta Ban
ta tef
Ġc cl
Ġc ut
Ġc li
Ġc DB
Ġc he
Ġc Stat
Ġc os
Ġc ach
Ġc lip
Ġc ancel
Ġc liente
Ġc ritical
Ġc Help
Ġc UF
Ġc Sleep
ĠF In
ĠF ed
ĠF Int
ĠF File
ĠF AR
ĠF He
ĠF ram
ĠF Str
ĠF Main
ĠF Count
ĠF inal
ĠF Connection
ĠF Number
ĠF Style
ĠF Label
ĠF pro
ĠF index
ĠF Pl
ĠF Source
ĠF Team
ĠF Current
ĠF Orcamento
ĠF Host
ĠF Wait
ĠF Best
ĠF Ref
ĠF ValorUn
ĠF Worse
ĠF email
ĠF GEN
ĠF ws
ĠF RESTClient
ĠF site
ĠF Destination
ĠF OutputDriver
ĠF uncoes
ĠF HumRcd
ĠF ResultTeam
ĠF ItemId
ĠF Finally
ĠF ILTER
ĠF Ambiant
ĠF Numero
ĠF Qnt
ĠF RCC
ĠF eed
ĠF som
-- -<
es Sung
it m
it mo
it tle
ing par
ing Speedhack
am b
am ber
am bu
am inho
am bda
tr d
tr an
tr ange
tr ada
tr usted
tr igger
tr acer
tr acode
ic oes
be Retorno
be ef
be Stock
Ġf y
Ġf un
Ġf var
Ġf ew
Ġf State
Ġf act
Ġf ore
Ġf inal
Ġf text
Ġf reg
Ġf handle
Ġf Draw
Ġf Top
Ġf max
Ġf Interval
Ġf Connected
Ġf Selected
Ġf height
Ġf timeout
Ġf AspectRatio
Ġf Resolution
Ġf CameraExtZoom
Ġf loor
Ġf Reflection
Ġf ProcessId
Ġf interval
Ġf Terminated
Ġf Listar
Ġf rounding
Ġf uture
Ġf Gestionar
Ġf hitcount
Ġf jl
ter Background
du p
du ct
du la
ĠC A
ĠC R
ĠC b
ĠC ou
ĠC ust
ĠC ost
ĠC ard
ĠC ook
ĠC Exp
ĠC TYPE
ĠC loseAction
ĠC reer
ĠC SSUnit
ĠC elsius
ĠC Nb
ĠC REATE
ĠC urentCapacity
ĠC BType
ĠC entrale
ĠC LASS
ĠC reator
ĠC aminho
In str
In to
In si
In vo
In clude
In Acl
ate Options
str ParentModuleName
str SubModuleName
Ġo JSON
Ġo dDel
Ġo sAppro
ĠP L
ĠP r
ĠP as
ĠP ay
ĠP Bitmap
ĠP TC
ĠP Virtual
ĠP Basic
ĠP Render
ĠP ORT
ĠP ptruint
ĠP AGE
ĠP opupMenu
ĠP TRealArray
ĠP TIntArray
ĠP TCryptographer
ĠP TPopulation
ĠP lace
ĠP riority
ĠP FHumRcd
ĠP TypeInfo
ĠP RegisterModification
ĠP NetResourceArray
ĠP DrawItemStruct
ĠP ConnectEntry
ĠP ersistentForm
ĠP VEHDebugSharedMem
ĠP EventListItem
ĠP OVER
ĠP Wide
ĠP ohl
ĠP alSize
Ġth otkey
Ġth ose
ad just
Co vers
ĠD G
ĠD ot
ĠD ay
ĠD own
ĠD Delete
ĠD river
ĠD rop
ĠD sc
ĠD wm
ĠD IV
ĠD ifficulty
ĠD rag
begin Texture
begin update
begin CommandListUpdate
Ġin ited
Ġin valid
Ġin itialization
Ġin sert
Ġin tegrityCheckThread
Ġin dividual
Ġin ifiles
Ġin herit
Ġin depend
Ġ= =
ri ate
ri table
ul io
ul ator
Ġl g
Ġl er
Ġl le
Ġl ot
Ġl Str
Ġl Tag
Ġl yrics
Ġl ose
Ġl zp
Ġl psz
Ġl ots
Ġl atest
Ġl Ã³
Ġl vRegisters
Ġl ittle
ag ain
ty Tournament
ty pename
is tem
is ual
is integer
is Version
is valid
is Unicode
is number
is Playing
ĠA Object
ĠA List
ĠA Response
ĠA mb
ĠA pen
ĠA Log
ĠA bstract
ĠA Method
ĠA Width
ĠA Height
ĠA ux
ĠA URL
ĠA Rect
ĠA Context
ĠA Dog
ĠA FormatSettings
ĠA Amount
ĠA guarde
ĠA Prop
ĠA LL
ĠA Senha
ĠA Ignore
ĠA CanContinue
ĠA ErrorCode
ĠA Qual
ĠA Points
ĠA UDIO
ĠA ula
ĠA verage
ĠA ItemId
ĠA LineOrder
ĠA jout
ĠA JsonPath
ĠA GammaCorrection
ĠA Bas
ĠA DV
tem peratura
Re peat
Re maining
Re arrange
ra in
ra Session
pe info
pe ctr
ue F
ue te
Con structor
Con Fired
Con ferencia
Con tas
Con vEncoding
Con taBan
Ġre tain
Ġre port
Ġre gn
Ġre ceiv
Ġre write
Ġre duce
Ġre pres
Ġre venue
Ġre trie
Ġre maining
Ġre commended
ck et
el og
el issariou
ou ght
ect ure
ĠL E
ĠL M
ĠL im
ĠL ess
ĠL Main
ĠL IB
ĠL ower
ĠL PW
ĠL RESULT
ĠL GPL
ĠL isteTailles
ĠL atest
ĠL OAD
ĠL aunch
ĠL uis
ĠL ambda
ĠL ConvEncoding
cl ist
cl Window
cl Default
cl WindowText
Ġs al
Ġs om
Ġs JSON
Ġs File
Ġs ay
Ġs ort
Ġs Edit
Ġs Button
Ġs Label
Ġs pa
Ġs of
Ġs bs
Ġs ample
Ġs GroupBox
Ġs pm
Ġs sock
Ġs Url
Ġs ung
Ġs Pending
Ġs RichEdit
Ġs Sold
Ġs rch
Ġs pectr
== '
if ication
// #
ĠG S
ĠG in
ĠG lo
ĠG raphic
ĠG nu
ĠG LOG
ĠG tk
ĠG rea
ĠG radChanged
ĠG GK
Ġw s
Ġw all
Ġw eb
Ġw data
Ġw ho
Ġw Pl
Ġw rap
Ġw wd
Ġw wdb
Ġw BitCount
Ġw caminho
Ġw wDBDateTimePickerRv
to String
to address
to Point
to ffset
to cfunction
to DiagramBlockSideDescriptor
to zoom
Ġb Color
Ġb pt
Ġb ound
Ġb Or
Ġb Width
Ġb Not
Ġb ass
Ġb ool
Ġb Height
Ġb And
Ġb rush
Ġb ps
Ġb anco
Ġb rowser
Ġb Reserved
Ġb Xor
im in
im li
im ized
uses creen
Ġend time
Ġend ian
Object Name
Object As
unit y
ver sed
ver tid
all memoryregions
all icons
string length
IN ST
IN PUT
IN KOIA
IN AMES
Ġd l
Ġd s
Ġd river
Ġd rt
Ġd gFile
Ġd kMust
Res can
Res ized
IF ER
ĠI L
ĠI IF
ĠI ss
ĠI Result
ĠI ID
ĠI Interface
ĠI gn
ĠI BO
ĠI CON
ĠI Video
ĠI TaskBar
ĠI ConfigService
ĠI TM
DE D
DE NU
DE ST
Ġm X
Ġm Y
Ġm d
Ġm x
Ġm odu
Ġm ost
Ġm ight
Ġm mo
Ġm icro
Ġm odul
Ġm arginsize
Ġm sec
ĠU Name
ĠU Info
ĠU version
ĠU User
ĠU Method
ĠU Generic
ĠU Font
ĠU Page
ĠU Entidade
ĠU Theme
ĠU rl
ĠU Produto
ĠU Threading
ĠU Relatorio
ĠU MemoryStream
ĠU Fra
ĠU Comm
ĠU CoolTranslator
ĠU Sql
ĠU InfosBase
ĠU FastBitmap
ĠU Dyn
ĠU Xml
ĠU ExceptionForm
ĠU DpiControls
ĠV ectored
ĠV elissariou
at Code
at ings
at tribute
at Covers
ent ly
Ġ' #
Ġ' ')]<
Ġ' )));<
Ġ' ##
Ġ' )';<
Ġ' /'
Ġ' =',
and oned
function ref
function typename
Ġstring ToByteTable
oo se
oo thes
ph p
ph ane
ph ysical
Ġfunction pointer
Ġfunction ality
em q
em ber
(' [
(' ',
(' ////////////////
(' :',
id le
id Type
id Count
id ite
id ence
id Reserved
ĠW IL
ĠW SDL
ĠW SC
ĠW anted
ĠW yswietlKomunikat
ĠW ypis
ĠW ritable
ed pi
ed tf
Ġde cl
Ġde mo
Ġde tected
Ġde compression
Ġde claration
get Value
get Data
get Control
get Item
get Field
get ID
get Handle
get Font
get Parent
get Component
get Files
get Min
get Active
get cur
get Property
get module
get Visible
get Connections
get Transparent
get ItemIndex
get OnPaint
get ImageIndex
get BlockReadSize
get EOF
get CheatECoinCount
get codesize
get codebase
get BOF
get DefaultFields
il ar
il ure
il lems
List a
List Size
List box
List NumberTDB
List NumberGDB
List OutOf
us ers
us ually
us car
Call WindowProc
ap es
lo b
back routine
ord ers
Ġlua file
Ġlua client
Te vent
con s
con t
con tains
con tnrs
con tact
iz ing
iz ers
Ġn a
Ġn op
Ġn Player
Ġn Retorno
Ġn rof
Ġn ested
Ġn ice
Ġn amber
Ġn emq
ĠB S
ĠB ot
ĠB MP
ĠB GL
ĠB ody
ĠB pm
ĠB inary
ĠB APHashList
ĠB YTE
ĠB BMI
ĠB UFFER
ĠB ambu
ĠB uscar
ind ings
ĠM B
ĠM O
ĠM ust
ĠM ay
ĠM art
ĠM AT
ĠM ODE
ĠM issing
ĠM ioMap
ĠM fdb
ĠM arco
Pro mo
Pro of
Pro bably
JSON Params
EN TE
EN ESS
og nized
Ġ( );<
-------- <
-------- -----<
ch r
ch iveFile
ch aine
ch xpl
ch enko
ch anics
Sta ble
Sta tions
lua handler
lua vm
Ġ// (
Ġ// -
Ġ// .
Ġ// --------------
Ġ// ----------<
Ġ// ----------------------
Ty po
ize Record
ize Mon
Ġres ource
Ġres istance
Pa yment
ĠIn herited
ĠIn Val
ĠIn dy
ĠIn sp
ĠIn ifiles
ĠIn tegration
DA L
DA DE
Form KeyDown
Form Activate
Form ataCNPJ
Form FileDesc
li o
li er
li ga
li ques
ot as
ot sf
ot keys
Param Info
Param ToNull
Ġresult ing
Ġresult sf
Ġa List
Ġa round
Ġa Source
Ġa cess
Ġa Registro
Ġa ffect
Ġa Total
Ġa ffine
Ġa CloneEvent
Ġa SsfCodeFinal
lem ento
lem ente
Ex pectedMagic
Value List
Value Count
Ġun load
Ġun lock
Ġun register
Ġun Consts
class name
ĠCon struct
ĠCon ectar
ĠCon vertid
To T
To Un
To Text
To Client
To Base
To Back
To Float
To Block
To Do
To FTP
To Global
To Ptr
To Continue
To Ansi
To XPM
To Beats
To SecurityDescriptor
To Seconds
vi ace
En trys
En Mou
En gExt
En tete
En ought
um pl
um mary
um opLogo
um anInfo
String Data
Ġh b
Ġh it
Ġh ub
Ġh our
Ġh over
Ġh gl
Ġh olds
Ġh yper
END REGION
Ġe ff
Ġe of
Ġe Draw
Ġe PreDraw
implem ent
Result s
Data Info
Data EventHandle
Class Cl
Class Guid
Ġcon verterF
const s
const ant
ĠTG Char
ĠTG lyph
ĠTG rayscale
ĠTG uid
ĠTG aug
De cl
De velopers
De initialize
De claration
De tails
ib ido
Create New
Create Process
Create Factory
Create Brush
Create RemoteThread
Create FileMapping
Create foundlist
Int Array
Int ToHex
Ġuni DB
Ġuni RadioGroup
Ġuni TreeView
Ġuni DBLookupComboBox
Ġuni HTMLFrame
Lua Script
RA V
RA W
RA LFile
RA ZAO
ĠDE CL
ĠDE CI
ĠDE PRECATED
Com ment
ur al
ur sive
ur Place
Ap lic
Ap enasNumeros
Th an
Th roughput
Th readed
Th ulio
00 10
are st
Set X
Set Y
Set Style
Set Back
Set Nome
Set UnMedida
Set Capture
Set Shape
Set Claim
Set Cross
Ma ker
Ma terial
Ġu Id
Ġu Par
Ġu Se
Ġu Win
Ġu Const
Ġu Application
Ġu test
Ġu US
Ġu Driver
Ġu Principal
Ġu game
Ġu Session
Ġu Network
Ġu Report
Ġu Thrd
Ġu CallStack
Ġu FileUtils
Ġu Permissions
Ġu ZVTProtocol
Ġu CodeBarre
Ġu SerialPortPrinter
Ġu BMP
Ġu Mdl
File Type
File Entete
ith m
ith ms
SE TB
SE TT
SE CUR
SE EK
read s
set s
set Data
set Date
set Size
set Option
set Items
set Description
set Max
set Top
set Icon
set Left
set Enabled
set Hotkey
set Min
set Active
set Mouse
set Visible
set Volume
set Transparent
set ItemIndex
set Disabled
set DsCep
set OnPaint
set ImageIndex
set BlockReadSize
set CurrentPath
set Wireframe
Ġ1 8
Ġ1 12
Ġ1 44
Ġis string
Ġis Address
Ġis ValidPipe
Ġis idle
load ing
load Screen
load VEH
load FromStream
Swag Ignore
ĠFire Light
ĠFire dac
ig l
ig rd
On Show
On line
On Game
On Work
On Shut
On SelectionChange
int f
ER S
ER adioGroup
Path Emetteur
rite Command
Ġt n
Ġt we
Ġt utorial
Ġt arge
Ġt wi
Ġt graphic
Key Number
Add Symbol
Add Strings
Add Polygon
Add PD
Add Child
Add DllDirectory
Add TD
Add XY
up perc
ĠR io
ĠR TL
ĠR adioButton
ĠR ipRelativeScanner
ĠR EAL
ĠR zLabel
Type Base
Type writer
Control Set
ĠGet Value
ĠGet String
ĠGet Data
ĠGet Color
ĠGet Error
ĠGet Status
ĠGet Comp
ĠGet Header
ĠGet Json
ĠGet Float
ĠGet Team
ĠGet Token
ĠGet By
ĠGet Currency
ĠGet Write
ĠGet Language
ĠGet Password
ĠGet Java
ĠGet Uptime
ĠGet Dll
ĠGet MainForm
ĠGet Camera
ĠGet Cor
ĠGet Volume
ĠGet Ano
ĠGet Placa
ĠGet GUID
ĠGet Bounds
ĠGet Resolution
ĠGet Modelo
ĠGet SendReceiv
ĠGet Evaluation
ĠGet BillSend
ĠGet Marca
ĠGet Population
ĠGet MaxSize
ĠGet TopFix
ĠGet LeftFix
ĠGet MIMEType
ĠGet PositionFix
ĠGet ResultTeam
ĠGet Advance
ĠGet EditBoxMargins
ĠGet Languages
ĠGet MediaPlayerDriverClass
ĠGet Wif
ĠGet Yell
ĠGet PathEmetteur
]< >
Ġ2 3
Ġ2 9
Ġ2 21
Ġ2 35
Ġ2 42
Ġ2 46
Get File
Get Name
Get Path
Get Main
Get New
Get Version
Get Length
Get Json
Get Settings
Get System
Get Nome
Get UnMedida
Get ValorUnAtual
Get Aim
Get BP
Get SymbolList
Get GlobalPOS
Get FileVersion
Get Num
Get AllPrinter
Get Beat
Get CameraMode
Get RGBColor
Get Ftp
ts oft
ten tic
ten cour
ĠTB GL
ĠTB CLabel
ĠTB BM
ĠData Ch
ĠData Source
ĠData Draw
Ġfor ward
Ġfor specificcpu
ĠResult Array
DB Read
TP ar
TP TB
TP latform
TP ipeConnection
TP luginVersion
ari es
ari os
Ch art
Ch kIndConcluido
ĠE mail
ĠE quiv
ĠE sc
ĠE mitente
ĠE XCEPTION
ĠE ColorQuanti
def rame
yte xt
istr ain
Swagger Security
Proc Ref
ĠN N
ĠN PP
ĠN ULL
ĠN bCases
Ġit eration
>// --------
>// --------------------------------
>// -----
>{ **<
>{ ********************************************}<
AR EL
AR ENT
AR ED
AR EF
ES CAP
ĠFM e
Id List
Id Info
Id Usuario
Id WebDAV
Ġx Password
Ġx Mo
Ġx mmreg
ĠForm KeyDown
ĠForm ataCNPJ
Time Text
Time ToStr
Time Background
ĠTD oc
ĠTD raw
ĠTD ark
ĠTD river
ĠTD omain
ĠTD pi
ĠTD lg
ĠTD ados
ĠTD imension
Array PropertyToTable
Un handle
Un til
Un pressed
Un CryptPass
Thread Context
Thread EnderecoIntegracao
Mode Colors
ec tive
OR IG
Item Editor
Item Spec
tp rocess
tp oint
Ġread y
Ġread write
op tdescription
Reg s
Reg Expr
As SmallInt
As cii
As Saved
Qu oted
Ġi Manager
Ġi Connected
UI LGR
UI Pv
MO VE
ff rey
able Const
ĠTC S
ĠTC ryptographer
ĠTC epConsulta
ĠTC OMBO
Ġor iented
top ic
top ointer
ĠAss um
ĠTh rd
Color Proc
Color Button
Color Table
Color Sort
Color Alpha
add Element
add Child
add ToGlobal
add ArrayPropertyToTable
push nil
push rect
push cfunction
push DiagramBlockSideDescriptor
Ġg as
Ġg at
Ġg reen
Ġg one
Ġg lext
ren tprocess
Ġy ears
Stream ing
Stream Byte
Mem Table
Mem Directory
Mem Storage
Text Edit
Text Content
Text AsSaved
Module Index
Module Icon
ĠWin Version
ĠWin Allocation
ĠWin Ce
Field Defs
ĠTP S
ĠTP re
ĠTP ost
ĠTP Real
ĠTP Bool
ĠTP luginVersion
ĠTP agemap
ĠTP hone
ĠTP StringArray
ĠTP rimitiveType
ĠTP aper
ĠTP erspectiveMode
ĠTP IntArray
Event Taking
pt Nil
Ġdo Not
Ġdo check
Ġbe vel
Ġbe com
Ġbe ats
Ġbe Notified
Ġex istance
Ġex pected
Ġex plode
AT CH
AT TR
AT gfId
ĠCreate d
ĠCreate s
ĠCreate Handle
ĠCreate Toolhelp
ĠCreate TabNoteBookStrings
ĠO LE
ĠO wner
ĠO rder
Client Connection
Client Metadata
Client ToScreen
Base Port
Base Of
Base Conf
Base Unix
Base CKDOs
Edit Background
Edit Pref
Ġthis pluginid
ĠuniG rid
01 0
01 00
01 02
ac ceptable
Date deb
Date fin
Str Consts
Str ike
he artbeat
ong Types
ong jumps
Ġst ore
Ġst ated
Ġst Best
Ġst Most
EST RAV
Ġr time
Ġr tti
ĠSet H
ĠSet W
ĠSet X
ĠSet Y
ĠSet Color
ĠSet Text
ĠSet Code
ĠSet tings
ĠSet Token
ĠSet Level
ĠSet Enabled
ĠSet Title
ĠSet Empty
ĠSet AsString
ĠSet Gradient
ĠSet Total
ĠSet Picture
ĠSet Cor
ĠSet Ano
ĠSet BackObj
ĠSet Placa
ĠSet Modelo
ĠSet RowState
ĠSet Evaluation
ĠSet Marca
ĠSet DsCep
ĠSet MaxSize
ĠSet TopFix
ĠSet LeftFix
ĠSet PositionFix
ĠSet MemoLine
ĠSet PopMenu
ĠSet ThreadContext
table s
Inter n
Inter preter
Intf CustomDraw
Image Drawer
res se
ĠDe alloc
ĠDe velopment
ĠDe Crypt
Exception Region
Exception Information
Bit Data
vel issariou
ĠTL oto
ĠTL zpCompression
ĠTL MScroll
Ġfile size
ĠBGRA Label
ĠBGRA Default
ĠBGRA Multi
ĠBGRA Paint
ĠBGRA Vector
ĠBGRA GraphicControl
ĠBGRA Pen
ĠBGRA Shape
ĠBGRA LayerOriginal
ĠBGRA COLOR
ĠBGRA Renderer
ĠBGRA Sprite
ĠBGRA Blend
ĠBGRA LayerOriginalEntry
ĠBGRA AnimatedGif
ĠBGRA FillInfo
ĠBGRA Typewriter
ĠBGRA MemDirectory
Button BorderColor
Ġas ync
Ġas pect
ĠRe port
ĠRe ference
ĠRe moved
ĠRe pertoire
ĠRe layout
ĠRe versed
ĠRe loadScreen
version name
Error Text
Error Event
Group Method
list Ex
list Unit
list columns
Main Menu
Main ThreadID
Main ThreadEnv
Ġan ti
Ġan tialiasing
Ġan other
Ġan sis
fp GUIBitmap
Par tid
Ġvar s
Ġvar int
Ġvar Array
Ġvar char
Ġcom es
Ġcom ment
Ġcom par
Ġcom enta
Ġcom bin
ĠLua Form
ĠLua File
ĠLua Control
ĠLua Edit
ĠLua Canvas
ĠLua Graphic
ĠLua GraphicControl
ĠLua Pen
ĠLua Internet
ĠLua TreeNode
ĠLua MemoryRecord
ĠLua Groupbox
ĠuniGUI Server
ĠuniGUI MainModule
.. $
.. {$
.. .';<
iti ative
iti rAcess
Message Box
ore an
AN I
AN Y
AN CED
AN aglowek
AN DAL
IC AL
ne thost
Ġv t
Ġv table
Ġv olume
Ġv oid
Ġv vv
ID List
Box Mode
Box defaultBrush
EL ENGTH
UR ITY
oc iated
oc ateOptions
ma Exporta
Stat Detail
Gener ator
ĠUn t
ĠUn register
ĠUn Medida
ĠUn loadVEH
CL T
CL IENT
ĠTF ree
ĠTF PG
ĠTF PReader
Byte Data
Byte Interpreter
eng l
eng ht
lection s
ave Scanner
ber Index
ĠOn Log
ĠOn Timer
ĠOn Click
ĠOn Window
ĠOn Connected
ĠOn CanContinue
ĠOn MidiEvent
ĠOn Drag
ĠOn VScroll
ĠOn Hide
ĠOn Sentence
ĠCom ment
ĠCom pressed
Ġversion name
own up
App Descriptor
Ġj p
Ġj class
Ġj method
Ġj cap
Ġj oin
os Place
User Time
User name
User Role
User Authentication
User definedSymbol
bug s
nd raw
Comp iler
Comp uter
Comp uted
New Alloc
New StringUTF
Se en
Se ed
Se cond
CE PACK
CE Pointerscan
CE IV
ance iro
INT EG
Ġon Data
HI DE
HI LDREN
ĠFree Pascal
LE VEL
ĠTList columns
Params From
Sh own
Sh arpen
handler lock
Ġma terial
AP i
AP INAMES
Code List
Code Unit
Code Tiers
ĠControle Envia
Bitmap Glyph
UT ES
ĠId Dog
ĠId Raw
Log Set
Log out
Log Box
Log Dir
Log Palette
ex p
ex it
ex pected
ex traparam
Ġ. /
tim edpi
Ġus ers
Ġus dx
Equal s
form hotkey
ĠSe lec
Register ed
Memory stream
ld b
View OfFile
address B
address parser
Version ing
Ġmem display
create Texture
create Meta
create SharedMemory
can id
Ġse en
Ġse qu
Ġse cond
Ġse ja
Interface Automacao
Table Provenance
Ġcreate Button
Ġcreate ImageList
Ġcreate Region
Ġcreate SharedMemory
Ġcreate SideBar
Ġcreate MemoryView
Ġcreate Calendar
Ġcreate LuaStateIfNeeded
Man ger
com n
com ing
com ctrls
Unit With
Unit Versioning
Des ent
Des criptif
Web s
Ġ3 30
Is Uni
Is Window
Is OK
Win ner
Win Stations
Ġget Result
Ġget Context
Ġget Icon
Ġget Left
Ġget Current
Ġget Structure
Ġget DPI
Ġget Right
Ġget Bottom
Ġget Range
Ġget RTTI
Ġget Delta
Ġget CheatECoinCount
Ġget SsfCodeFinal
Ġget FuncsArray
Ġget allmemoryregions
col lections
ĠRes te
ĠRes olution
ĠRes ume
ĠH it
ĠH ot
ĠH File
ĠH Module
ĠH ost
ĠH ere
ĠH Palette
ĠH KEY
ĠH GLR
ĠH util
ĠH RESULT
ĠH GM
ĠH alt
ĠEx Process
ĠEx tended
ĠTThread Ex
ĠTThread Entry
ĠTThread Helper
ĠTThread Poller
ĠOne SQL
ĠOne Fast
No vo
No tification
No GUIBitmap
Ġdword ToByteTable
ĠTBGRA Label
ĠTBGRA Layer
ĠTBGRA Shape
ĠTBGRA ImageManipulation
ĠTBGRA Shader
ĠTBGRA ColorInterpolation
ĠTBGRA MacBitmap
ĠTBGRA GradientRepetition
ĠTBGRA Affine
ĠAs ync
ĠAs pectRatio
ĠFPC Adds
Server Instance
Uni Timer
Uni GUI
Uni URLFrame
ge st
ge ek
Ġfp c
Ġfp Image
Ġfp image
Ġfp canvas
new v
new present
TForm aPagamento
Au cun
Au tentic
Common Version
Common Server
Common Java
Address Change
Menu Prn
key handler
Connection Entry
DO S
DO W
CH INE
Ġset s
Ġset Int
Ġset Info
Ġset tings
Ġset Context
Ġset Draw
Ġset Tab
Ġset Caption
Ġset Enabled
Ġset Interval
Ġset DPIAware
Ġset Rounding
Ġset Hitcount
Method ID
Method DataModule
Method Token
Method Prop
ĠTM sg
ade s
Ġpointer file
Read Buffer
Read Performance
Star ted
02 25
ĠTS ing
ĠTS mall
ĠTS olver
ĠTS ql
ĠTS kin
Ġfrm D
Ġfrm Debug
Ġfrm Save
Ġfrm Selection
Ġfrm auto
Ġfrm AssemblyScan
Ġfrm Aniversariante
Ġfrm structure
Ġfrm FindDialog
Ġfrm EventLog
Ġfrm CadPessoa
Custom Original
Custom ClassCl
Ġal ign
Ġal Bottom
Ġal gum
Char Width
Line Color
Line Number
Line Height
Line Switch
TA CH
TA ffine
TA SIA
TA dmission
ĠTProc Integer
ĠTfrm Process
ĠTfrm Structure
ĠTfrm Saved
ĠTfrm Busy
ĠTfrm Referenced
ĠTfrm Donate
ĠTfrm Conecta
ĠTfrm break
ĠTfrm CurlUI
ĠTfrm MergePointerscanResultSettings
ĠTfrm SerieFactura
Real izarPagamento
Not AValid
Dis poseMode
Ġme ans
Ġme asure
Ġme chanics
RE D
RE T
RE SERVE
RE QUI
RE VIS
RE CEIV
Ġwh ite
Net Deserial
ĠText Next
ĠText Over
ĠText Medley
ĠText Winner
An i
ĠWeb DAV
ĠWeb site
urrent Overlay
CO MM
UL LP
UL TI
lib curl
pl atform
ĠTR D
ĠTR LP
ĠTR IP
ĠTR adioGroup
ĠTR adioButton
ĠTR asterImage
Debug Message
Debug Register
ĠPro perties
ĠPro tect
ĠPro duct
From Resource
From Global
From XML
From Disassembler
From DotNet
From Red
From Clipboard
From BmpInfo
ToString s
ĠUni ImageList
ĠUni ComboBox
ĠUni GUI
ĠUni FormCreate
ĠUni RadioGroup
ĠUni Syntax
ĠUni ScreenMask
ĠUni HTMLFrame
ĠUni SFSweetAlert
Update Option
Update BDD
Ġimp ro
ĠTControle Imagem
Screen Jukebox
ĠLCL Translator
ĠButton Proc
ĠButton Player
ĠButton Exit
Start Progress
Start Transaction
Start Angle
FF D
FF F
over s
over lap
ĠFile Test
ĠFile DescriptorWebPage
box ListSubClass
ip o
TF ill
Ġ$ <
MP Command
Ġdata modul
Timer Thread
IL Code
ĠTUni Timer
ĠTUni ComboBox
ĠTUni SpeedButton
ĠTUni RadioGroup
ĠTUni ScreenMask
ĠTUni HTMLFrame
ĠTUni SFSweetAlert
ĠTGBSwagger Validator
ĠK e
Ġsys call
Ġsys Admin
Ġsys UserRole
app end
Font Ex
Ġnew state
Ġnew ComboBox
Ġnew GroupBox
Ġnew AddressFile
Ġnew MemoryFile
Ġle s
Ġle ast
Number Parameters
est ao
est amp
Ġdar ker
RO L
Style Button
Style Active
Style Disabled
Style Hover
ĠTCustom ListBox
ĠTCustom ProgressBar
ĠTCustom MemoryStream
ĠTCustom CheckListBox
ĠTCustom TrackBar
ĠTCustom combobox
ĠEn tropy
Ġobject type
Ġobject pos
ere cord
ask Bar
cal c
cal led
mo table
ool Utils
ĠSee k
call backroutine
pro tection
param etros
ĠTForm Ex
ĠTForm Main
Ġfree ze
<> '')
atas ize
Ta va
^. _
^. {$
mem scan
scan Command
scan ControllerParent
ux oCaixa
Pr intable
Frame Info
Http Get
Pointer ListArray
Process s
Process Info
Process Frame
Run result
Run InThread
Run AndWait
SQL Connection
cept Usuario
Resource Type
Resource Names
Check Time
Check Listbox
Ġmodif s
Ġmodif ier
ĠDo Request
ĠDo Timer
ĠDo Command
ĠDo Mouse
ĠDo OnTimer
ĠDo CryptPass
ĠDo UnCryptPass
Component ByName
Bar s
Ġcopy ing
Ġcopy memory
DataSet s
DataSet Adapter
ĠTGBSwaggerModel Contact
Ġform hotkey
Ġform CadPacientes
Ġreal izar
Ġreal GetTickCount
Free Etc
Ġaddress String
Ġaddress name
ĠNew List
FA DE
min imize
ĠRegister Project
Length Fast
MS Acc
ia is
Texture Time
Texture EntryArray
Json Reflect
Back up
Back Click
Back Trace
Back slash
Ġdistribution s
Window Info
Window Handle
ĠFound CodeUnit
ĠWAR N
ak ing
WAR E
Ġra x
Ġra tio
GL Font
Ġ4 01
Ġ4 096
ĠCheck OK
With Header
With Check
With The
With Icon
With Position
With Health
With NewList
ĠLaz Paint
ME D
ME lement
Port team
Send Message
Send Msg
Send Target
ite Space
ite chaine
Ġce p
Ġce lcius
Ġce unpack
Ġce support
Ġce dula
ĠAdd Stream
ĠAdd User
ĠAdd Log
ĠAdd Polygon
ĠAdd StreamPart
ĠAdd CommonJava
Cad Usuario
MA D
MA X
MA IN
MA vatar
MA CHINE
Ġ5 9
Ġ5 00
Ġ5 000
Ġ5 12
Ġ5 04
Ġed ge
ĠSta ge
ĠSta tes
ĠSta bs
ĠSta tistic
Ġinter nal
Ġinter polation
Pl us
ĠTA ll
ĠTA Source
ĠTA vgLvlTree
image hlp
Open AudioDevice
PA CE
PA USE
PA LInvalid
rs p
rs CouldNotBe
Ġnumer ic
Progress State
Progress Event
Delete Module
12 6
12 7
12 019
Ġtype data
Ġdis k
Ġdis claim
Combo Name
ĠFunction Code
Ġgl Bind
Ġgl Pop
Ġgl Ro
Ġgl Depth
Ġgl Push
ĠTColor F
DataModule Destroy
ĠStart Progress
ĠStart Interbase
ĠStart WinUpdate
Cmd LineSwitch
Page Info
base Running
Content Types
End Transaction
ING S
Ġqword ToByteTable
************************************************************************ *****)<
AS M
All çĽ
BO LETO
GE RA
PE DENU
Scan Result
Scan State
Scan Connector
Ġrs Button
Ġrs Error
Ġrs Group
Ġrs Menu
Ġrs This
Ġrs SA
Ġrs Host
Ġrs Separator
Ġrs PS
Ġrs ARange
Ġrs PALInvalid
And Trace
nt Base
nt dll
write s
Ġinitialize GraphicControl
Context Flags
Ġnames pace
Device Index
Ġmemory Query
Of Type
file Name
Ġsyn taxcheckonly
Post ing
Song s
of text
ĠSh ort
ĠSh adi
ĠUnit Splash
ĠUnit Treino
Trans lation
Ġused che
Ġunit CadAgendamentos
Ġdouble value
Ġdouble ToByteTable
Struct List
Application Address
Kernel Time
handle s
ĠList All
ĠList NumberTDB
ĠList NumberGDB
Ġword ToByteTable
Ġword bool
Ġno thing
ĠinitializeLua Bitmap
ĠinitializeLua Collection
ĠinitializeLua Debug
ĠinitializeLua Region
ĠinitializeLua Structure
ĠinitializeLua ByteTable
ĠinitializeLua Pen
ĠinitializeLua Binary
ĠinitializeLua Calendar
PL AGE
PL AY
PL XTA
ĠTService Base
ĠTService Endereco
ĠFP HTTPClient
ĠFP DMQuantity
ĠFP opMenu
ĠFP WritePNG
ĠOneHttp Server
TC ONTEXT
Exten ds
The se
The ModuleName
The Same
Settings Form
Settings Unit
System Font
13 07
Element Info
radi an
radi us
radi ogroup
Ġen c
Ġen v
Ġen abled
ĠCE Tick
ĠCE CustomButton
ĠCE TAT
For Local
For Ano
For Dissect
For ceTerminate
Ġsh orten
Ġsh otsf
Block s
ĠTDAO Usuario
Draw Result
Draw Info
bl a
Ġtem por
Ġtem ps
Ġat tributes
thread id
thread name
thread start
Tab Sheet
ĠTDateTime Picker
At Pos
Put Event
Ġapp ro
Ġapp end
Ġowner ms
ĠVersion Info
ĠVersion Fields
Ġhe als
)) )
Ġcontainer Width
Max Timeout
Max ListSize
Ġtr ust
Ġtr unc
Ġpack ing
ĠPT D
ĠPT Buffer
ĠPT Machine
ĠPT Solution
ĠPT Msg
ĠPT UserInfo
ĠPT Problem
ĠPT Bmp
ĠPT RunStatistic
ĠPT LS
ĠPT TCList
ĠPT SetEvaluation
ĠPT MessageInfo
ĠPT TabuList
ĠPT RUSTEE
ĠPT IdInfo
Token Item
Token Fail
par se
par ate
Ġid Type
Ġid Count
Ġid Reserved
ĠStatic BG
Iter ations
UN T
ĠException Logger
row Font
cess ary
---------------------------------------------------------------- ----------
AL G
AL LOC
AL LOW
Be en
Be hind
Be zier
Next Scan
Next Sib
Ġlast s
Ġlast size
Ġlast index
Ġlast error
Ġlast update
Ġlast selected
Ġlast Execution
Ġlast frozen
Ġlast TextureTime
201 1
201 4
Al ternate
Al gol
BGRA ImageManipulation
SION S
Use Name
Use TLS
ca j
ca Free
ca led
ca ja
do string
do check
ĠZ F
ĠZ Stream
ĠZ VT
Ġren du
Ġwin sp
ĠInter baseRunning
Titulo Receber
Case Vide
EX PORT
EX TER
EX STY
Pixel Proc
Virtual Trees
so Begin
Ġstr Class
Ġstr Arg
Ġstr Vers
ĠTNew Edit
ĠTNew Memo
ĠTNew ListBox
ĠTNew SynEdit
ĠTNew Procedure
ĠTNew ProgressBar
ĠTNew ScrollBox
ĠTNew ScrollBar
ĠTNew TreeView
ĠTNew CheckListBox
ĠTNew TabControlNoteBookStrings
ĠTNew StatusPanel
ĠTNew Hint
ĠTNew ColorBox
ĠTNew CheckGroup
ĠTNew DirectoryEdit
ĠTNew ToggleBox
ĠAr tid
ĠAr quivoBase
ĠAr fId
ĠAr chiveFile
Body W
Find Class
Find Code
Find Address
Find Window
Find Symbol
Find Wh
qu ency
qu ently
qu otas
ĠQ Json
ĠQ Msg
ĠQ AddObject
Ġreturn type
ĠByte Count
Region Size
Ġrender ing
lf lags
Ġhas h
Destroy DeviceInfo
Ġmax imum
Ġmax scroll
Ġtime stamp
ĠClass Type
ĠClass GUID
ĠClass ComPort
Default Message
Command Array
ideString ToByteTable
TL evelSelect
Copy ToClipboard
DS A
DS P
DS AP
DS urface
DS GN
DS Metadata
DS ClientMetadata
DS CommonServer
Player Count
Stop Color
Stop ped
WIN DOW
byte sto
byte interpreter
Ġtext Color
Ġtext only
Ġcurrent ly
Ġcurrent time
Ġcurrent Texture
Ġcurrent Frozen
Produ cao
Ġau dio
Por ta
draw auto
draw instanced
ĠKey ToStr
ĠService Pack
ĠFId Table
ĠFId Rcd
Scroll Event
Scroll Width
ĠMain ThreadID
ĠMain ThreadEnv
Mag CKDOs
Per imeter
Per Second
TControle Cadastro
TControle Impressao
TControle ModalAjuda
TControle ConsultaGerarDocumento
TControle CadastroVinculoUsuario
TControle MensagemErro
TControle EnviaMensagemAguarde
TControle ImpressaoDocumento
ĠStop Progress
ĠStop Iterations
ĠInt fGraphics
ov imento
Ġreq uete
ĠLog List
ĠLog Sec
Ret or
Ġsc m
Ġsc intill
ĠItem Id
Ġcomp iling
Ġcomp uted
Audio Driver
Audio Spec
Pos From
Point Action
WS DL
]) (
]) ();<
]) ^;<
Ġco in
Ġco isa
Ġco ins
ĠFind Object
ĠFind Dialog
ĠFind CmdLineSwitch
ĠFind TheSame
Ġbtn Sal
Ġbtn Validate
Ġbtn Conectar
Ġbtn Sair
ĠRead y
ĠRead Data
ĠRead User
ĠRead Max
ĠRead Average
ĠRead ParamInfo
ĠSelect TInt
ĠSelect Players
ĠSelect Slide
Auto Size
Auto size
(@ _
USE ASM
ps DashDot
ä¸ ªå
rec StringData
rec ursive
ĠTRequest Synapse
ĠTRequest FPHTTPClient
Ġpt HTTP
Ġpt Number
Ġpt MemoryView
ĠAn tialias
Select Bool
Select Rounds
Select sS
Current Thread
Current ControlSet
Sub System
Sub BlockId
Ġthread s
Ġthread Handle
Ġdebug Label
Ġdebug even
Exp ense
DarkMode Colors
04 00
04 0225
AD ossi
Symbol Handler
Symbol ListHandler
Symbol StructureList
Symbol FromAddress
Symbol EventTaking
sor ted
ĠPar Reflection
ĠPar tyTournament
TYPE ID
CK D
CK SEND
Dialog Service
Doc URL
Doc Description
FM T
FM TB
[...]
