{"<S>":0,"<pad>":1,"</s>":2,"<unk>":3,"<mask>":4,"!":5,"\"":6,"#":7,"$":8,"%":9,"&":10,"'":11,"(":12,")":13,"*":14,"+":15,",":16,"-":17,".":18,"/":19,"0":20,"1":21,"2":22,"3":23,"4":24,"5":25,"6":26,"7":27,"8":28,"9":29,":":30,";":31,"<":32,"=":33,">":34,"?":35,"@":36,"A":37,"B":38,"C":39,"D":40,"E":41,"F":42,"G":43,"H":44,"I":45,"J":46,"K":47,"L":48,"M":49,"N":50,"O":51,"P":52,"Q":53,"R":54,"S":55,"T":56,"U":57,"V":58,"W":59,"X":60,"Y":61,"Z":62,"[":63,"\\":64,"]":65,"^":66,"_":67,"`":68,"a":69,"b":70,"c":71,"d":72,"e":73,"f":74,"g":75,"h":76,"i":77,"j":78,"k":79,"l":80,"m":81,"n":82,"o":83,"p":84,"q":85,"r":86,"s":87,"t":88,"u":89,"v":90,"w":91,"x":92,"y":93,"z":94,"{":95,"|":96,"}":97,"~":98,"¡":99,"¢":100,"£":101,"¤":102,"¥":103,"¦":104,"§":105,"¨":106,"©":107,"ª":108,"«":109,"¬":110,"®":111,"¯":112,"°":113,"±":114,"²":115,"³":116,"´":117,"µ":118,"¶":119,"·":120,"¸":121,"¹":122,"º":123,"»":124,"¼":125,"½":126,"¾":127,"¿":128,"À":129,"Á":130,"Â":131,"Ã":132,"Ä":133,"Å":134,"Æ":135,"Ç":136,"È":137,"É":138,"Ê":139,"Ë":140,"Ì":141,"Í":142,"Î":143,"Ï":144,"Ð":145,"Ñ":146,"Ò":147,"Ó":148,"Ô":149,"Õ":150,"Ö":151,"×":152,"Ø":153,"Ù":154,"Ú":155,"Û":156,"Ü":157,"Ý":158,"Þ":159,"ß":160,"à":161,"á":162,"â":163,"ã":164,"ä":165,"å":166,"æ":167,"ç":168,"è":169,"é":170,"ê":171,"ë":172,"ì":173,"í":174,"î":175,"ï":176,"ð":177,"ñ":178,"ò":179,"ó":180,"ô":181,"õ":182,"ö":183,"÷":184,"ø":185,"ù":186,"ú":187,"û":188,"ü":189,"ý":190,"þ":191,"ÿ":192,"Ā":193,"ā":194,"Ă":195,"ă":196,"Ą":197,"ą":198,"Ć":199,"ć":200,"Ĉ":201,"ĉ":202,"Ċ":203,"ċ":204,"Č":205,"č":206,"Ď":207,"ď":208,"Đ":209,"đ":210,"Ē":211,"ē":212,"Ĕ":213,"ĕ":214,"Ė":215,"ė":216,"Ę":217,"ę":218,"Ě":219,"ě":220,"Ĝ":221,"ĝ":222,"Ğ":223,"ğ":224,"Ġ":225,"ġ":226,"Ģ":227,"ģ":228,"Ĥ":229,"ĥ":230,"Ħ":231,"ħ":232,"Ĩ":233,"ĩ":234,"Ī":235,"ī":236,"Ĭ":237,"ĭ":238,"Į":239,"į":240,"İ":241,"ı":242,"Ĳ":243,"ĳ":244,"Ĵ":245,"ĵ":246,"Ķ":247,"ķ":248,"ĸ":249,"Ĺ":250,"ĺ":251,"Ļ":252,"ļ":253,"Ľ":254,"ľ":255,"Ŀ":256,"ŀ":257,"Ł":258,"ł":259,"Ń":260,"ĠĠ":261,";<":262,"er":263,"in":264,"><":265,"on":266,"ĠĠĠ":267,"re":268,"te":269,"en":270,"ĠT":271,"se":272,"or":273,"ti":274,"st":275,"**":276,"ro":277,"ar":278,"le":279,"ce":280,"al":281,"un":282,"tion":283,"an":284,"de":285,"ĠĠĠĠ":286,"th":287,"}<":288,"as":289,");<":290,"Ġp":291,"ĠS":292,"end":293,"{$":294,"ta":295,":=":296,"Ġc":297,"ĠF":298,"****":299,"--":300,"es":301,"et":302,"it":303,"ing":304,"las":305,"am":306,"ct":307,"tr":308,"ger":309,"ic":310,"be":311,"Ġf":312,"ction":313,"ter":314,"ls":315,"du":316,",<":317,"ĠC":318,"ses":319,"In":320,"ate":321,"ys":322,"gin":323,"str":324,"ua":325,"Ġo":326,"roce":327,"ĠP":328,"Ġth":329,"ad":330,"teger":331,"Co":332,"ĠD":333,"unction":334,">{$":335,"begin":336,"dure":337,"rocedure":338,"orse":339,"Ġin":340,"Horse":341,"Ġ=":342,"ri":343,"ul":344,"lass":345,"Ġl":346,"ag":347,"ty":348,"ĠĠĠĠĠ":349,"bj":350,"is":351,"ĠSys":352,"ĠA":353,"Ġ:=":354,"tem":355,"Re":356,"ra":357,"pe":358,"ue":359,"Con":360,"Ġre":361,"ck":362,"el":363,"ist":364,"ou":365,"ect":366,"inter":367,"ĠL":368,"cl":369,"Ġs":370,"==":371,"----":372,"********":373,"if":374,"//":375,"fa":376,"bject":377,"ĠG":378,"tro":379,"Ġw":380,"face":381,"to":382,"Ġb":383,"im":384,"uses":385,"Ġinteger":386,"Ġend":387,"):":388,"Object":389,"unit":390,"ver":391,"all":392,"Uti":393,"string":394,"ult":395,"orm":396,"IN":397,"Ġd":398,"interface":399,"Res":400,"IF":401,"Utils":402,"ata":403,"Ġthe":404,"ĠI":405,"ow":406,"Ġprocedure":407,"ack":408,"DE":409,"lic":410,"ĠSystem":411,"var":412,"Ġm":413,"ĠU":414,"ĠV":415,"ĠĠĠĠĠĠĠĠ":416,"at":417,"ent":418,"Ġ'":419,"and":420,"function":421,"lasses":422,"Ġof":423,"Ġ:":424,"ode":425,"ss":426,"Ġstring":427,"oo":428,"ph":429,"reate":430,"ub":431,"ON":432,"ame":433,"om":434,"Ġ{$":435,"Ġfunction":436,"em":437,"('":438,"xt":439,"id":440,"ĠW":441,"ed":442,"Ġde":443,"type":444,"ut":445,"get":446,"ile":447,"aram":448,"il":449,"alue":450,"List":451,"us":452,"tring":453,"Call":454,"ap":455,"lo":456,"back":457,"ord":458,"Ġlua":459,"Te":460,"Callback":461,"Core":462,"con":463,"procedure":464,"INE":465,")<":466,"ublic":467,"FINE":468,"iz":469,"Ġn":470,"ĠB":471,"Contro":472,"ind":473,"ĠTHorse":474,"ray":475,"ĠM":476,"ation":477,"St":478,"lean":479,"Pro":480,"ler":481,"====":482,"ble":483,"JS":484,"oolean":485,"ire":486,"age":487,"JSON":488,"EN":489,"Ġclass":490,"og":491,"Ġif":492,"Ġ(":493,"--------":494,"Ġ}<":495,"Ġthen":496,"ch":497,"Sta":498,"lua":499,"imp":500,"Ġ//":501,"ĠVcl":502,"Ty":503,"indow":504,"****************":505,"ize":506,"Ġover":507,"Ġres":508,"Pa":509,"ĠIn":510,"ĠSysUtils":511,"Req":512,"per":513,"si":514,"DA":515,"Form":516,"Ctr":517,"li":518,"ot":519,"Param":520,"ew":521,"Ġresult":522,"Ġa":523,"lem":524,"Ex":525,"tation":526,"Ctrls":527,"Value":528,"Ġun":529,"pon":530,".<":531,"ĠClasses":532,"vate":533,"class":534,"Ġpro":535,"ics":536,"ĠCon":537,"rivate":538,"indows":539,"ess":540,"Ġto":541,"entation":542,"ial":543,"',":544,"To":545,"vi":546,"ol":547,"En":548,"uct":549,"HorseCore":550,"um":551,"String":552,"Ġh":553,"raph":554,"END":555,"ted":556,"Ġe":557,"implem":558,"Ġbegin":559,"implementation":560,"od":561,"Result":562,"Data":563,"Ġ{":564,"Class":565,"Ġcon":566,"const":567,"ase":568,"ĠTG":569,"De":570,"ib":571,"Ġpublic":572,"Test":573,"Create":574,"Int":575,"ption":576,"ey":577,"struct":578,"Ġuni":579,"Ser":580,"dd":581,"ree":582,"Lua":583,"RA":584,"Rou":585,"PC":586,"ĠDE":587,"DEFINE":588,"Com":589,"ur":590,"ĠĠĠĠĠĠĠ":591,"ENDIF":592,"Ap":593,"Th":594,"Ġ[":595,"00":596,"are":597,"sion":598,"Set":599,"Ma":600,"Ġboolean":601,"raphics":602,"Ġu":603,"File":604,"ith":605,"wag":606,"Col":607,"SE":608,"Ġprivate":609,"ĠHorse":610,"read":611,"set":612,"Ġ1":613,"Respon":614,"Name":615,"Response":616,"ress":617,"Ġis":618,"array":619,"load":620,"ĠContro":621,"State":622,"Sys":623,"structor":624,"decl":625,"Swag":626,"ener":627,"ĠFire":628,"Ġcdecl":629,"ĠInteger":630,"DAC":631,"Tim":632,"ĠFireDAC":633,"Classes":634,"oun":635,"ig":636,"Ar":637,"On":638,"int":639,"ton":640,"ve":641,"utton":642,"ER":643,"Path":644,"uest":645,").":646,"rite":647,"Ġt":648,"Key":649,"ine":650,"Add":651,"our":652,"ust":653,"Ġarray":654,"up":655,"Ġ*":656,"mode":657,"ĠR":658,"andler":659,"Type":660,"Request":661,"Control":662,"__":663,"));<":664,"ay":665,"ĠGet":666,"ialog":667,"]<":668,"¿½":669,"ï¿½":670,"Ġ2":671,"Get":672,"ts":673,"ten":674,"ĠTB":675,"Ġoverload":676,"vice":677,"GRA":678,"ĠData":679,"';<":680,"Ġfor":681,"ĠResult":682,"dex":683,"DB":684,"TP":685,"ual":686,"ĠTHorseCallback":687,"ari":688,"Ch":689,"========":690,"ĠString":691,"ĠE":692,"def":693,"yte":694,"Ġ-":695,"istr":696,"phi":697,"Swagger":698,"Proc":699,"fo":700,");":701,"ĠN":702,"Ġit":703,">//":704,"ir":705,">{":706,"ers":707,"pes":708,"');<":709,"AR":710,"ES":711,"SysUtils":712,"Ġand":713,"HT":714,"ĠIHorseCore":715,"rm":716,"ender":717,"ĠACallback":718,"ush":719,"He":720,"FINED":721,"ĠDEFINED":722,"ations":723,"Route":724,"odu":725,"Ġ0":726,"ĠFM":727,"FPC":728,"ride":729,"Id":730,"ht":731,"Ġx":732,"cord":733,"ory":734,"ĠForm":735,"Time":736,"ĠTD":737,"Array":738,"ointer":739,"perty":740,"Un":741,"Thread":742,"ialogs":743,"ĠTObject":744,"Mode":745,"----------------":746,"ec":747,"OR":748,"ense":749,"odule":750,"Item":751,"tp":752,"vent":753,"ream":754,"clar":755,"ĠPublic":756,"ix":757,"}{$":758,"icense":759,"Ġread":760,"op":761,"clarations":762,"ware":763,"Reg":764,"+}<":765,"ibu":766,"Ġdeclarations":767,"JSONObject":768,")}<":769,"As":770,"BSwagger":771,"ĠPLua":772,"getClass":773,"Qu":774,"luaclass":775,"Ġoverride":776,"getClassObject":777,"Ġi":778,"art":779,"ĠGraphics":780,"word":781,"UI":782,"ser":783,"ĠFMX":784,"MO":785,"ff":786,"ox":787,"able":788,"ure":789,"ĠTC":790,"Ġwith":791,"Mess":792,"Types":793,"Ġor":794,"lient":795,"Api":796,"Controls":797,"ft":798,"eld":799,"top":800,"Ġ<":801,"dCtrls":802,"ĠLicense":803,"IT":804,"ĠAss":805,"ield":806,"act":807,"ĠTh":808,"Info":809,"Color":810,"Im":811,"ĠSt":812,"bel":813,"ages":814,"Ġwrite":815,"ustom":816,"ang":817,"add":818,"MODE":819,"api":820,"ort":821,"abel":822,"istribu":823,"push":824,"integer":825,"eb":826,"HTTP":827,"Ġg":828,"ource":829,"ren":830,"********************************":831,"reen":832,"Ġy":833,"Sc":834,"ram":835,"Stream":836,"Mem":837,"dit":838,"endif":839,"Text":840,"Module":841,"ifdef":842,"ĠControls":843,"ception":844,"ĠWin":845,"Field":846,"ĠTP":847,"ï¿½ï¿½":848,"Event":849,"mb":850,"ror":851,">;":852,"der":853,"ext":854,"Ġproperty":855,"pt":856,"ĠForms":857,"ĠĠĠĠĠĠĠĠĠĠĠĠĠĠĠĠ":858,"Ġwindows":859,"ants":860,"Ġdo":861,"Index":862,"Ġbe":863,"Sender":864,"yn":865,"ĠĠĠĠĠĠĠĠĠ":866,"DEF":867,"Ġex":868,"ĠIHorseCoreRoute":869,"AT":870,"ĠCreate":871,"ĠO":872,"Client":873,"Base":874,"ert":875,"ĠAssert":876,"ll":877,"Edit":878,"tic":879,"Ġthis":880,"ĠuniG":881,"01":882,"roup":883,"ĠGener":884,"andle":885,"Ġnot":886,"32":887,"ill":888,"ac":889,"tn":890,"Ġ+":891,"Date":892,"Handler":893,"oft":894,"Er":895,"Integer":896,"ĠWinapi":897,"Str":898,"ast":899,"he":900,"ong":901,"Ġst":902,"Model":903,"lay":904,"EST":905,"Ġr":906,"try":907,"ĠSet":908,"table":909,"Inter":910,"Head":911,"64":912,"Controller":913,"ĠThis":914,"ound":915,"oftware":916,"ary":917,"Intf":918,"anel":919,"xtCtrls":920,"Image":921,"uire":922,"res":923,"ĠDe":924,"Exception":925,"map":926,"out":927,"Bit":928,"ug":929,"vel":930,"son":931,"ttp":932,"ĠTL":933,"ount":934,"Ġfile":935,"uired":936,"Cons":937,"Ġprog":938,"ĠBGRA":939,"else":940,"Ġuse":941,"Button":942,"ariants":943,"Service":944,"tity":945,"Me":946,"Ġas":947,"gettop":948,"Ġdistribu":949,"ĠRe":950,"version":951,"isten":952,"Error":953,"Group":954,"DL":955,"list":956,"data":957,"ly":958,"Main":959,"Ġan":960,"Ġconstructor":961,"fp":962,"inc":963,"Par":964,"Ġvar":965,"IFDEF":966,"uff":967,"Ġcom":968,"ĠLua":969,"ĠuniGUI":970,"NU":971,"ĠTJSONObject":972,"..":973,"iti":974,"Message":975,"ore":976,"ost":977,"').":978,"AN":979,"IC":980,"Ġby":981,"Required":982,"Ġobj":983,"ister":984,"ne":985,"Ġv":986,"ĠStdCtrls":987,"ID":988,"ww":989,"____":990,"Box":991,"EL":992,"lphi":993,"vid":994,"UR":995,"oc":996,"ersion":997,"fpc":998,"ma":999,"rid":1000,"ĠGeneral":1001,"Ġprogram":1002,"ulta":1003,"rent":1004,"Consulta":1005,"elphi":1006,"ĠGNU":1007,"Stat":1008,"Gener":1009,"Ġ;<":1010,"alse":1011,"ĠUn":1012,"CL":1013,"ĠTF":1014,"Ġparam":1015,"ĠWindows":1016,"Byte":1017,"nil":1018,"Stan":1019,"ery":1020,"eng":1021,"lection":1022,"ave":1023,"ao":1024,"iv":1025,"ĠDialogs":1026,"ber":1027,"ĠOn":1028,"ength":1029,"ont":1030,"ĠCom":1031,"ĠREST":1032,"Ġobjfpc":1033,"mon":1034,"Ġversion":1035,"rom":1036,"own":1037,"App":1038,"Ġj":1039,"itial":1040,"Ġdelphi":1041,"Listen":1042,"ran":1043,"Query":1044,"Or":1045,"os":1046,"tain":1047,"eters":1048,"rocess":1049,"Coun":1050,"Provid":1051,"================":1052,"Mod":1053,"stro":1054,"Status":1055,"stroy":1056,"User":1057,"ard":1058,"cri":1059,"bug":1060,"Ġelse":1061,"ĠBoolean":1062,"nd":1063,"ĠTTest":1064,"idth":1065,"Provider":1066,"ouble":1067,"ĠTTestHorseCore":1068,"ho":1069,"ĠDelphi":1070,"Ġlist":1071,"Count":1072,"Ġrecord":1073,"Comp":1074,"New":1075,"Se":1076,"HorseParam":1077,"uffer":1078,"tra":1079,"elf":1080,"CE":1081,"Men":1082,"anv":1083,"Ġla":1084,"Controle":1085,"Router":1086,"ion":1087,"port":1088,"ance":1089,"INT":1090,"LP":1091,"Tree":1092,"thod":1093,"inal":1094,"Ġ*.":1095,">=":1096,"Ġon":1097,"ELSE":1098,"HI":1099,"ĠFree":1100,"anvas":1101,"LE":1102,"date":1103,"ĠTList":1104,"Params":1105,"Sh":1106,"text":1107,"ION":1108,"handler":1109,"pen":1110,"iew":1111,"Ġma":1112,"Graphics":1113,"ponent":1114,"nection":1115,"ĠTTestHorseCoreParam":1116,"AP":1117,"qual":1118,"essages":1119,"Code":1120,"DAO":1121,"ĠControle":1122,"Bitmap":1123,"Size":1124,"UT":1125,"put":1126,"ĠId":1127,"ĠValue":1128,"ĠTHorseCore":1129,"Log":1130,"ex":1131,"ĠX":1132,"ĠExtCtrls":1133,"Ġ.":1134,"Grid":1135,"fm":1136,"tim":1137,"Party":1138,"Ġus":1139,"ded":1140,"raw":1141,"Pair":1142,"Modal":1143,"://":1144,"ight":1145,"Ġsoftware":1146,"Serial":1147,"Handle":1148,"Equal":1149,"name":1150,"ish":1151,"Format":1152,"form":1153,"ĠĠĠĠĠĠ":1154,"ĠSe":1155,"Register":1156,"Memory":1157,"ld":1158,"oint":1159,"tual":1160,"antity":1161,"ĠPrivate":1162,"View":1163,"opy":1164,"address":1165,"ln":1166,"ĠSelf":1167,"ingle":1168,"Ġluaclass":1169,"Version":1170,"cted":1171,"Ġmem":1172,"ĠDELP":1173,"create":1174,"ĠDELPHI":1175,"can":1176,"pdate":1177,"ymb":1178,"Ġse":1179,"Collection":1180,"Interface":1181,"Are":1182,"Table":1183,"Ġcreate":1184,"ĠPlua":1185,"Dialogs":1186,"Man":1187,"com":1188,"gn":1189,"ork":1190,"ĠProcedure":1191,"Unit":1192,"ner":1193,"Windows":1194,"Forms":1195,"Ġyou":1196,">;<":1197,"Des":1198,"her":1199,"Quantity":1200,"GBSwagger":1201,"Web":1202,"frm":1203,"trol":1204,"reenode":1205,"Header":1206,"Ġdistributed":1207,"AreEqual":1208,"Us":1209,"--------------------------------":1210,"Ġparameters":1211,"Ġ3":1212,"ardinal":1213,"Is":1214,"SS":1215,"Win":1216,"bo":1217,"Ġget":1218,"umber":1219,"col":1220,"ĠRes":1221,"Ġtry":1222,"ĠMessages":1223,"Ġany":1224,"ited":1225,"chine":1226,"ymbol":1227,"Btn":1228,"Variants":1229,"co":1230,"ĠH":1231,"ĠEx":1232,"ĠTThread":1233,"ĠOne":1234,"No":1235,"emon":1236,"aemon":1237,"Ġthat":1238,"Serialize":1239,"count":1240,"uari":1241,"Ġwill":1242,"Ġdword":1243,"ĠTBGRA":1244,"bstr":1245,"ĠAs":1246,"bstract":1247,":<":1248,"TInt":1249,"Def":1250,"ise":1251,"ke":1252,"ĠFPC":1253,"Server":1254,"Uni":1255,"ge":1256,"etter":1257,"Ġfp":1258,"ĠCh":1259,"new":1260,"rame":1261,"ange":1262,"TForm":1263,"ĠIGBSwagger":1264,"herited":1265,"Au":1266,"size":1267,"JSONArray":1268,"Common":1269,"pec":1270,"Address":1271,"ĠDataSet":1272,"Menu":1273,"Obj":1274,"eck":1275,"key":1276,"val":1277,"Connection":1278,"Collections":1279,"DO":1280,"ide":1281,"Ġ\"":1282,"ĠJ":1283,"Ġinherited":1284,"Ġbetter":1285,"time":1286,"uario":1287,"CH":1288,"Ġset":1289,"Messages":1290,"DateTime":1291,"Method":1292,"Ġq":1293,"ĠTM":1294,"lete":1295,"Panel":1296,"ade":1297,"Ġpointer":1298,"ĠIHorseCoreGroup":1299,"TE":1300,"ĠFHorseParam":1301,"uld":1302,"Read":1303,"ome":1304,"Star":1305,"02":1306,"io":1307,"value":1308,"ĠTS":1309,"Ġfrm":1310,"lication":1311,"ĠbetterControls":1312,"),":1313,"Custom":1314,"Width":1315,"Ġal":1316,"Ġch":1317,"StdCtrls":1318,"ĠTGList":1319,"Char":1320,"pushinteger":1321,"layer":1322,")]<":1323,"Line":1324,"TY":1325,"oa":1326,"QL":1327,"TA":1328,"ltra":1329,"ĠTProc":1330,"ĠTfrm":1331,"ĠAN":1332,"Real":1333,"ltraStar":1334,"Not":1335,"rig":1336,"ign":1337,"Dis":1338,"az":1339,"evel":1340,"nel":1341,"ute":1342,"orld":1343,"elper":1344,"ĠWorld":1345,"ĠWorldParty":1346,"Mid":1347,"semb":1348,"ity":1349,"ook":1350,"tif":1351,"Ġme":1352,"ished":1353,"RE":1354,"Ġwh":1355,"Net":1356,"ven":1357,"ĠText":1358,"An":1359,"win":1360,"Ġcan":1361,"trix":1362,"ally":1363,"'}<":1364,"uint":1365,"tive":1366,"lect":1367,"ĠWeb":1368,"ANDL":1369,"ach":1370,"ms":1371,"Ġ^":1372,"unc":1373,"Ġsize":1374,"atch":1375,"urrent":1376,"CO":1377,"UL":1378,"boolean":1379,"rue":1380,"lib":1381,"Ġhttp":1382,"heck":1383,"Down":1384,"Matrix":1385,"Ġtreenode":1386,"Usuario":1387,">}<":1388,"pl":1389,"ĠTR":1390,"Debug":1391,"ager":1392,"ĠPro":1393,"Ġconst":1394,"ACallback":1395,"From":1396,"PO":1397,"Ġptr":1398,"ĠPointer":1399,"loat":1400,"ToString":1401,"ĠUni":1402,"itialize":1403,"Buffer":1404,"Update":1405,"ĠY":1406,"Ġimp":1407,"ĠTControle":1408,"tyle":1409,"ubl":1410,"Screen":1411,"ĠTLabel":1412,"Generic":1413,"11":1414,"ry":1415,"Ġcardinal":1416,"ĠFParams":1417,"ĠLCL":1418,"ĠButton":1419,"Start":1420,"cription":1421,"FF":1422,"fer":1423,"over":1424,"ĠFile":1425,"tointeger":1426,"Machine":1427,"ublished":1428,"box":1429,"ip":1430,"erdata":1431,"ator":1432,"Ph":1433,"TF":1434,"Ġ$":1435,"Ġpublished":1436,"Ġsingle":1437,"lock":1438,"http":1439,"MP":1440,"ock":1441,"ernel":1442,"Ġdata":1443,"lick":1444,"Timer":1445,"ames":1446,"ĠMa":1447,"hould":1448,")>=":1449,">.":1450,"IG":1451,"ĠGBSwagger":1452,"ĠRESTRequest":1453,"sembler":1454,"IL":1455,"ĠTUni":1456,"true":1457,"Ġnil":1458,"dle":1459,"nap":1460,"ĠTGBSwagger":1461,")).":1462,"ĠK":1463,"ĠDB":1464,"Ġsys":1465,"app":1466,"Font":1467,"mp":1468,"state":1469,"constructor":1470,"Ġnew":1471,"www":1472,"Click":1473,"dfm":1474,"Ġle":1475,"pushstring":1476,"dleware":1477,"Number":1478,"est":1479,"tract":1480,"Ġdar":1481,"essoa":1482,"Option":1483,"fig":1484,"ous":1485,"Ġsource":1486,"Ġbut":1487,"Util":1488,"Ġmod":1489,"APath":1490,"RO":1491,"Style":1492,"Record":1493,"emo":1494,"Ġunder":1495,"ĠTCustom":1496,"________":1497,"Manager":1498,"(<":1499,"Val":1500,"].":1501,"ĠEn":1502,"Ġobject":1503,"ecute":1504,"ORD":1505,"ere":1506,"ask":1507,"ESS":1508,"Label":1509,"cal":1510,"mo":1511,"work":1512,"ass":1513,"ool":1514,"ĠSee":1515,"Abstract":1516,"call":1517,"ĠTString":1518,"Ġhave":1519,"Height":1520,"tainer":1521,"right":1522,"pro":1523,"param":1524,"one":1525,"ĠTForm":1526,"Ġfree":1527,"acport":1528,"<>":1529,"HO":1530,"reg":1531,"Middleware":1532,"wner":1533,"Ġbyte":1534,"ĠĠĠĠĠĠĠĠĠĠĠ":1535,"atas":1536,"lied":1537,"ATER":1538,"ĠComCtrls":1539,"Phys":1540,"Ac":1541,"Function":1542,"Lo":1543,"Ta":1544,"md":1545,"ento":1546,"und":1547,"lement":1548,"umer":1549,"Ġwithout":1550,"ync":1551,"ANDLATER":1552,"Ġdarwin":1553,"ST":1554,"^.":1555,"mem":1556,"scan":1557,"tected":1558,"adi":1559,"ux":1560,"ĠDatas":1561,"Ġstd":1562,"ĠDatasnap":1563,"Pr":1564,"record":1565,"round":1566,"ant":1567,"Parent":1568,"urn":1569,"Frame":1570,"Http":1571,"Pointer":1572,"Process":1573,"Run":1574,"org":1575,"ĠVariants":1576,"GetValue":1577,"*<":1578,"SQL":1579,"cept":1580,"ueue":1581,"Resource":1582,"Check":1583,"ĠACallbacks":1584,"Ġimplied":1585,"Ġmodif":1586,"Ġ@":1587,"ĠDo":1588,"Ġdeta":1589,"Component":1590,"ĠTButton":1591,"Grids":1592,"TAB":1593,"10":1594,"Bar":1595,"pa":1596,"Ġwar":1597,"Ġprotected":1598,"SetValue":1599,"AddOr":1600,"istry":1601,"ART":1602,"AddOrSetValue":1603,"TObject":1604,"ipe":1605,"Ġter":1606,"Ġcopy":1607,"Ġred":1608,"control":1609,"DataSet":1610,"ither":1611,"ConsultaModal":1612,"ĠTGBSwaggerModel":1613,"bar":1614,"ets":1615,"Ġform":1616,"Ġreal":1617,"ĠNext":1618,"Commons":1619,"Free":1620,"»¿":1621,"ï»¿":1622,"ines":1623,"fault":1624,"ENT":1625,"Ġeither":1626,">{<":1627,",-":1628,"Ġmore":1629,"****************************************************************":1630,"Queue":1631,"json":1632,"tatable":1633,"ated":1634,"Ġdestructor":1635,"Ġyour":1636,"ï¿½ï¿½ï¿½ï¿½":1637,"Generics":1638,"Ġuserdata":1639,"Defs":1640,"Tit":1641,"];<":1642,"osi":1643,"Ġaddress":1644,"amp":1645,"Const":1646,"ĠNew":1647,"ĠDestroy":1648,"Ġptruint":1649,"FA":1650,"min":1651,"ĠRegister":1652,"Contract":1653,"ild":1654,"000":1655,"angua":1656,"Ġmetatable":1657,"Length":1658,"MS":1659,"ia":1660,"sum":1661,"Ġoption":1662,"Entry":1663,"istribute":1664,"Texture":1665,"ranty":1666,"ache":1667,"Ġstdcall":1668,"Ġredistribute":1669,"Json":1670,"TReal":1671,"false":1672,"gress":1673,"index":1674,"sed":1675,"ĠSoftware":1676,"Config":1677,"otkey":1678,"Back":1679,"ExtCtrls":1680,"NI":1681,"rary":1682,"lease":1683,"ings":1684,"vir":1685,"RAN":1686,"tent":1687,"Ġdistribution":1688,"Ġwarranty":1689,"Window":1690,"WORD":1691,"ils":1692,"ment":1693,"ĠFound":1694,"Ġshould":1695,"ĠWAR":1696,"ĠYou":1697,"ak":1698,"ugin":1699,"ceiv":1700,"ĠTHorseResponse":1701,"ĠTHorseRequest":1702,"FileName":1703,"Float":1704,"ful":1705,"ink":1706,"ĠTApi":1707,"assembler":1708,"Ġname":1709,"ibrary":1710,"Ġ201":1711,"ApiListen":1712,"ITHO":1713,"ĠANY":1714,"ĠWARRAN":1715,"ĠTApiTest":1716,"ITHOUT":1717,"'));<":1718,")=":1719,"Ra":1720,"WAR":1721,"Ġ);<":1722,"Ġra":1723,"ark":1724,"order":1725,"tify":1726,"ĠFoundation":1727,"GL":1728,"Ġ4":1729,"ĠCheck":1730,"ĠAp":1731,"ĠIf":1732,"ĠWITHOUT":1733,"ITY":1734,"With":1735,"ĠLaz":1736,"AddPair":1737,"ixel":1738,"Ġlater":1739,"Ġdetails":1740,"virtual":1741,"Helper":1742,"ME":1743,"ML":1744,"Port":1745,"Send":1746,"ope":1747,"ĠINT":1748,"les":1749,"Ġfin":1750,"ĠLResponse":1751,"ĠLabel":1752,"CHAN":1753,"();<":1754,"Lay":1755,"ite":1756,"Ġce":1757,"ĠAdd":1758,"Ġmacport":1759,"umn":1760,"SSL":1761,"Ġterms":1762,"Cad":1763,"LIC":1764,"MA":1765,"Ġ5":1766,"Ġ200":1767,"newClass":1768,"Ġsystem":1769,"anguage":1770,"Pessoa":1771,"turn":1772,"ution":1773,"ĠFOR":1774,"iction":1775,"raphic":1776,"Ġeven":1777,"Ġ*}<":1778,"Ġuseful":1779,"URL":1780,"API":1781,"Ġmodify":1782,"ĠWARRANTY":1783,"uti":1784,"Ġed":1785,"stance":1786,"view":1787,"Change":1788,"ĠTHorseCoreRoute":1789,"ĠXE":1790,"oper":1791,"ĠSta":1792,"amma":1793,"ick":1794,"Ġinter":1795,"Rect":1796,"Ġrefer":1797,"ĠUTF":1798,"================================":1799,"ILITY":1800,"Canvas":1801,"NESS":1802,"PY":1803,"Pl":1804,"VC":1805,"Ġall":1806,"ĠTA":1807,"titem":1808,"ĠFIT":1809,"eter":1810,"ĠPUR":1811,"ĠPART":1812,"ulo":1813,"istitem":1814,"image":1815,"ĠMER":1816,"char":1817,"Ġhope":1818,"abled":1819,"veloper":1820,"ICUL":1821,"POSE":1822,"TABILITY":1823,"WARN":1824,"Ġfinally":1825,"CHANTABILITY":1826,"ĠFITNESS":1827,"ĠPURPOSE":1828,"ĠPARTICUL":1829,"ĠMERCHANTABILITY":1830,"ĠPARTICULAR":1831,"86":1832,"Open":1833,"PA":1834,"code":1835,"ken":1836,"rs":1837,"ginal":1838,"agem":1839,"Ġnumer":1840,"Progress":1841,"Ġhere":1842,"Delete":1843,"Show":1844,"12":1845,"PT":1846,"RIG":1847,"ved":1848,"Ġtype":1849,"peed":1850,"Ġdis":1851,"Files":1852,"ĠNO":1853,"eco":1854,"Ġwriteln":1855,"ceived":1856,"velopers":1857,"')]<":1858,"not":1859,"ĠAll":1860,"Combo":1861,"rans":1862,"Notify":1863,"True":1864,"ict":1865,"ĠFunction":1866,"Stack":1867,"Registry":1868,"Ġgl":1869,"osition":1870,",'":1871,"Ġstruct":1872,"ĠTColor":1873,"Ini":1874,"ĠAValue":1875,"DataModule":1876,"ĠStart":1877,"ACallbacks":1878,"NotifyEvent":1879,"Cur":1880,"Cmd":1881,"IS":1882,"Page":1883,"bal":1884,"base":1885,"mand":1886,"ervice":1887,"itch":1888,"ulti":1889,"Content":1890,"////":1891,"imple":1892,"Ġtoo":1893,"End":1894,"Memo":1895,"ĠBGRABitmap":1896,"ĠLCLIntf":1897,"]);<":1898,"cam":1899,"iag":1900,"nal":1901,"witch":1902,"enses":1903,"ING":1904,"licenses":1905,"ized":1906,"ĠMen":1907,"Ġqword":1908,"************************************************************************":1909,"AS":1910,"All":1911,"ĠDouble":1912,"aption":1913,"ENSE":1914,"Entity":1915,"irst":1916,"Items":1917,"cript":1918,"ymbolhandler":1919,"LICENSE":1920,"utils":1921,"BO":1922,"GE":1923,"PE":1924,"roll":1925,"ull":1926,"ĠGame":1927,"olution":1928,"ImageList":1929,"Ġlaux":1930,"Ġlauxlib":1931,"')<":1932,"VER":1933,"ds":1934,"ĠStr":1935,"ĠCopy":1936,"ader":1937,"Ġreceived":1938,"Scan":1939,"Ġrs":1940,"Ġsee":1941,"Resources":1942,"RIGHT":1943,"And":1944,"gal":1945,"nt":1946,"ning":1947,"pop":1948,"tings":1949,"write":1950,"Ġinitialize":1951,"Context":1952,"Ġnames":1953,"Device":1954,"ualib":1955,"Ġits":1956,"Ġexit":1957,"ocal":1958,"Ġmemory":1959,"Description":1960,"Ġalong":1961,"ĠButtons":1962,"ĠFileUtil":1963,"ictionary":1964,"Func":1965,"GI":1966,"JNI":1967,"Of":1968,"file":1969,"mary":1970,"press":1971,"ĠTEdit":1972,"tid":1973,"Conn":1974,"Ġsyn":1975,"ĠUINT":1976,"ema":1977,"ToStr":1978,"ATION":1979,"FPath":1980,"GB":1981,"MENT":1982,"Post":1983,"Song":1984,"au":1985,"of":1986,"ĠSh":1987,"itmap":1988,"ĠDWORD":1989,"ĠEHorse":1990,"ĠTDate":1991,"ĠUnit":1992,"tains":1993,"FACE":1994,"icture":1995,"FHorseCore":1996,"Trans":1997,"ait":1998,"Ġ>":1999,"led":2000,"Ġlualib":2001,"ĠUltraStar":2002,"edid":2003,"ERFACE":2004,"Ġused":2005,"summary":2006,"Dog":2007,"{*<":2008,"Ġunit":2009,"tes":2010,"arao":2011,"itBtn":2012,"Ġout":2013,"ĠLResources":2014,"Ġdouble":2015,"Ġdevelopers":2016,"Struct":2017,"Application":2018,"ĠProperty":2019,"ĠKarao":2020,"ĠKaraoke":2021,"/>":2022,"Kernel":2023,"UltraStar":2024,"Word":2025,"cy":2026,"handle":2027,"line":2028,"who":2029,"ĠTStream":2030,"Ġfrom":2031,"ĠPlease":2032,"ĠList":2033,"Ġword":2034,"Ġno":2035,"Ġcontrol":2036,"Bytes":2037,"Ġmath":2038,"gnu":2039,"COPY":2040,"Ġlegal":2041,"MSI":2042,"Ġnumerous":2043,"ĠinitializeLua":2044,"/>.<":2045,"whose":2046,"COPYRIGHT":2047,"PL":2048,"ground":2049,"point":2050,"ĠTService":2051,"ĠFP":2052,"lose":2053,"irect":2054,"ĠTFrm":2055,"ĠOneHttp":2056,"ĠNOT":2057,"Daemon":2058,"Source":2059,"TC":2060,"lear":2061,"******":2062,"Ġsymbolhandler":2063,"vert":2064,"Ġ///":2065,"ĠAssign":2066,"Raise":2067,"Ġraise":2068,"windows":2069,"ĠTW":2070,"rout":2071,"asic":2072,"Input":2073,"ilter":2074,"Exten":2075,"The":2076,"Settings":2077,"System":2078,"irtual":2079,"13":2080,"Element":2081,"por":2082,"radi":2083,"Ġen":2084,"roid":2085,"ĠCE":2086,"Ġare":2087,"Ender":2088,"Ġexcept":2089,"Meta":2090,"Ġwhile":2091,"55":2092,"For":2093,"Le":2094,"Will":2095,"cod":2096,"no":2097,"sg":2098,"ues":2099,"Ġ}":2100,"ĠTInt":2101,"Ġsh":2102,"olor":2103,"ĠxJSONObject":2104,"Ġdataset":2105,"8601":2106,"Block":2107,"ni":2108,"po":2109,"reak":2110,"ĠTDAO":2111,"astro":2112,"Interfaces":2113,"iagram":2114,"KernelHandler":2115,"Draw":2116,"FHorseParam":2117,"bl":2118,"Ġtem":2119,"Ġat":2120,"error":2121,"thread":2122,"ĠLValue":2123,"JSONValue":2124,"One":2125,"Ġcommon":2126,"column":2127,"ĠTMD":2128,"MPLE":2129,"Tab":2130,"ĠTDateTime":2131,"At":2132,"Put":2133,"Ġapp":2134,"Ġvirtual":2135,"ascal":2136,"Ġowner":2137,"ĠVersion":2138,"lobal":2139,"Ġhe":2140,"TypeDefs":2141,"ĠTThreadProc":2142,"Ġfpjson":2143,"ĠApp":2144,"ĠEHorseException":2145,"))":2146,"rush":2147,"Ġ_":2148,"ĠTUser":2149,"ĠPost":2150,"Ġlistitem":2151,"clu":2152,"Ġcontainer":2153,"ĠTGMatrix":2154,"Max":2155,"assword":2156,"Cadastro":2157,"LResponse":2158,"Syn":2159,"tti":2160,"Ġtr":2161,"ĠTJSONArray":2162,"Ġpack":2163,"Instance":2164,"ĠPT":2165,"Ġmust":2166,"Team":2167,"Token":2168,"ody":2169,"Ġ10":2170,"NotRequired":2171,"ĠMenus":2172,"radient":2173,"WillRaise":2174,"par":2175,"Ġid":2176,"ĠHead":2177,"test":2178,"rim":2179,"DApt":2180,"settable":2181,"valid":2182,"overload":2183,"ĠStatic":2184,"ĠCopyright":2185,"MENTATION":2186,"ĠcommonTypeDefs":2187,"MPLEMENTATION":2188,"99":2189,"Iter":2190,"Pres":2191,"UN":2192,"dio":2193,"vic":2194,"ĠException":2195,"ref":2196,"row":2197,"cess":2198,"ĠPut":2199,"ĠDate":2200,"ĠIMPLEMENTATION":2201,"essage":2202,"PathResponse":2203,"----------------------------------------------------------------":2204,"Framework":2205,"Endereco":2206,"AL":2207,"Be":2208,"DP":2209,"Node":2210,"Next":2211,"bi":2212,"txt":2213,"ĠTest":2214,"Ġlast":2215,"Ġreg":2216,"Regist":2217,"heat":2218,"color":2219,"WithMessage":2220,"MetaData":2221,"201":2222,"202":2223,"Al":2224,"BGRA":2225,"SION":2226,"Tra":2227,"Use":2228,"ca":2229,"do":2230,"la":2231,"va":2232,"ĠZ":2233,"ich":2234,"Ġren":2235,"ĠLength":2236,"Ġwin":2237,"Ġoff":2238,"ĠInter":2239,"0000":2240,"addMetaData":2241,"proc":2242,"Titulo":2243,"Case":2244,"EX":2245,"Pixel":2246,"Virtual":2247,"gr":2248,"play":2249,"so":2250,"Ġstr":2251,"Ġtrue":2252,"erver":2253,"ĠTNew":2254,"arus":2255,"ĠAr":2256,"IFEND":2257,"ĠaId":2258,"register":2259,"witches":2260,"roidapi":2261,"Body":2262,"Find":2263,"Mask":2264,"NDEF":2265,"py":2266,"qu":2267,"sagem":2268,"wa":2269,"},":2270,"åĪ":2271,"ĠQ":2272,"Ġreturn":2273,"IFNDEF":2274,"ĠByte":2275,"Env":2276,"Them":2277,"Region":2278,"HTTPApp":2279,"VERSION":2280,"FuncProc":2281,"WillRaiseWithMessage":2282,"Ġrender":2283,"ADO":2284,"Fact":2285,"lf":2286,"low":2287,"Ġz":2288,"Ġ************************************************************************":2289,"arget":2290,"ĠAnd":2291,"Ġswitches":2292,"ĠĠĠĠĠĠĠĠĠĠĠĠĠ":2293,"Ġhas":2294,"Destroy":2295,"This":2296,"ORSE":2297,"ĠGenerics":2298,"Ġmax":2299,"exao":2300,"MachineLine":2301,"'s":2302,"oad":2303,"Ġtime":2304,"stream":2305,"ĠClass":2306,"Ġball":2307,"ĠĠĠĠĠĠĠĠĠĠĠĠ":2308,"atform":2309,"loc":2310,"Default":2311,"Command":2312,"ĠTHorseCallbackRequest":2313,"rency":2314,"BaseClasses":2315,"ĠuniGUIClasses":2316,"ĠuniGUITypes":2317,"ĠuniGUIBaseClasses":2318,"Ġmemo":2319,"ideString":2320,"________________":2321,"Ġballot":2322,"9000":2323,"Basic":2324,"TL":2325,"ptr":2326,"ined":2327,"ename":2328,"ĠTHandle":2329,"the":2330,"Copy":2331,"chema":2332,"arent":2333,"Only":2334,"ĠTDaemon":2335,"ĠINTERFACE":2336,"DS":2337,"Fa":2338,"Play":2339,"Player":2340,"Stop":2341,"UIF":2342,"WIN":2343,"byte":2344,"Ġtext":2345,"ermin":2346,"ente":2347,"Ġcurrent":2348,"ags":2349,"ĠLService":2350,"Ġ'';<":2351,"ization":2352,"Produ":2353,"Ġau":2354,"urar":2355,"ĠuniGUIF":2356,"tnrs":2357,"StrUtils":2358,"ĠuniGUIAbstract":2359,"Ġvalue":2360,"ĠfpHTTP":2361,"Login":2362,"vico":2363,"ĠuniGUIAbstractClasses":2364,"CS":2365,"Por":2366,"draw":2367,"iginal":2368,"ym":2369,"ĠKey":2370,"ans":2371,"ĠSDL":2372,"ĠService":2373,"ĠFId":2374,"Ġfalse":2375,"ĠPa":2376,"Created":2377,"pushboolean":2378,"Scroll":2379,"Ġlistcolumn":2380,"ĠMain":2381,"Ġinterface":2382,"ĠAndroidapi":2383,"24":2384,"AO":2385,"Mag":2386,"Nil":2387,"Per":2388,"TControle":2389,"dh":2390,"lugin":2391,"Ġar":2392,"ĠRouter":2393,"ĠStop":2394,"ĠFJSONObject":2395,"isi":2396,"ĠIm":2397,"ĠInt":2398,"ĠTGTree":2399,"ĠChar":2400,"ĠTGListIndex":2401,"ĠTControleConsultaModal":2402,"move":2403,"criptor":2404,"routine":2405,"=^":2406,"CGI":2407,"Dark":2408,"EG":2409,"VM":2410,"ov":2411,"Ġ#":2412,"ĠTrue":2413,"Ġreq":2414,"ĠLog":2415,"Top":2416,"igh":2417,"ĠExit":2418,"mpty":2419,"ĠBGRABitmapTypes":2420,"coding":2421,"False":2422,"IO":2423,"Icon":2424,"Oper":2425,"Ret":2426,"func":2427,"ition":2428,"arro":2429,"tribu":2430,"Ġsc":2431,"ĠItem":2432,"Servico":2433,"ĠControl":2434,"Ġcomp":2435,"Audio":2436,"pecial":2437,"Constants":2438,"ĠNewKernelHandler":2439,"ADODB":2440,"Caption":2441,"HORSE":2442,"Level":2443,"Pag":2444,"Pos":2445,"Point":2446,"Uint":2447,"WS":2448,"])":2449,"kernel":2450,"mount":2451,"Ġ/":2452,"ĠTNotifyEvent":2453,"thor":2454,"tail":2455,"Ġco":2456,"Ġcanvas":2457,"ĠFind":2458,"icon":2459,"ado":2460,"ector":2461,"trols":2462,"Ġbtn":2463,"ĠUScreen":2464,"Ġ''":2465,"Ġevent":2466,"ĠOFF":2467,"ĠRead":2468,"ĠSelect":2469,"Auto":2470,"Left":2471,"Registro":2472,"2021":2473,"(@":2474,"By":2475,"Multi":2476,"USE":2477,"custom":2478,"gu":2479,"ps":2480,"ä¸":2481,"rec":2482,"ĠTRequest":2483,"let":2484,"lected":2485,"anco":2486,"Ġpt":2487,"bjs":2488,"ĠAn":2489,"ĠAMiddleware":2490,"Ġjwa":2491,"Select":2492,"Descriptor":2493,"camento":2494,"Current":2495,"Ne":2496,"Sub":2497,"bs":2498,"dObject":2499,"oes":2500,"{<":2501,"erc":2502,"ĠTTree":2503,"Ġthread":2504,"ouse":2505,"Ġdebug":2506,"lip":2507,"Parameter":2508,"Exp":2509,"ĠConstructor":2510,"ĠxJSONArray":2511,"Ġ<>":2512,"dataset":2513,"UTF":2514,"InterfacedObject":2515,"cobjs":2516,"Printer":2517,"ComboBox":2518,"tidade":2519,"Iteration":2520,"DarkMode":2521,"04":2522,"AD":2523,"Symbol":2524,"TInterfacedObject":2525,"ies":2526,"now":2527,"rd":2528,"sor":2529,"Ġcheat":2530,"ĠCount":2531,"ĠPar":2532,"ĠLObject":2533,"ĠLRequest":2534,"Ġsome":2535,"ift":2536,"iler":2537,"Enabled":2538,"ĠuniButton":2539,"Ġtdataset":2540,">///":2541,"Parse":2542,"TYPE":2543,"ĠAND":2544,"Currency":2545,"CK":2546,"Dialog":2547,"Doc":2548,"Direct":2549,"FM":2550,"Null":2551,"Render":2552,"Write":2553,"],":2554,"cs":2555,"ep":2556,"pu":2557,"uk":2558,"Ġ>=":2559,"ongin":2560,"ĠTy":2561,"ĠFT":2562,"ĠPB":2563,"Ġindex":2564,"river":2565,"Ġlibrary":2566,"Ġwas":2567,"check":2568,"otNet":2569,"DBGrids":2570,"UITypes":2571,"acoes":2572,"ĠController":2573,"ongint":2574,"ED":2575,"Hotkey":2576,"Lib":2577,"LCL":2578,"MI":2579,"Pedid":2580,"RR":2581,"Speed":2582,"US":2583,"_:":2584,"dl":2585,"Ġ%":2586,"ĠTE":2587,"ĠProcess":2588,"Ġbase":2589,"('/":2590,"lign":2591,"Detail":2592,"ĠuniLabel":2593,"ected":2594,"ĠTCanvas":2595,"incip":2596,"Ġval":2597,"Objs":2598,"Options":2599,"yncObjs":2600,"amples":2601,"Background":2602,"ĠStaticP":2603,"PorId":2604,"Ġjwawindows":2605,"incipal":2606,",{$":2607,"AMiddleware":2608,"Dictionary":2609,"OL":2610,"Schema":2611,"yy":2612,"ence":2613,"ĠTMain":2614,"rop":2615,"Ġli":2616,"ists":2617,"Ġ';<":2618,"ĠMVC":2619,"ayout":2620,"tical":2621,"Ġsta":2622,"Orcamento":2623,"Manage":2624,"Ġedit":2625,"Ġsyncobjs":2626,"ilerVersion":2627,"ĠMVCFramework":2628,"ASS":2629,"Boolean":2630,"CT":2631,"Filter":2632,"RY":2633,"SA":2634,"TI":2635,"THTTP":2636,"action":2637,"ava":2638,"bets":2639,"iant":2640,"length":2641,"lfm":2642,"Ġuses":2643,"rect":2644,"Ġcal":2645,"Ġcheck":2646,"ĠfOn":2647,"ĠUser":2648,"Caller":2649,"ĠConvert":2650,"Encoding":2651,"Entidade":2652,"BitBtn":2653,"ancel":2654,"FormatSettings":2655,"component":2656,"pecif":2657,"Ġwhen":2658,"GenericList":2659,"memory":2660,"Structure":2661,"Factory":2662,"Operacoes":2663,"funcproc":2664,"()":2665,"():":2666,"Du":2667,"Double":2668,"IB":2669,"Min":2670,"Rtti":2671,"Solution":2672,"bout":2673,"item":2674,"ĠName":2675,"Ġ32":2676,"info":2677,"ĠTo":2678,"ĠTComponent":2679,"ther":2680,"ĠSpecial":2681,"duce":2682,"ĠCardinal":2683,"ĠDraw":2684,"ĠDaemon":2685,"Ġlp":2686,"ĠLast":2687,"Ġdestroy":2688,"ĠTPanel":2689,"ticle":2690,"RequiredMessage":2691,"max":2692,"owner":2693,"ĠExecute":2694,"ISO":2695,"ĠAssigned":2696,"Extended":2697,"Ġtemp":2698,"Ġwincontrol":2699,"ĠuniGUIForm":2700,"Pedido":2701,"\":":2702,"DClient":2703,"Host":2704,"Last":2705,"Simple":2706,"UA":2707,"mis":2708,"rit":2709,"Ġ,":2710,"ĠTMatrix":2711,"Ġprocess":2712,"tact":2713,"Ġcur":2714,"ĠFData":2715,"Coord":2716,"types":2717,"atS":2718,"Execute":2719,"Ġcontrols":2720,"ĠTGQueue":2721,"ĠuniPanel":2722,"ĠuniImageList":2723,"DBClient":2724,"defs":2725,"Async":2726,"ĠTCE":2727,"itialization":2728,"Ġonly":2729,"DOWS":2730,"ĠStartApiListen":2731,"Ġcheatcomponent":2732,"Ġstatic":2733,"ĠSpecialized":2734,"Banco":2735,"DatS":2736,"Found":2737,"Language":2738,"SDL":2739,"VE":2740,"gl":2741,"ject":2742,"pos":2743,"sender":2744,"ĠSize":2745,"Invalid":2746,"ormal":2747,"INF":2748,"Ġmov":2749,"ĠUse":2750,"Ġ');<":2751,"Paint":2752,"ComCtrls":2753,"SwagResponse":2754,"Mensagem":2755,"Title":2756,"writeln":2757,"ĠTWideString":2758,"Attribu":2759,"Alloc":2760,"ĠTWideStringField":2761,"Do":2762,"Demo":2763,"Driver":2764,"Game":2765,"Liv":2766,"ain":2767,"dll":2768,"ole":2769,"uction":2770,"initialization":2771,"ĠTData":2772,"start":2773,"ĠCO":2774,"ĠCds":2775,"struction":2776,"Contains":2777,"ssi":2778,"utput":2779,"ĠMS":2780,"ToTable":2781,"ared":2782,"Ġtarget":2783,"ĠTDis":2784,"ĠTPoint":2785,"resource":2786,"Mean":2787,"Ġjson":2788,"Handles":2789,"Running":2790,"Ġformat":2791,"AndNil":2792,"ĠCEFuncProc":2793,"refix":2794,"ParseJSONValue":2795,"ĠCdsConsulta":2796,"AValue":2797,"Close":2798,"Gamma":2799,"Pack":2800,"Position":2801,"Sock":2802,"TO":2803,"Up":2804,"last":2805,"pres":2806,"pchar":2807,"treenode":2808,"inish":2809,"enta":2810,"ĠTFile":2811,"stall":2812,"ĠSwag":2813,"Ġcase":2814,"ĠFrm":2815,"ular":2816,"Ġlong":2817,"Contact":2818,"Ġmodule":2819,"ĠVal":2820,"ĠMem":2821,"Ġunix":2822,"Procurar":2823,"ĠThe":2824,"mail":2825,"WinControl":2826,"override":2827,"ĠTStringList":2828,"Load":2829,"Principal":2830,"ĠLazarus":2831,"Ġstructure":2832,"WINDOWS":2833,"kernelhandler":2834,"ĠPBT":2835,"mission":2836,"Fl":2837,"Graphic":2838,"Hook":2839,"Map":2840,"Pipe":2841,"Round":2842,"TB":2843,"Tag":2844,"UP":2845,"hotkey":2846,"enter":2847,"destructor":2848,"ĠFOn":2849,"Ġinclu":2850,"ĠTHorseProvider":2851,"','":2852,"older":2853,"Ġ*<":2854,"ĠTBitBtn":2855,"angle":2856,"anged":2857,"Score":2858,"Reader":2859,"Ġchart":2860,"Ġalloc":2861,"ĠcontainerFont":2862,"Presentation":2863,"/(":2864,"25":2865,"Empty":2866,"FTP":2867,"Global":2868,"RI":2869,"Sec":2870,"TThread":2871,"ative":2872,"ove":2873,"ura":2874,"wnd":2875,"Ġtable":2876,"Ġpicture":2877,"gine":2878,"ĠDis":2879,"outs":2880,"Ġsu":2881,"Ġscan":2882,"Ġsdl":2883,"Objects":2884,"ĠUMenu":2885,"Tex":2886,"LuaVM":2887,"Che":2888,"ĠTDM":2889,"Ġreadln":2890,"Headers":2891,"ĠLuaHandler":2892,"ByteTable":2893,"RouterTree":2894,"Ġcreated":2895,"ĠTexture":2896,"Debugger":2897,"Active":2898,"ĠTGBSwaggerModelJSON":2899,"ildHandles":2900,"Layouts":2901,"ammaTable":2902,"Connect":2903,"isible":2904,"Duet":2905,"ildHandlesCreated":2906,"16":2907,"EM":2908,"Local":2909,"NO":2910,"['":2911,"bit":2912,"gor":2913,"ie":2914,"ied":2915,"mall":2916,"net":2917,"object":2918,"width":2919,"Ġ8":2920,"ĠRequiredMessage":2921,"erved":2922,"Ġcode":2923,"ession":2924,"Ġfound":2925,"ĠColor":2926,"ulation":2927,"Conexao":2928,"ĠsHTTP":2929,"Ġserver":2930,"DER":2931,"Ġmap":2932,"Ġmay":2933,"ĠUM":2934,"ĠUN":2935,"ĠĠĠĠĠĠĠĠĠĠ":2936,"Ġfunctions":2937,"ListBox":2938,"local":2939,"Ġne":2940,"Ġ['":2941,"ĠDataModule":2942,"ĠxId":2943,"AsString":2944,"Ġexception":2945,"Interval":2946,"ĠDelete":2947,"ĠComp":2948,"RouterItem":2949,"ULT":2950,"Valid":2951,"Tail":2952,"Ġcefuncproc":2953,"ĠControllers":2954,"ropDown":2955,"Livre":2956,"ĠsHTTPItem":2957,"03":2958,"Border":2959,"DY":2960,"Save":2961,"gra":2962,"ml":2963,"tal":2964,"red":2965,"ĠTim":2966,"ĠTControl":2967,"ash":2968,"Ġpchar":2969,"Ġcustom":2970,"ĠDes":2971,"Ġline":2972,"ĠLoad":2973,"ĠIs":2974,"ĠĠĠĠĠĠĠĠĠĠĠĠĠĠĠĠĠ":2975,"ating":2976,"Ġluahandler":2977,"Ġac":2978,"oly":2979,"eca":2980,"result":2981,"ĠuniGUIApplication":2982,"Section":2983,"ĠIdSSL":2984,"region":2985,"ample":2986,"////////":2987,"ledg":2988,"Ġpacked":2989,"nowledg":2990,"ĠMSWINDOWS":2991,"CC":2992,"LO":2993,"Nome":2994,"Row":2995,"Tem":2996,"Ver":2997,"XML":2998,"game":2999,"lta":3000,"me":3001,"oia":3002,"pipe":3003,"ron":3004,"tin":3005,"Ġæ":3006,"Ġel":3007,"Ġerror":3008,"ĠTJ":3009,"sem":3010,"ster":3011,"debug":3012,"Ġpo":3013,"Ġpar":3014,"ĠFC":3015,"ĠFalse":3016,"ĠFade":3017,"Ġfol":3018,"ĠUDAO":3019,"connection":3020,"ires":3021,"sign":3022,"Ġabstract":3023,"ume":3024,"ĠxDAO":3025,"ĠFreeAndNil":3026,"ĠTGListItem":3027,"Valor":3028,"pace":3029,"inkoia":3030,"erminate":3031,"Package":3032,"Ġfollow":3033,"+'":3034,"='":3035,"BA":3036,"Ca":3037,"Del":3038,"MVC":3039,"Wait":3040,"cur":3041,"ĠTArray":3042,"ĠTRect":3043,"arde":3044,"arch":3045,"des":3046,"itle":3047,"Ġinitial":3048,"Ġlc":3049,"Ġlog":3050,"Container":3051,"Ġsq":3052,"------":3053,"tocol":3054,"ĠBitBtn":3055,"Property":3056,"Ctrl":3057,"MainModule":3058,"ĠLuaClass":3059,"ĠTFD":3060,"Ġone":3061,"IsRunning":3062,"SQLQuery":3063,"Ġ2010":3064,"ĠApplication":3065,"pecific":3066,"/<":3067,"15":3068,"Amount":3069,"Best":3070,"OK":3071,"Sp":3072,"Side":3073,"TDataModule":3074,"WN":3075,"pk":3076,"};<":3077,"Ġ7":3078,"ĠTMemory":3079,"Ġpanel":3080,"Ġplugin":3081,"Ġfl":3082,"toboolean":3083,"ĠIPath":3084,"variant":3085,"ToInt":3086,"Ġhandle":3087,"ĠTDiagram":3088,"Ġbeen":3089,"Ġprogress":3090,"UserData":3091,"Anim":3092,"Ġhttpdefs":3093,"GET":3094,"ĠInternal":3095,"Fail":3096,"dhook":3097,")));<":3098,"14":3099,"Cate":3100,"MM":3101,"Names":3102,"Rate":3103,"Samples":3104,"TJSON":3105,"TCustom":3106,"ace":3107,"hon":3108,"latform":3109,"uf":3110,"Ġk":3111,"Ġim":3112,"Ġï¿½ï¿½ï¿½ï¿½":3113,"ĠTQueue":3114,"ties":3115,"Ġcall":3116,"ctr":3117,"icro":3118,"Ġfph":3119,"Init":3120,"Ġopen":3121,"ĠPatch":3122,"Ġinput":3123,"ĠLSQLQuery":3124,"Ġwork":3125,"ĠWrite":3126,"perties":3127,"FormInstance":3128,"GetFormInstance":3129,"ĠTDemo":3130,"ORM":3131,"Ġitem":3132,"sert":3133,"ĠObj":3134,"resh":3135,"ĠTLog":3136,"ErrorMessage":3137,"Ġcomponent":3138,"Ord":3139,"Shared":3140,"TElement":3141,"Ġnewkernelhandler":3142,"Theme":3143,"Ġauto":3144,"EGER":3145,"guarde":3146,"SpeedButton":3147,"resourcestring":3148,"Ġfollowing":3149,"Ġfphttp":3150,"200":3151,"</":3152,"AM":3153,"Clear":3154,"Dir":3155,"FI":3156,"Finish":3157,"REST":3158,"RGB":3159,"Sing":3160,"Six":3161,"]:=":3162,"for":3163,"iFiles":3164,"mt":3165,"pointer":3166,"Ġimage":3167,"tegr":3168,"ĠTT":3169,"ĠTtreenode":3170,"ĠTitle":3171,"self":3172,"Ġpa":3173,"Ġclasses":3174,"ĠCur":3175,"Ġold":3176,"riginal":3177,"Ġlb":3178,"ĠAP":3179,"ĠAl":3180,"Ġsa":3181,"Ġbuffer":3182,"Ġdm":3183,"idi":3184,"ilename":3185,"usic":3186,"log":3187,"ĠMD":3188,"SER":3189,"DBGrid":3190,"ĠTDictionary":3191,"ORT":3192,"AsDateTime":3193,"ffset":3194,"Ġoriginal":3195,"Ġgraphic":3196,"ĠOK":3197,"Ġradi":3198,"ErrorFormat":3199,"ĠLuaObject":3200,"StatusCode":3201,"Display":3202,"ĠptrUint":3203,"mplayer":3204,"parameters":3205,"ĠINTEGER":3206,"OpenSSL":3207,"Scanner":3208,"ĠTGMatrixIndex":3209,"DPI":3210,"ĠImage":3211,"ĠTEMSI":3212,"ĠIdSSLOpenSSL":3213,"tinue":3214,"honson":3215,"']<":3216,"100":3217,"Aguarde":3218,"DI":3219,"DFM":3220,"Gradient":3221,"Match":3222,"SC":3223,"Tick":3224,"Vector":3225,"YZ":3226,"parent":3227,"que":3228,"Ġ6":3229,"Ġta":3230,"return":3231,"ĠTMethod":3232,"ĠTcustom":3233,"Ġpen":3234,"ĠAu":3235,"Ġso":3236,"Ġsum":3237,"ackbar":3238,"ĠVER":3239,"Ġdevice":3240,"ListHandler":3241,"ĠMA":3242,"liente":3243,"Exists":3244,"ToCE":3245,"urity":3246,"SysInfo":3247,"ĠRun":3248,"ĠEdit":3249,"UID":3250,"ffff":3251,"Colors":3252,"Ġstart":3253,"ĠSetLength":3254,"Buttons":3255,"ĠReal":3256,"ĠCombo":3257,"Note":3258,"Ġsizeof":3259,"ĠEncode":3260,"Docum":3261,"ĠDescription":3262,"Ġprogressbar":3263,"ToCEUserData":3264,"$<":3265,"'t":3266,"))}<":3267,"06":3268,"BJ":3269,"MBO":3270,"Msg":3271,"PG":3272,"PAT":3273,"bter":3274,"cbi":3275,"dis":3276,"fl":3277,"free":3278,"gon":3279,"gle":3280,"ier":3281,"ker":3282,"oto":3283,"sh":3284,"xJSONObject":3285,"tex":3286,"ented":3287,"ĠTe":3288,"ĠTOne":3289,"Ġper":3290,"Ġcv":3291,"Rec":3292,"elp":3293,"imal":3294,"ower":3295,"ĠĠĠĠĠĠĠĠĠĠĠĠĠĠ":3296,"apache":3297,"ĠIndex":3298,"Ġprodu":3299,"ĠContnrs":3300,"Strings":3301,"urface":3302,"Article":3303,"ĠTBack":3304,"ĠTDog":3305,"ĠRef":3306,"ĠIdHTTP":3307,"Ġchar":3308,"RealQuantity":3309,"NotFound":3310,"Disassembler":3311,"tific":3312,"ĠLCLType":3313,"Pagar":3314,"ĠParse":3315,"Directory":3316,"goria":3317,"Categoria":3318,"09":3319,"=\"":3320,"CF":3321,"Ext":3322,"Lines":3323,"Ptr":3324,"PORT":3325,"Vari":3326,"els":3327,"host":3328,"hwnd":3329,"mi":3330,"message":3331,"pas":3332,"pack":3333,"{\"":3334,"ĠON":3335,"ĠHTTP":3336,"intro":3337,"onym":3338,"ĠTH":3339,"ĠTRouter":3340,"ĠTrim":3341,"tis":3342,"tit":3343,"stin":3344,"ĠSY":3345,"ĠSc":3346,"endar":3347,"ĠFSwagger":3348,"Ref":3349,"Remove":3350,"ĠLList":3351,"ĠLibrary":3352,"Ġsi":3353,"Ġsl":3354,"ement":3355,"ĠBO":3356,"ĠBevel":3357,"chron":3358,"Static":3359,"Ġabout":3360,"Ġprovi":3361,"Enum":3362,"Dec":3363,"Setup":3364,"model":3365,"ixa":3366,"AsInteger":3367,"Ġrun":3368,"ControleMainModule":3369,"IsTrue":3370,"Midi":3371,"Ġdisassembler":3372,"Begin":3373,"cale":3374,"ĠArray":3375,"ĠPaint":3376,"ritten":3377,"Security":3378,"ĠCompilerVersion":3379,"olygon":3380,"semble":3381,"tegrity":3382,"introduce":3383,"onymous":3384,"chronize":3385,"20":3386,">)<":3387,"Bets":3388,"Patch":3389,"UE":3390,"da":3391,"gh":3392,"vat":3393,"Ġdu":3394,"Ġem":3395,"ĠTMenu":3396,"ĠTScreen":3397,"assemble":3398,"ĠSyn":3399,"ĠShould":3400,"ĠFont":3401,"Initialize":3402,"ĠlController":3403,"ped":3404,"Ġreintroduce":3405,"ĠLDog":3406,"ĠGL":3407,"ĠGR":3408,"Ġmode":3409,"ĠUpdate":3410,"ĠĠĠĠĠĠĠĠĠĠĠĠĠĠĠ":3411,"andom":3412,"pha":3413,"user":3414,"userdata":3415,"--------------":3416,"old":3417,"ĠTGSet":3418,"ĠTGStack":3419,"CreateAn":3420,"Ġ11":3421,"ĠTBevel":3422,"ĠTHorseCallbackResponse":3423,"defined":3424,"Ġxmplayer":3425,"ï¿½ï¿½ï¿½":3426,"lyph":3427,"RouterManage":3428,"Desc":3429,"pectation":3430,"Ġhttps":3431,"RecordNumber":3432,"mote":3433,"member":3434,"Transaction":3435,"edida":3436,"reakpoint":3437,"TituloCategoria":3438,"Ġ******************************************************************************":3439,"ĠTHorseCallbackRequestResponse":3440,"lette":3441,"Documento":3442,"MBOL":3443,"ĠSYMBOL":3444,"onymousThread":3445,"vatar":3446,"CreateAnonymousThread":3447,").<":3448,">(":3449,"Action":3450,"ADER":3451,"BD":3452,"Delphi":3453,"FT":3454,"Frm":3455,"SyncObjs":3456,"aProc":3457,"gram":3458,"sUse":3459,"xx":3460,"}']<":3461,"Ġadd":3462,"Ġtest":3463,"inition":3464,"etwork":3465,"amento":3466,"Ġfind":3467,"ĠPanel":3468,"Ġinline":3469,"Ġldd":3470,"ell":3471,"Ġservice":3472,"ĠID":3473,"Ġmt":3474,"edit":3475,"ĠMag":3476,"otal":3477,"Enter":3478,"ĠFormCreate":3479,"opulation":3480,"AsCurrency":3481,"MOD":3482,"ĠĠĠĠĠĠĠĠĠĠĠĠĠĠĠĠĠĠ":3483,"ĠĠĠĠĠĠĠĠĠĠĠĠĠĠĠĠĠĠĠĠĠĠ":3484,"BaseURL":3485,"HandlerUnit":3486,"oundList":3487,"ExceptionHandler":3488,"ĠTLayout":3489,"AppsUse":3490,"ĠXML":3491,"ĠMath":3492,"Ġsysutils":3493,"ĠApache":3494,"pose":3495,"Socket":3496,"ĠUMusic":3497,"localhost":3498,"Ġ['{":3499,"Caixa":3500,"tistic":3501,"stination":3502,"ĠShouldAppsUse":3503,"ĠShouldAppsUseDarkMode":3504,")}":3505,"44":3506,"Ad":3507,"Ass":3508,"Align":3509,"CON":3510,"Fmt":3511,"Medida":3512,"Over":3513,"Session":3514,"]));<":3515,"cer":3516,"dy":3517,"ga":3518,"ha":3519,"nam":3520,"panel":3521,"tc":3522,"vance":3523,"only":3524,"ĠTLua":3525,"ĠTHTTP":3526,"ĠTMemo":3527,"orno":3528,"arType":3529,"arDown":3530,"ceuserdata":3531,":='":3532,"Ġcpu":3533,"ĠFirst":3534,"ĠCustom":3535,"ador":3536,"adio":3537,"Ġinstall":3538,"Ġlength":3539,"rays":3540,"istory":3541,"toceuserdata":3542,"Ġbutton":3543,"ows":3544,"ĠUs":3545,"Ġ',":3546,"omain":3547,"idade":3548,"blem":3549,"otto":3550,"TestCase":3551,"ĠuniBitBtn":3552,"Changed":3553,"AsTime":3554,"AsDate":3555,"AsFloat":3556,"AsISO":3557,"AsExtended":3558,"service":3559,"ĠTCI":3560,"ApiPort":3561,"Scri":3562,"ĠOutput":3563,"header":3564,"Ġstop":3565,"ĠDestructor":3566,"ored":3567,"Ġjni":3568,"Listens":3569,"Ġlistbox":3570,"ĠControleConsultaModal":3571,"Ġuser":3572,"WebB":3573,"ryp":3574,"MachineQuantity":3575,"application":3576,"recordhotkey":3577,"123":3578,"JNIEnv":3579,"ports":3580,"quiv":3581,"ptruint":3582,"TControleConsultaModal":3583,"ĠStopApiListen":3584,"ByName":3585,"ĠAnsi":3586,"ĠProcessHandlerUnit":3587,"ĠTMainService":3588,"TJSONPair":3589,"Ġproduct":3590,"ApiPortListens":3591,"')":3592,")^.":3593,"255":3594,"=(":3595,"Brush":3596,"Cam":3597,"Dif":3598,"GRO":3599,"Long":3600,"Mouse":3601,"NE":3602,"Owner":3603,"Qry":3604,"Sen":3605,"UB":3606,"Vcl":3607,"ax":3608,"dw":3609,"fter":3610,"fined":3611,"mod":3612,"module":3613,"part":3614,"tl":3615,"è¿":3616,"Ġ,<":3617,"tep":3618,"entific":3619,"ĠTRe":3620,"ĠTDataModule":3621,"sect":3622,"select":3623,"roker":3624,"Ġpart":3625,"Ġcl":3626,"ĠPassword":3627,"tostring":3628,"Ġmen":3629,"ĠULua":3630,"ĠUPath":3631,"ĠVarType":3632,"ĠWord":3633,"Ġdes":3634,"utor":3635,"Project":3636,"Properties":3637,"ogroup":3638,"ĠInc":3639,"Exec":3640,"ToFile":3641,"PClient":3642,"ĠRGB":3643,"Ġ27":3644,"ersisten":3645,"Ġgame":3646,"ModuleName":3647,"ĠTPage":3648,"Events":3649,"ĠSetWindow":3650,"Internal":3651,"main":3652,"Ġparamcount":3653,"Search":3654,"formation":3655,"WebModule":3656,"Iso":3657,"ĠChildHandlesCreated":3658,"Ġmethod":3659,"DebugString":3660,"Accept":3661,"ĠShow":3662,"Themes":3663,"Playlist":3664,"Ġrequired":3665,"SAF":3666,"INFO":3667,"ctrls":3668,"ottom":3669,"WebBroker":3670,"##":3671,"08":3672,"Atual":3673,"Bl":3674,"Can":3675,"Cap":3676,"Carro":3677,"NT":3678,"OS":3679,"SP":3680,"Work":3681,"XT":3682,"brd":3683,"cao":3684,"dword":3685,"lp":3686,"macport":3687,"vm":3688,"ĠReq":3689,"ĠTIn":3690,"ĠTSet":3691,"ĠTUpdate":3692,"orrect":3693,"tick":3694,"leted":3695,"anded":3696,"destroy":3697,"Ġpk":3698,"Ġposition":3699,"ĠFid":3700,"ĠFJSON":3701,"estion":3702,"ĠCancel":3703,"ĠParam":3704,"ĠPJNIEnv":3705,"ada":3706,"isa":3707,"Ġspecific":3708,"Ġbitmap":3709,"imum":3710,"Ġdialogs":3711,"ĠIResponse":3712,"ĠSystems":3713,"ĠUIni":3714,"ĠUThemes":3715,"Stuff":3716,"persion":3717,"Extra":3718,"Ġhelper":3719,"ĠTGC":3720,"ĠuniEdit":3721,"ddress":3722,"Ġuint":3723,"Ġ13":3724,"ĠRT":3725,"Heap":3726,"odul":3727,"ebox":3728,"Ġexecute":3729,"ĠOBJ":3730,"Erro":3731,"GroupBox":3732,"ĠTFont":3733,"CEP":3734,"Ġqu":3735,"Ġtreenodes":3736,"ĠFileName":3737,"ildren":3738,"icker":3739,"ĠStrToInt":3740,"Extension":3741,"Ġheader":3742,"ĠDateUtils":3743,"ĠaIdentific":3744,"ĠrenderContainer":3745,"Copyright":3746,"Permission":3747,"lipbrd":3748,"ukebox":3749,"ValorUn":3750,"ĠTDiagramBlock":3751,"Ġimg":3752,"ĠOKBtn":3753,"ĠRealQuantity":3754,"ĠBOOL":3755,"Script":3756,"rypto":3757,"ĠaIdentificador":3758,")+":3759,"+}":3760,"Final":3761,"First":3762,"FORM":3763,"IP":3764,"LA":3765,"My":3766,"PRO":3767,"Pool":3768,"Pascal":3769,"RES":3770,"Self":3771,"TList":3772,"cd":3773,"dm":3774,"pm":3775,"rx":3776,"single":3777,"td":3778,"yr":3779,"ĠTDB":3780,"ĠTEvent":3781,"ĠTImage":3782,"ĠTError":3783,"ĠTDataSet":3784,"ĠTJson":3785,"ĠTJSONValue":3786,"argin":3787,"Ġct":3788,"icode":3789,"ates":3790,"aders":3791,"Ġinc":3792,"Ġlbl":3793,"cknowledg":3794,"ĠGammaTable":3795,"stringlist":3796,"Ġdraw":3797,"Ġnum":3798,"Ġnetwork":3799,"ĠBase":3800,"ĠBuffer":3801,"ĠModule":3802,"Statistic":3803,"olume":3804,"Apache":3805,"DBCtrls":3806,"defines":3807,"ĠTDotNet":3808,"UnMedida":3809,"opup":3810,"AsStream":3811,"Console":3812,"ĠRemember":3813,"Compress":3814,"Separ":3815,"WebPage":3816,"ĠTBGRABitmap":3817,"ĠChart":3818,"ĠJObject":3819,"ĠTMy":3820,"NetEncoding":3821,"================================================================":3822,"Plugin":3823,"PTR":3824,"ĠStrUtils":3825,"Ġmemoryrecordhotkey":3826,"pression":3827,"Connected":3828,"Ġoutput":3829,"SynEdit":3830,"Ġtrackbar":3831,"Ġpackage":3832,"parser":3833,"NextProc":3834,"Retorno":3835,"Ġcompile":3836,"THTTPStatus":3837,"ĠConvertErrorMessage":3838,"items":3839,"DriverL":3840,"Cheat":3841,"Ġfoundlist":3842,"ĠUNSAF":3843,"Ġradiogroup":3844,"PATH":3845,"GROUP":3846,"ĠOBJFPC":3847,"cknowledgement":3848,"Separator":3849,"ĠUNSAFE":3850,".');<":3851,"Brid":3852,"Center":3853,"DX":3854,"Fix":3855,"Ginkoia":3856,"HANDL":3857,"Procedure":3858,"Password":3859,"Peca":3860,"Worse":3861,"ef":3862,"iated":3863,"just":3864,"lator":3865,"pInfo":3866,"rt":3867,"wo":3868,"ªå":3869,"Ġte":3870,"Ġroutine":3871,"inary":3872,"ĠTf":3873,"tial":3874,"ĠSave":3875,"ĠSimple":3876,"Ġlocal":3877,"Rest":3878,"Continue":3879,"ĠGrid":3880,"imStuff":3881,"ĠIt":3882,"Ġmis":3883,"ĠULog":3884,"ĠUCS":3885,"oom":3886,"cond":3887,"Ġnumber":3888,"ump":3889,"ClassFunction":3890,"Ġupdate":3891,"Column":3892,"SwagParam":3893,"Chx":3894,"ĠEd":3895,"irc":3896,"ĠTCarro":3897,"Ġ</":3898,"addClassFunction":3899,"************************************************":3900,"ressed":3901,"Ġlaz":3902,"ĠTListByte":3903,"penv":3904,"ĠTBGRACustom":3905,"Aux":3906,"Auth":3907,"oaded":3908,"ĠTextP":3909,"ĠTRender":3910,"ĠTREST":3911,"ĠUniLabel":3912,"ĠTUniLabel":3913,"ĠTStrings":3914,"Layout":3915,"ĠXEANDLATER":3916,"WARNING":3917,"ProgressBar":3918,"ĠShift":3919,"ĠApply":3920,"Pressed":3921,"Neo":3922,"IterationMean":3923,"SimpleMachineLine":3924,"Attributes":3925,"method":3926,"BASE":3927,"tegrityCheck":3928,"ĠOutputDebugString":3929,"Bridge":3930,"addClassFunctionToTable":3931,"((":3932,"))<":3933,"Cv":3934,"FC":3935,"Four":3936,"Fade":3937,"High":3938,"None":3939,"Normal":3940,"PEnv":3941,"Right":3942,"Surface":3943,"button":3944,"db":3945,"fb":3946,"hts":3947,"ient":3948,"listitem":3949,"mm":3950,"pixel":3951,"rl":3952,"sock":3953,"Ġ('":3954,"Ġrig":3955,"ĠTSh":3956,"**<":3957,"arn":3958,"ces":3959,"Ġplayer":3960,"ĠFName":3961,"ĠFAmount":3962,"lash":3963,"Ġfont":3964,"ĠClient":3965,"Ġother":3966,"ĠPChar":3967,"ĠDeb":3968,"ĠLong":3969,"Ġsame":3970,"ĠIPL":3971,"DEV":3972,"ĠWIN":3973,"ĠMemo":3974,"Envi":3975,"Ġcontains":3976,"ĠuniBasic":3977,"ĠuniSpeedButton":3978,"ĠuniDBGrid":3979,"AddElement":3980,"ĠRender":3981,"ĠGetMemory":3982,"ĠEMSI":3983,"ĠNo":3984,"Assembler":3985,"ffect":3986,"Ġgraphics":3987,"ĠĠĠĠĠĠĠĠĠĠĠĠĠĠĠĠĠĠĠĠĠ":3988,"ĠOpen":3989,"ĠObter":3990,"ĠTLanguage":3991,"nex":3992,"CLASS":3993,"Selected":3994,"exception":3995,"exports":3996,"ĠIGBSwaggerPathResponse":3997,"Ġchange":3998,"place":3999,"POST":4000,"Styles":4001,"Functions":4002,"path":4003,"Layer":4004,"Platform":4005,"ause":4006,"ĠTTreeNode":4007,"Expanded":4008,"Tailles":4009,"Ġpath":4010,"--------------<":4011,"Assign":4012,"ĠModuleName":4013,"ĠGrids":4014,"ĠuniBasicGrid":4015,"\"}":4016,")*":4017,"Bet":4018,"CPanel":4019,"Ctxt":4020,"DTO":4021,"Java":4022,"Mon":4023,"MAP":4024,"Out":4025,"Picker":4026,"SO":4027,"TH":4028,"Too":4029,"TMenu":4030,"TDaemon":4031,"Terminate":4032,"WMI":4033,"ab":4034,"buffer":4035,"dr":4036,"dx":4037,"dialog":4038,"ias":4039,"ki":4040,"ping":4041,"rint":4042,"¼Į":4043,"Ðµ":4044,"ï¼Į":4045,"ĠQuery":4046,"ĠRegistry":4047,"erent":4048,"repres":4049,"ĠTMem":4050,"original":4051,"til":4052,"thing":4053,"ĠSM":4054,"ĠSp":4055,"ĠSong":4056,"tach":4057,"taddress":4058,"ĠFL":4059,"ication":4060,"tered":4061,"ĠCURL":4062,"ĠPascal":4063,"ĠDO":4064,"Ġinit":4065,"ĠAc":4066,"rap":4067,"pect":4068,"ĠLId":4069,"ĠLtd":4070,"client":4071,"Ġwide":4072,"INDY":4073,"Ġdiagram":4074,"ĠUTexture":4075,"ĠUSong":4076,"atus":4077,"edi":4078,"gettable":4079,"ordin":4080,"Ġnext":4081,"Protocol":4082,"Expectation":4083,"Ġtotal":4084,"ToByteTable":4085,"Ġeach":4086,"ĠTGStream":4087,"ĠTGPair":4088,"ĠTGDictionary":4089,"CreateApi":4090,"Ġup":4091,"Ġ16":4092,"ĠGetSize":4093,"ĠTBitmap":4094,"erson":4095,"AsInt":4096,"AsBoolean":4097,"ĠThread":4098,"Fields":4099,"Ġexpress":4100,"Ġassign":4101,"URI":4102,"Ġjust":4103,"Modif":4104,"ĠFreeMemory":4105,"exe":4106,"format":4107,"bobox":4108,"ymbolListHandler":4109,"ĠTBGRAReader":4110,"REC":4111,"StartApiListen":4112,"IGN":4113,"Access":4114,"OpenGL":4115,"ĠOneHttpController":4116,"ĠOneHttpCtxt":4117,"Ġ****************************************************************************":4118,"________________________________":4119,"bytes":4120,"AOwner":4121,"ĠTGTreeNode":4122,"ĠUScreenParty":4123,"reciated":4124,"ercado":4125,"ĠxJSONArrayAux":4126,"Libre":4127,"Ġvalues":4128,"CTION":4129,"Ġlongword":4130,"ĠTimer":4131,"regions":4132,"ĠInternalListen":4133,"FILE":4134,"SixP":4135,"ĠHTTPDefs":4136,"quivo":4137,"Diferent":4138,"ersistent":4139,"ĠTUpdateStatus":4140,"ValorUnAtual":4141,"ĠTErrorLevel":4142,"ĠnetworkInterface":4143,"cknowledgementCmd":4144,"WARNINGS":4145,"Ġrights":4146,"ĠDebug":4147,"nexion":4148,"represented":4149,"Ġwidestring":4150,"ĠOneHttpCtxtResult":4151,"DiferentCase":4152,"'+":4153,"',<":4154,"21":4155,"Dbl":4156,"FX":4157,"Folder":4158,"LFile":4159,"MD":4160,"Sto":4161,"THorse":4162,"Total":4163,"UM":4164,"cul":4165,"ding":4166,"eded":4167,"gf":4168,"hack":4169,"ob":4170,"ossi":4171,"rc":4172,"sC":4173,"sys":4174,"åĲ":4175,"Ġï¿½":4176,"Ġtim":4177,"ĠTlistitem":4178,"level":4179,"delphi":4180,"Ġpoint":4181,"ĠSQL":4182,"Ġclient":4183,"ĠFParent":4184,"ĠFDescription":4185,"iter":4186,"Ġfre":4187,"Ġinto":4188,"Ġ=$":4189,"Ġlicense":4190,"aging":4191,"alloc":4192,"Ġmsg":4193,"ĠUDisplay":4194,"Ġ');":4195,"ĠMove":4196,"Prop":4197,"lite":4198,"Export":4199,"Ġtop":4200,"Engine":4201,"ibows":4202,"Ġ25":4203,">//<":4204,"Timeout":4205,"server":4206,"Ġgb":4207,"Ġgiv":4208,"ĠTPointer":4209,"DateUtils":4210,"height":4211,"resses":4212,"ĠLuaCaller":4213,"Ġparameter":4214,"Ġusing":4215,"ModalResult":4216,"atcher":4217,"COD":4218,"plit":4219,"ĠUniEdit":4220,"rypt":4221,"ryGetValue":4222,"ference":4223,"ĠTUniEdit":4224,"ĠEnd":4225,"ipeConnection":4226,"PAvatar":4227,"PTION":4228,"ĠTUserController":4229,"------------------------------------------------------------------------------<":4230,"lative":4231,"Produto":4232,"Ġauthor":4233,"ContainsKey":4234,"Uptime":4235,"AMMA":4236,"ĠMAX":4237,"Decimal":4238,"vanced":4239,"adioGroup":4240,"Ġmenu":4241,"ĠRGBTo":4242,"Ġmisrepresented":4243,"ibowski":4244,"EC":4245,"FP":4246,"Gu":4247,"Ign":4248,"Library":4249,"LIB":4250,"SY":4251,"Sv":4252,"TString":4253,"Tour":4254,"TUni":4255,"Tool":4256,"Url":4257,"Visible":4258,"WM":4259,"bitmap":4260,"ci":4261,"clear":4262,"dir":4263,"ik":4264,"ive":4265,"pi":4266,"process":4267,"uc":4268,"used":4269,"xId":4270,"ä»":4271,"Ġad":4272,"ĠUti":4273,"ĠReg":4274,"inux":4275,"tegra":4276,"ĠTStatus":4277,"ĠTWinControl":4278,"ĠTNextProc":4279,"orage":4280,"tivate":4281,"taires":4282,"ĠFResponse":4283,"ĠFname":4284,"itor":4285,"Ġfield":4286,"Cool":4287,"Ġint":4288,"Ġinfo":4289,"ĠAPath":4290,"ĠAimStuff":4291,"peg":4292,"Contnrs":4293,"ĠLongint":4294,"Ġsup":4295,"owDarkMode":4296,"Ġmr":4297,"ĠInitial":4298,"ĠInitialize":4299,"ligh":4300,"litaires":4301,"Parameters":4302,"ĠConexao":4303,"ToJSON":4304,"reeview":4305,"RAM":4306,"Arrow":4307,"Ġtp":4308,"Ġtpoint":4309,"ĠTByte":4310,">{%":4311,"Hex":4312,"Unicode":4313,"ĠTObjectList":4314,"ĠTClient":4315,"pushvariant":4316,"ATE":4317,"ĠOra":4318,"tically":4319,"matically":4320,"CEPTION":4321,"ELSEIF":4322,"LETE":4323,"ĠTListBox":4324,"Ġmachine":4325,"Webcam":4326,"TEXT":4327,"Disassemble":4328,"Ġwhich":4329,"Network":4330,"ĠMax":4331,"Components":4332,"EntryArray":4333,"Ġedt":4334,"PACK":4335,"ĠAllowDarkMode":4336,"Cursor":4337,"ĠOneHttpRouterManage":4338,"ForWindow":4339,"TabControl":4340,"Ġlistitems":4341,"Ġregistry":4342,"2012":4343,"Ġreturns":4344,"ymhandler":4345,"Pagamento":4346,"Registros":4347,"USES":4348,"IterationResult":4349,"iftState":4350,"Ġbased":4351,"InvalidFormat":4352,"ĠTDataStream":4353,"ĠMemory":4354,"SaveToFile":4355,"Vertex":4356,"ĠitemView":4357,"Ġautomatically":4358,"RemovePair":4359,"nament":4360,"ĠCancelBtn":4361,"ryptog":4362,"argins":4363,"HANDLE":4364,"ĠTBGRACustomBitmap":4365,"pixelFmt":4366,"Envia":4367,"CLASSGROUP":4368,"Tournament":4369,"ĠUtilitaires":4370,"ĠAllowDarkModeForWindow":4371,"!<":4372,"'<":4373,")-":4374,"05":4375,"36":4376,"Aj":4377,"Bool":4378,"CN":4379,"CP":4380,"DC":4381,"DK":4382,"Dup":4383,"Dll":4384,"DHook":4385,"HAR":4386,"Home":4387,"Nt":4388,"PW":4389,"Ping":4390,"Pass":4391,"PTObject":4392,"Tip":4393,"current":4394,"gnd":4395,"gment":4396,"gmail":4397,"lg":4398,"ndef":4399,"ogin":4400,"pn":4401,"tch":4402,"uda":4403,"we":4404,"xp":4405,"xJSONArray":4406,"ä¹":4407,"Ġkey":4408,"Ġ----------------------------------------------------------------":4409,"Ġicon":4410,"Ġtypes":4411,"ĠTText":4412,"ĠTController":4413,"alth":4414,"ane":4415,"ĠSyncObjs":4416,"Ġcx":4417,"Ġcol":4418,"Ġcolor":4419,"ĠFrom":4420,"ĠFFileName":4421,"ĠFlast":4422,"ĠCode":4423,"HorseFile":4424,"Relative":4425,"ĠLAPI":4426,"iff":4427,"ifndef":4428,"ĠGradient":4429,"Ġbt":4430,"Ġback":4431,"vers":4432,"IFI":4433,"ĠUCommon":4434,"ats":4435,"Ġ'.":4436,"Ġdep":4437,"iled":4438,"ListView":4439,"conn":4440,"ĠMidi":4441,"irection":4442,"Ġreserved":4443,"ĠInit":4444,"ĠIniFiles":4445,"perat":4446,"pong":4447,"StringString":4448,"rapher":4449,"FileList":4450,"Ġts":4451,"Ġ*)<":4452,"fore":4453,"ĠNumber":4454,"Ġxor":4455,"ĠFormat":4456,"ĠiController":4457,"Imagem":4458,"ĠTPipeConnection":4459,"ĠĠĠĠĠĠĠĠĠĠĠĠĠĠĠĠĠĠĠĠĠĠĠĠĠ":4460,"Ġdoes":4461,"ATFORM":4462,"Ġ+<":4463,"ModelJSON":4464,"Ġry":4465,"Ġcommand":4466,"ICON":4467,"INTERFACE":4468,"Pairs":4469,"IsFalse":4470,"ĠIGBSwaggerHeader":4471,"ĠIGBSwaggerModelJSON":4472,"sizeof":4473,"ReadOnly":4474,"plugin":4475,"ĠProc":4476,"BufferQuantity":4477,"TABLE":4478,"Ġforms":4479,"Ġaddresslist":4480,"Ġ2013":4481,"ĠLazUTF":4482,"PLATFORM":4483,"ported":4484,"Ġapplic":4485,"rimiti":4486,"Track":4487,"Ġlistcolumns":4488,"Ġrequest":4489,"Ġcoordin":4490,"ĠTypes":4491,"Attribute":4492,"ĠCOMP":4493,"structionGroup":4494,"Mapper":4495,"Validator":4496,"Delim":4497,"DIR":4498,"ĠParseInput":4499,"ĠSetWindowTheme":4500,"Compression":4501,"Highligh":4502,"ĠTShiftState":4503,"DecimalSeparator":4504,"DisassembleData":4505,"ryptographer":4506,"Duplic":4507,"\">":4508,">):":4509,"Aim":4510,"AGE":4511,"Book":4512,"Cidade":4513,"DropDown":4514,"Em":4515,"Fi":4516,"Fast":4517,"Foto":4518,"Gif":4519,"LL":4520,"MQuantity":4521,"Mgr":4522,"Nom":4523,"Offset":4524,"PJ":4525,"Sa":4526,"Single":4527,"TLua":4528,"TMachineLine":4529,"VAL":4530,"Wh":4531,"aa":4532,"day":4533,"igin":4534,"iente":4535,"nu":4536,"nome":4537,"pp":4538,"rf":4539,"rust":4540,"ting":4541,"Ġ64":4542,"Ġ..":4543,"Ġrow":4544,"ĠTTimer":4545,"ano":4546,"delta":4547,"Ġci":4548,"Ġcs":4549,"ĠFD":4550,"ĠFa":4551,"ĠFHorseCore":4552,"ĠFError":4553,"ĠFSize":4554,"Ġft":4555,"ternal":4556,"ĠCal":4557,"ĠClipbrd":4558,"ĠCHAR":4559,"ĠPlayer":4560,"ritical":4561,"Report":4562,"ĠLayout":4563,"Ġwidth":4564,"Ġbr":4565,"INIT":4566,"Ġdiv":4567,"DESC":4568,"ĠUL":4569,"ĠUFiles":4570,"ĠUPlatform":4571,"functions":4572,"xture":4573,"TearDown":4574,"container":4575,"conds":4576,"ĠBorder":4577,"Ġ//<":4578,"DAV":4579,"StringTree":4580,"TestFi":4581,"ĠDEFA":4582,"Ġtv":4583,"ĠNe":4584,"TimeMean":4585,"ixels":4586,"Impress":4587,"ĠStream":4588,"BaseAddress":4589,"acity":4590,"Ġstar":4591,"listbox":4592,"MainForm":4593,"uffers":4594,"oretical":4595,"Ġvf":4596,"ĠvQry":4597,"BoxA":4598,"URE":4599,"ĠTFloat":4600,"osxp":4601,"UserInfo":4602,"CEFuncProc":4603,"ĠTListChar":4604,"Ġmain":4605,"ĠTHorseCoreParam":4606,"UnitX":4607,"Ġgetmem":4608,"ĠTBGRAPixel":4609,"ĠAsDateTime":4610,"ĠJhonson":4611,"ĠJukebox":4612,"Ġsetlength":4613,"024":4614,"ĠTSQL":4615,"ookup":4616,"ROC":4617,"ĠTCustomSynEdit":4618,"RunResult":4619,"ChangeStatus":4620,"peedhack":4621,"Combobox":4622,"ĠglTex":4623,"ĠglVertex":4624,"TCPClient":4625,"Ġregion":4626,"ĠmemoResponse":4627,"LCLIntf":4628,"\":\"":4629,"Coords":4630,"ĠLazarusPackage":4631,"mallInt":4632,"ĠTBackgnd":4633,"Ġprovided":4634,"NETHTTP":4635,"Senha":4636,"NTHeader":4637,"ĠRememberSimpleMachineLine":4638,"Ġassigned":4639,"ĠRGBToColor":4640,"Ajuda":4641,"CNPJ":4642,"Ġ------------------------------------------------------------------------------------------------":4643,"rustInterval":4644,"containerFont":4645,"TestFixture":4646,"ĠDEFAULT":4647,"Impressao":4648,"ĠglTexCoord":4649,"ĠLazarusPackageIntf":4650,"18":4651,"30":4652,"74":4653,";{$":4654,"Break":4655,"DManager":4656,"Fe":4657,"Full":4658,"GUI":4659,"HE":4660,"Ipl":4661,"Original":4662,"Pre":4663,"Picture":4664,"Polygon":4665,"RP":4666,"RT":4667,"Sor":4668,"TProc":4669,"TSolution":4670,"_;<":4671,"brush":4672,"caption":4673,"dog":4674,"lation":4675,"messages":4676,"rup":4677,"sc":4678,"syn":4679,"tine":4680,"®ļ":4681,"entes":4682,"ĠTJSON":4683,"ĠTModel":4684,"ĠTTexture":4685,"ĠTStack":4686,"ĠTEndereco":4687,"cece":4688,"unk":4689,"Ġpre":4690,"Ġpur":4691,"Ġcount":4692,"ĠFStream":4693,"trans":4694,"ĠPort":4695,"ĠPressed":4696,"ĠDWord":4697,"ĠDUnitX":4698,"Ġload":4699,"ĠAd":4700,"Rece":4701,"ĠGAMMA":4702,"Ġbo":4703,"Ġdw":4704,"Ġdon":4705,"interfaces":4706,"Ġmark":4707,"ĠBASS":4708,"Dev":4709,"TestFramework":4710,"structs":4711,"Routine":4712,"ĠuLog":4713,"Ġ12":4714,"ĠGetAddress":4715,"Ġ20":4716,"GetCurrent":4717,"HTML":4718,"open":4719,"ables":4720,"acter":4721,"Import":4722,"abela":4723,"HTTPServer":4724,"aca":4725,"HandlerData":4726,"ĠDefault":4727,"Ġcombobox":4728,"Ġversions":4729,"Users":4730,"IsEmpty":4731,"ĠOneClient":4732,"ĠChr":4733,"READ":4734,"Ansi":4735,"plate":4736,"ĠTRate":4737,"NumberOf":4738,"Values":4739,"moved":4740,"ĠTGBSwaggerModelPathResponse":4741,"FreeType":4742,"TextureCoords":4743,"Ġ2005":4744,"ĠTAd":4745,"TrueValue":4746,"ContentType":4747,"Transform":4748,"irectory":4749,"Ġsymbolhandlerstructs":4750,"threads":4751,"Ġheight":4752,"ichier":4753,"Ġoffset":4754,"EXCEPTION":4755,"Ġtexture":4756,"ĠPath":4757,"ScrollBox":4758,"ĠCharCode":4759,"Ġvalid":4760,"GraphicControl":4761,"Ġmaps":4762,"ĠTJcl":4763,"packed":4764,"ĠScreen":4765,"ĠTMenuItem":4766,"BDD":4767,"odulename":4768,"PressedKey":4769,"ĠSpin":4770,"Store":4771,"sCep":4772,"CODING":4773,"tegracao":4774,"Tipo":4775,"ĠTBackgndObj":4776,"ĠPressedDown":4777,"*}<":4778,",$":4779,"-}<":4780,"055":4781,"76":4782,"85":4783,"Bevel":4784,"Bottom":4785,"Cl":4786,"Dlg":4787,"FData":4788,"Ger":4789,"LObject":4790,"LUA":4791,"Niv":4792,"QU":4793,"Sign":4794,"TControl":4795,"Uses":4796,"VCL":4797,"ape":4798,"font":4799,"mags":4800,"sl":4801,"tre":4802,"ude":4803,"wd":4804,"window":4805,"wait":4806,"yt":4807,"ç»":4808,"Ġ;":4809,"Ġè":4810,"era":4811,"ins":4812,"rees":4813,"reur":4814,"ĠTResponse":4815,"ĠTTime":4816,"ĠTFormatSettings":4817,"ora":4818,"arted":4819,"annel":4820,"ĠSolution":4821,"ĠServer":4822,"Ġcorrect":4823,"bem":4824,"Ġframe":4825,"Ġfirst":4826,"Ġfrx":4827,"ĠPColor":4828,"ĠPos":4829,"ĠPAS":4830,"Ġlen":4831,"Ġlib":4832,"Ġlyt":4833,"iste":4834,"ision":4835,"ĠAmount":4836,"rack":4837,"ĠLPairs":4838,"Ġwe":4839,"Ġwindow":4840,"todo":4841,"Ġblock":4842,"Ġbgra":4843,"Ġms":4844,"Ġmessage":4845,"ĠUEntity":4846,"ĠView":4847,"ONG":4848,"ĠWMI":4849,"Ġdefault":4850,"lot":4851,"ĠBC":4852,"ĠBack":4853,"ĠMe":4854,"Ġ(<":4855,"Palette":4856,"FormCreate":4857,"Exe":4858,"ToHorse":4859,"ToTObject":4860,"olver":4861,"Entre":4862,"Ġcontext":4863,"ĠTGUI":4864,"FileStream":4865,"eneric":4866,"Arr":4867,"Ġtstringlist":4868,"GetApi":4869,"ĠTBCPanel":4870,"Idx":4871,"ĠFormShow":4872,"InfoCmd":4873,"ĠStarted":4874,"Ġgu":4875,"ModuleData":4876,"ĠTPen":4877,"ĠĠĠĠĠĠĠĠĠĠĠĠĠĠĠĠĠĠĠĠĠĠĠĠĠĠĠĠĠĠĠĠ":4878,"Ġbeing":4879,"ĠCreateNew":4880,"Editor":4881,"DateToStr":4882,"Bits":4883,"ĠRect":4884,"ĠLuaWinControl":4885,"ĠTFoundList":4886,"ĠTTestHorseCoreFile":4887,"CompilerVersion":4888,"NewKernelHandler":4889,"Menus":4890,"Shut":4891,"ModalAjuda":4892,"Ġmemscan":4893,"ĠHas":4894,"ĠAsTime":4895,"ServerModule":4896,"ĠIGBSwaggerPath":4897,"ĠJv":4898,"DateTimePicker":4899,"023":4900,"READER":4901,"ĠWebModule":4902,"CODE":4903,"Updated":4904,"ĠTControleOperacoes":4905,"ĠTControleLivre":4906,"StartApiPortListens":4907,"ockets":4908,"ĠTCustomDaemon":4909,"umeric":4910,"STR":4911,"ĠDoDelete":4912,"ĠRegisterDaemon":4913,"ĠRegisterPackage":4914,"indexed":4915,"MEM":4916,"MAC":4917,"ChangeFormat":4918,"Ġdisabled":4919,"BOOL":4920,"PostApi":4921,"ĠTFrmMain":4922,"routines":4923,"PutApi":4924,"UNCTION":4925,"ĠDateToStr":4926,"ĠTests":4927,"laim":4928,"ĠInterface":4929,"Ġstrutils":4930,"StopListen":4931,"drawindexed":4932,"Ġscreen":4933,"ĠItemCount":4934,"ä¸Ģ":4935,"CKDO":4936,"SimpleEvent":4937,"VEH":4938,"Ġjsonparser":4939,"ProcurarPorId":4940,"Ġaccess":4941,"Temp":4942,"ĠTRectangle":4943,"Splash":4944,"SideDescriptor":4945,"SharedMem":4946,"ĠMagenta":4947,"Camera":4948,"******************************************************":4949,"ĠTRenderObject":4950,"Ignore":4951,"peratura":4952,"ĠTFloatField":4953,"Receber":4954,"magsys":4955,"ĠDoDeleteApi":4956,"'];<":4957,"()<":4958,"-<":4959,"54":4960,"CA":4961,"Cor":4962,"DW":4963,"HA":4964,"Has":4965,"HAT":4966,"Laz":4967,"Part":4968,"PTElement":4969,"Range":4970,"SM":4971,"SUB":4972,"TR":4973,"Volume":4974,"ZE":4975,"aValue":4976,"aId":4977,"ek":4978,"pte":4979,"sf":4980,"sp":4981,"tf":4982,"ture":4983,"¥½":4984,"åĽ":4985,"æĪ":4986,"æĺ":4987,"è®":4988,"Ġti":4989,"Ġes":4990,"Ġet":4991,"Ġver":4992,"ĠJSON":4993,"input":4994,"ĠTMessage":4995,"section":4996,"sected":4997,"tio":4998,"ley":4999,"left":5000,"leep":5001,"anager":5002,"default":5003,"thelper":5004,"thday":5005,"Ġpe":5006,"Ġpascal":5007,"ĠSup":5008,"ĠSingle":5009,"Ġcthreads":5010,"ĠFor":5011,"ĠFTime":5012,"ĠFLog":5013,"Ġfm":5014,"Ġfix":5015,"ĠCurrent":5016,"Insert":5017,"Integracao":5018,"ĠDAO":5019,"ril":5020,"ĠlParam":5021,"Ġrect":5022,"istance":5023,"ĠLevel":5024,"//$":5025,"ĠGIF":5026,"Ġwait":5027,"Ġwritten":5028,"Ġbs":5029,"Ġbul":5030,"Ġdam":5031,"ĠIB":5032,"ĠIDAO":5033,"Ġmi":5034,"Ġmargins":5035,"ĠUC":5036,"ĠUInt":5037,"Ġstrings":5038,"edley":5039,"getCanvas":5040,"ĠMask":5041,"ĠInfo":5042,"side":5043,"DATA":5044,"Ġafter":5045,"ToStream":5046,"vious":5047,"ument":5048,"Database":5049,"Ġconvert":5050,"ĠTGame":5051,"Keyword":5052,"ĠRa":5053,"GetTick":5054,"============":5055,">//$":5056,">//$<":5057,"irthday":5058,"ORY":5059,"ĠiRouter":5060,"ĠTCVector":5061,"Ġorigin":5062,"Infos":5063,"Imaging":5064,"render":5065,"FieldName":5066,"Ġdoc":5067,"ĠOriginal":5068,"Erreur":5069,"IntegerString":5070,"ounds":5071,"DLL":5072,"Ġcomm":5073,"ĠOnShow":5074,"ranch":5075,"Order":5076,"Selection":5077,"Ġmake":5078,"ĠIdContext":5079,"Design":5080,"NoKeyword":5081,"ĠTBGRANeo":5082,"ĠAsDate":5083,"CHE":5084,"TEData":5085,"ĠTSong":5086,"ĠTProcError":5087,"sembly":5088,"libs":5089,"Ġlevel":5090,"ĠRegisterUnit":5091,"auto":5092,"ĠListBox":5093,"porthelper":5094,"Ġshow":5095,"nik":5096,"Ġapplication":5097,"Cadastros":5098,"Ġtrans":5099,"Trace":5100,"000000":5101,"EXYZ":5102,"ĠQry":5103,"Producer":5104,"itional":5105,"AutoAssembler":5106,"Ġdebugger":5107,"yyyy":5108,"Ġlike":5109,"Ġincluded":5110,"Ġsubject":5111,"Ġneed":5112,"Taille":5113,"PropertyToTable":5114,"Animation":5115,"ĠTDictionaryStringString":5116,"ĠIdHTTPWebBroker":5117,"title":5118,"ĠTCIEXYZ":5119,"Ġmethods":5120,"fborder":5121,"Tooan":5122,"ĠActive":5123,"rapper":5124,"Ġcollection":5125,"ĠProcurar":5126,"rimitive":5127,"riticalSection":5128,"rupted":5129,"ĠTAdvanced":5130,"æĺ¯":5131,"NoKeywords":5132,"ĠIdHTTPWebBrokerBridge":5133,"([":5134,"*-":5135,",[":5136,"1024":5137,"204":5138,"38":5139,"655":5140,"73":5141,":'":5142,";);<":5143,">);<":5144,"Act":5145,"BU":5146,"BLE":5147,"BQuantity":5148,"Branch":5149,"CI":5150,"DotNet":5151,"Gestion":5152,"Hash":5153,"JObject":5154,"Jni":5155,"Jhonson":5156,"Lookup":5157,"Move":5158,"Mercado":5159,"NFe":5160,"OP":5161,"Output":5162,"PD":5163,"PP":5164,"Pen":5165,"PImage":5166,"PUT":5167,"Ptch":5168,"Rcd":5169,"Sq":5170,"Soc":5171,"Sync":5172,"Tile":5173,"Task":5174,"Vinc":5175,"^;<":5176,"bon":5177,"btn":5178,"cf":5179,"ePtch":5180,"fe":5181,"gb":5182,"help":5183,"label":5184,"my":5185,"nown":5186,"nos":5187,"patcher":5188,"qword":5189,"sa":5190,"source":5191,"uter":5192,"Ð¸":5193,"äº":5194,"ä¼":5195,"æİ":5196,"æĸ":5197,"Ġ&":5198,"Ġag":5199,"ĠEN":5200,"ĠEND":5201,"Ġ]<":5202,"ĠOR":5203,"Ġï¿½ï¿½":5204,"Ġright":5205,"ĩªå":5206,"Įī":5207,"ķ°":5208,"tead":5209,"ĠTProvider":5210,"ĠTPair":5211,"ĠTServico":5212,"ĠTerminate":5213,"ĠTdm":5214,"tice":5215,"***":5216,"arca":5217,"arDocumento":5218,"delete":5219,"Ġpush":5220,":=$":5221,"ĠFPath":5222,"ĠCl":5223,"ĠCar":5224,"Indy":5225,"ĠDM":5226,"ĠDX":5227,"ĠDog":5228,"Ġlongint":5229,"temp":5230,"Conven":5231,"ectored":5232,"ĠListen":5233,"ĠLMessages":5234,"ĠLUA":5235,"ĠLinux":5236,"Ġbit":5237,"ObjectList":5238,"Ġdone":5239,"Ġdgl":5240,"DELETE":5241,"Ġmulti":5242,"ĠUUnicode":5243,"Ġ'-":5244,"Ġstringlist":5245,"('');<":5246,"ĠWM":5247,"ĠWh":5248,"ĠWidth":5249,"Ġdefined":5250,"ListByte":5251,"uspen":5252,"Ġnon":5253,"Storage":5254,"luaroutine":5255,"ĠConnexion":5256,"ToDate":5257,"DataBase":5258,"aseName":5259,"ĠTGammaTable":5260,"ĠTGFileList":5261,"Series":5262,"Math":5263,"ready":5264,"OnListen":5265,"intto":5266,"ERR":5267,"ERVERSION":5268,"KeyDown":5269,"update":5270,"ĠRate":5271,"ĠEmpty":5272,"ĠEPipe":5273,"html":5274,"Threading":5275,"Ġreadfile":5276,"Ġ<=":5277,"ĠTPlatform":5278,"ĠĠĠĠĠĠĠĠĠĠĠĠĠĠĠĠĠĠĠĠĠĠĠĠ":5279,"acao":5280,"DateFormat":5281,"ControllerResult":5282,"ĠDevice":5283,"ĠDeSelect":5284,"velop":5285,"Ġfiles":5286,"ĠRemove":5287,"Compare":5288,"ĠTListString":5289,"APSolution":5290,"fmx":5291,"Ġusage":5292,"createtable":5293,"WebRequest":5294,"ĠOneControllerResult":5295,"SerializeConfig":5296,"Definition":5297,"newtable":5298,"TEMSI":5299,"Dispersion":5300,"Dispatcher":5301,"NetHTTP":5302,"Ano":5303,"DebugEvent":5304,"Ġimport":5305,"ILERVERSION":5306,"ĠDBGrids":5307,"program":5308,"Loader":5309,"Prn":5310,"Ġdetail":5311,"ï¿½ï¿½ï¿½ï¿½ï¿½ï¿½":5312,"ments":5313,"ĠAddCallback":5314,"Rectangle":5315,"Ġreference":5316,"PYING":5317,"Plane":5318,"uloUsuario":5319,"ISAPI":5320,"BODY":5321,"PEG":5322,"Words":5323,"Attach":5324,"Ġheaders":5325,"9999":5326,"UNIT":5327,"TituloPagar":5328,"TLB":5329,"ptrUint":5330,"theoretical":5331,"erminated":5332,"Ġarg":5333,"isiePtch":5334,"ĠTControleConsultaModalTituloCategoria":5335,"ĠItems":5336,"AudioSystem":5337,"USER":5338,"ercial":5339,"csn":5340,"ĠType":5341,"ĠUserName":5342,"Structures":5343,"ĠTMatrixObject":5344,"ĠTMatrixInteger":5345,"ĠTMatrixByte":5346,"ĠCOPYING":5347,"Flag":5348,"Cheque":5349,"Template":5350,"sterimage":5351,"ĠTFDQuery":5352,"TCustomAttribute":5353,"ĠlbDetail":5354,"ĠAPI":5355,"NoteBook":5356,"flm":5357,"ĠRefresh":5358,"ĠLDogEntity":5359,"MODIFI":5360,"ĠAnsiString":5361,"CanContinue":5362,"isaac":5363,"CEPModel":5364,"yrics":5365,"opupMenu":5366,"DriverLoaded":5367,"Ġlazarus":5368,"tegrityCheckThread":5369,"FourP":5370,"ĠTLanguageType":5371,"TaillesSP":5372,"ĠTUpdateStatusHelper":5373,"sysutils":5374,"Ġgiven":5375,"TUniForm":5376,"IterationResults":5377,"NtHeaders":5378,"ä¹ī":5379,"ĠCOMPILERVERSION":5380,"rfisaac":5381,"RTTI":5382,"®ļä¹ī":5383,"Ġpurpose":5384,"TipoTitulo":5385,"GerarDocumento":5386,"MACRO":5387,"åĽŀ":5388,"sectedStruct":5389,"ĠQryConsulta":5390,"ĠTAdvancedDropDown":5391,"JObjectToTObject":5392,"MercadoLibre":5393,"VinculoUsuario":5394,"ĩªå®ļä¹ī":5395,"Convenio":5396,"ĠdglOpenGL":5397,"ĠUUnicodeUtils":5398,"uspended":5399,"aseNameDefinition":5400,"ĠEPipeError":5401,"NoteBookStrings":5402,"MODIFIED":5403,".&":5404,"22":5405,"35":5406,"400":5407,"BP":5408,"CB":5409,"Cal":5410,"COR":5411,"Cancel":5412,"Dr":5413,"Done":5414,"EY":5415,"Fill":5416,"Filename":5417,"FUNCTION":5418,"Help":5419,"Loc":5420,"OD":5421,"Rating":5422,"RadioGroup":5423,"SSE":5424,"Space":5425,"XS":5426,"XMM":5427,"XYZ":5428,"abstract":5429,"aPagamento":5430,"cx":5431,"find":5432,"field":5433,"first":5434,"gith":5435,"lc":5436,"mpt":5437,"names":5438,"ose":5439,"pre":5440,"tus":5441,"uild":5442,"£o":5443,"±»":5444,"Ã£o":5445,"åı":5446,"çĶ":5447,"ç±»":5448,"Ġ9":5449,"Ġam":5450,"Ġ)<":5451,"Ġimplementation":5452,"Ġroutines":5453,"ĠTId":5454,"ĠTReal":5455,"ĠTUsuario":5456,"ĠTIni":5457,"ĠTTab":5458,"ĠTArticle":5459,"tist":5460,"tidebug":5461,"ross":5462,"rotation":5463,"arRegistro":5464,"any":5465,"asin":5466,"Ġpop":5467,"Ġpbyte":5468,"tax":5469,":=@":5470,"Ġcust":5471,"ĠFI":5472,"ĠFAr":5473,"ĠFFinish":5474,"ĠFHorseFile":5475,"Ġfib":5476,"ĠCol":5477,"ĠCool":5478,"ĠCheat":5479,"Ġob":5480,"ĠPByte":5481,"ĠPPointer":5482,"ĠParent":5483,"ĠPTElement":5484,"adow":5485,"Ġ=================================================================":5486,"rigin":5487,"ising":5488,"Rep":5489,"Replace":5490,"Ġremoved":5491,"elist":5492,"ĠLData":5493,"Ġsm":5494,"Ġsmall":5495,"tovariant":5496,"imation":5497,"strings":5498,"Ġdb":5499,"Ġdown":5500,"Ġmag":5501,"Ġmessages":5502,"ature":5503,"Ġ:<":5504,"oop":5505,"('{\"":5506,"Ġdestination":5507,"iling":5508,"ĠBl":5509,"ĠBen":5510,"ĠMessage":5511,"Prompt":5512,"ĠaValue":5513,"olve":5514,"olute":5515,"umentation":5516,"Ġheld":5517,"ClassName":5518,"ibbon":5519,"RARY":5520,"ColR":5521,"Ġtcontrol":5522,"Ġtmemory":5523,"GetAddress":5524,"addPropertyToTable":5525,"Ġgran":5526,"Memscan":5527,"ĠTPessoa":5528,"ĠTPDManager":5529,"Ġexternal":5530,"acing":5531,"ĠSetup":5532,"Interrupted":5533,"ĠDeselect":5534,"ugh":5535,"ErrorCode":5536,"Ġvari":5537,"IDI":5538,"ĠComponent":5539,"ViewPage":5540,"Ġselected":5541,"Ġsegment":5542,"here":5543,"ĠTThreadTimer":5544,"uarios":5545,"ĠAsStream":5546,"ĠAsFloat":5547,"ĠAsCurrency":5548,"ĠAsISO":5549,"ĠAsExtended":5550,"ĠIGBSwaggerInfo":5551,"Ġ\"'":5552,"ĠTSymbolListHandler":5553,"msg":5554,"Ġhttppro":5555,"ĠMachine":5556,"Ġtermin":5557,"ĠTGBSwaggerModelInfo":5558,"osix":5559,"TRealArray":5560,"BackObj":5561,"FloatNumber":5562,"Ġ2011":5563,"Helpers":5564,"ĠStatus":5565,"ĠTAction":5566,"EntityType":5567,"email":5568,"Ġnotice":5569,"ĠFPRead":5570,"ĠVersions":5571,"ĠidTCPClient":5572,"VirtualStringTree":5573,"IOUtils":5574,"Ġevents":5575,"SubClass":5576,"bsolute":5577,"Ġliable":5578,"ĠTCEConnection":5579,"ContainsValue":5580,"ĠtargetPanel":5581,"ĠTDisassembler":5582,"ĠSwagger":5583,"Ġunixporthelper":5584,"Rounds":5585,"////////////////":5586,"='+":5587,"MVCPath":5588,"description":5589,"Ġfphttpserver":5590,"ĠTTile":5591,"Ġmodel":5592,"Ġ******************************************************************************<":5593,"DelphiDemo":5594,"rayscale":5595,"ĠTInstructionGroup":5596,"ĠParams":5597,"Ġctx":5598,"Cvn":5599,"\"}')<":5600,"Monitor":5601,"Ġauthors":5602,"LIBRARY":5603,"Ġadded":5604,"ĠTBytes":5605,"png":5606,"ween":5607,"Duplicate":5608,"TLuaCaller":5609,"Ġstartaddress":5610,"Ġdamages":5611,"ERROR":5612,"github":5613,"Ġhttpprotocol":5614,"\"<":5615,"');":5616,"($":5617,"/:":5618,"60":5619,";//":5620,"=<":5621,"AME":5622,"BIT":5623,"DR":5624,"Dao":5625,"FCGI":5626,"GEN":5627,"If":5628,"IZE":5629,"KEY":5630,"License":5631,"NG":5632,"Na":5633,"Now":5634,"Press":5635,"Pixels":5636,"RIC":5637,"SN":5638,"Snap":5639,"TGame":5640,"TryGetValue":5641,"Utc":5642,"Vectored":5643,"War":5644,"Wnd":5645,"XP":5646,"bri":5647,"cr":5648,"cpu":5649,"double":5650,"ges":5651,"grees":5652,"helper":5653,"ivi":5654,"longint":5655,"lvm":5656,"mx":5657,"nom":5658,"ness":5659,"ple":5660,"page":5661,"rv":5662,"rate":5663,"vg":5664,"vo":5665,"wh":5666,"ws":5667,"zen":5668,"¨å":5669,"»º":5670,"Ð¾":5671,"å»º":5672,"æľ":5673,"æĮī":5674,"æķ°":5675,"è½":5676,"Ġ)":5677,"Ġack":5678,"ĠRoute":5679,"ĠHeight":5680,"Ġ****************************************************************":5681,"ĶåĽŀ":5682,"entic":5683,"ensagem":5684,"ĠTClass":5685,"ĠTType":5686,"ĠTServer":5687,"ĠTAddress":5688,"ĠTStatic":5689,"till":5690,"rough":5691,"ars":5692,"ĠSF":5693,"ĠScan":5694,"ĠStyle":5695,"ĠFList":5696,"ĠFill":5697,"ĠFRun":5698,"termin":5699,"ĠCa":5700,"ĠCv":5701,"roces":5702,"ĠPtr":5703,"ĠPPage":5704,"ĠPrefix":5705,"Ġthere":5706,"ados":5707,"Cou":5708,"Ġins":5709,"Ġinstance":5710,"Ġinformation":5711,"iss":5712,"Ġrelease":5713,"ĠLine":5714,"ĠLocal":5715,"ime":5716,"Ġdx":5717,"ĠdropDown":5718,"Ġmin":5719,"Ġmnu":5720,"ĠUSE":5721,"ĠUGraphic":5722,"typedef":5723,"getWidth":5724,"getconnection":5725,"izar":5726,"izes":5727,"ĠMu":5728,"ĠMode":5729,"ĠMIDI":5730,"Problem":5731,"Ġ(-":5732,"DAEM":5733,"Ġresults":5734,"Ġact":5735,"Exit":5736,"ĠContent":5737,"Ġhandler":5738,"ĠTGraphic":5739,"Master":5740,"OnTerminate":5741,"Ġ21":5742,"ĠTBase":5743,"ĠTBool":5744,"ChildHandlesCreated":5745,">//------------------------------------------------------------------------------<":5746,"ĠFMensagem":5747,"Img":5748,"HTTPMethod":5749,"Ġgroup":5750,"Ġglobal":5751,"ĠTPeca":5752,"ĠĠĠĠĠĠĠĠĠĠĠĠĠĠĠĠĠĠĠ":5753,"ATED":5754,"ĠBGRAGraphics":5755,"ServiceController":5756,"ConsultaGerarDocumento":5757,"aolo":5758,"ĠTListSimpleEvent":5759,"Logger":5760,"Serializ":5761,"HandleSSL":5762,"ymbo":5763,"Ġsection":5764,"Ġself":5765,"comp":5766,"IsNot":5767,"Wincontrol":5768,"ĠReserved":5769,"ĠHUtil":5770,"ĠExtract":5771,"ServerEvents":5772,"valor":5773,"Connections":5774,"ĠJNI":5775,"CHEM":5776,"msOf":5777,"ĠPointerscan":5778,"ĠUniButton":5779,"GenericTree":5780,"GenericMatrix":5781,"GenericQueue":5782,"1111":5783,"ĠTUniButton":5784,"Ġnewicon":5785,"Ġleft":5786,"paint":5787,"paolor":5788,"ĠTGBSwaggerModelHeader":5789,"Consts":5790,"Ratio":5791,"Ġrasterimage":5792,"GLR":5793,"PortPrinter":5794,"PessoaTituloPagar":5795,"Placa":5796,"PARAM":5797,"ĠMenu":5798,"Transparent":5799,"ĠListVal":5800,"ĠTServiceController":5801,"ĠTServiceUsuario":5802,"ĠTServicePedido":5803,"loseAction":5804,"InputDevice":5805,"ĠTDAOItem":5806,"clude":5807,"ĠcontainerBorder":5808,"CadastroVinculoUsuario":5809,"DPROC":5810,"ĠServiceController":5811,"MagId":5812,"IOHandleSSL":5813,"Ġscroll":5814,"Ġthreadnames":5815,"ĠLastDisassembleData":5816,"MensagemAguarde":5817,"MensagemErro":5818,"ĠTDissectedStruct":5819,"ĠValid":5820,"Flags":5821,"TBool":5822,"Ġsuch":5823,"nowledgment":5824,"Ġpara":5825,"Ġsql":5826,"CtrlCode":5827,"ĠObjFPC":5828,"RESTClient":5829,"ĠCursor":5830,"returns":5831,"shot":5832,"moteThread":5833,"CONT":5834,"è¿ĶåĽŀ":5835,"utorial":5836,"ĠTDiagramBlockSideDescriptor":5837,"condary":5838,"pectRatio":5839,"ĠUSongs":5840,"ĠTPointerscan":5841,"SYN":5842,"ä»¶":5843,"EnviaMensagemAguarde":5844,"ICONDIR":5845,"Ġapplications":5846,"DESCRIC":5847,"ImpressaoDocumento":5848,"IplImage":5849,"SMTP":5850,"==============":5851,"Ġdocumentation":5852,"Ġcommercial":5853,"ChequeImagem":5854,"Ġacknowledgment":5855,"DAEMON":5856,"CHEMIN":5857,"msOfService":5858,"paolorossi":5859,"DESCRICAO":5860,"();":5861,"*)<":5862,"39":5863,"40":5864,"69":5865,"89":5866,"Aware":5867,"ACHE":5868,"BC":5869,"Bind":5870,"CR":5871,"Cliente":5872,"DM":5873,"Den":5874,"Dos":5875,"Dock":5876,"EH":5877,"Native":5878,"NAME":5879,"PREC":5880,"QRouterItem":5881,"Role":5882,"Sel":5883,"Site":5884,"Switch":5885,"SIGN":5886,"TT":5887,"TOne":5888,"TBGRA":5889,"UInt":5890,"Vec":5891,"bx":5892,"block":5893,"birthday":5894,"canvas":5895,"dc":5896,"down":5897,"folder":5898,"gative":5899,"hren":5900,"kip":5901,"link":5902,"np":5903,"ould":5904,"tthread":5905,"wap":5906,"warn":5907,"Ñģ":5908,"ä¿":5909,"Ġke":5910,"Ġround":5911,"Ġï¿½ï¿½ï¿½":5912,"ermsOfService":5913,"instance":5914,"rem":5915,"reet":5916,"rease":5917,"reating":5918,"env":5919,"ĠTZ":5920,"ĠTex":5921,"ĠTform":5922,"ĠTEntidade":5923,"ĠTreeview":5924,"ĠTWincontrol":5925,"robal":5926,"arb":5927,"leTaillesSP":5928,"ality":5929,"anne":5930,"Ġps":5931,"Ġplay":5932,"Ġpla":5933,"Ġprint":5934,"ical":5935,"iciente":5936,"Ġfa":5937,"ĠCON":5938,"ĠCEL":5939,"ĠPRI":5940,"ĠDec":5941,"ĠDLL":5942,"Ġlim":5943,"Ġlanguage":5944,"ĠAlign":5945,"ely":5946,"///":5947,"ĠGW":5948,"Ġwhere":5949,"Ġwould":5950,"Ġbug":5951,"Ġborder":5952,"verter":5953,"Ġdyn":5954,"Ġdomain":5955,"Ġthem":5956,"ĠIS":5957,"DEPT":5958,"ĠUHTTPServer":5959,"andy":5960,"ĠWbem":5961,"Ġdef":5962,"getAddress":5963,"ilable":5964,"ility":5965,"lored":5966,"context":5967,"Ġnow":5968,"ĠMin":5969,"ĠMicro":5970,"ĠMora":5971,"ationType":5972,"TypInfo":5973,"site":5974,"otmail":5975,"ParamByName":5976,"vig":5977,"Ġhook":5978,"Ġconn":5979,"DEFINED":5980,"Thrd":5981,"ĠuGestion":5982,"Ġ199":5983,"OnClick":5984,"ERGB":5985,"Ġtb":5986,"KeyPress":5987,"Ġ*/<":5988,"ĠRound":5989,"GetUserInfo":5990,"ĠEr":5991,"ĠEqual":5992,"ĠTDW":5993,"ĠTDouble":5994,"ĠiService":5995,"ĠTPDClient":5996,"ĠĠĠĠĠĠĠĠĠĠĠĠĠĠĠĠĠĠĠĠĠĠĠ":5997,"ĠOS":5998,"illSend":5999,"activate":6000,"hex":6001,"Ġstate":6002,"647":6003,"ĠDefined":6004,"ExceptionInfo":6005,"ĠTLaz":6006,"ĠReset":6007,"Ġcomctrls":6008,"trace":6009,"APP":6010,"APACHE":6011,"ĠExec":6012,"ĠAsString":6013,"TIntArray":6014,"ĠfpApache":6015,"ĠJson":6016,"timeout":6017,"ĠTSDL":6018,"CustomButton":6019,"Ġchang":6020,"wincontrol":6021,"Ġhttpd":6022,"FromName":6023,"FromTable":6024,"FFT":6025,"ferent":6026,"TFoundList":6027,"ĠEngine":6028,"Ġstdctrls":6029,"CheckBox":6030,"ĠTGBSwaggerModelTag":6031,"ĠAddress":6032,"Ġmacportdefines":6033,"Ġnumero":6034,"author":6035,"Translator":6036,"ĠListar":6037,"ĠListView":6038,"Iterator":6039,"biano":6040,"sole":6041,"åĪ¶":6042,"Ġreturncount":6043,"Failed":6044,"Ġcurrentgame":6045,"Product":6046,"ĠuniGUIFrame":6047,"ScrollBar":6048,"Ġarising":6049,"ĠImport":6050,"Multipart":6051,"FMX":6052,"ĠTypInfo":6053,"RYPT":6054,"LastBranch":6055,"Ġcursor":6056,"ĠSpecializedList":6057,"present":6058,"ĠValues":6059,"Ġincluding":6060,"DebuggerInterface":6061,"NOM":6062,"Ġneeded":6063,"ĠDataModuleCreate":6064,"Ġcallback":6065,"ĠlbTitle":6066,"ĠImageNTHeader":6067,"ĠTOneRouterItem":6068,"Variant":6069,"ĠLDogDAO":6070,"Alignment":6071,"ĠTCIERGB":6072,"sectCode":6073,"Ġdescription":6074,"Capture":6075,"ĠTJsonObject":6076,"eficiente":6077,"tialias":6078,"SwagParamPath":6079,"ircular":6080,"Authentic":6081,"ExpandedPixel":6082,"Svc":6083,"Ġbackground":6084,"Ġcoordinates":6085,"Delimiter":6086,"ĠFabiano":6087,"HEADER":6088,"rackets":6089,"MEMORY":6090,"Ġetc":6091,"rilleTaillesSP":6092,"Ġargument":6093,"Ġcustapache":6094,"Ġobtain":6095,"ĠTActionResult":6096,"VectoredExceptionHandler":6097,"Warning":6098,"ymbols":6099,"PRECATED":6100,"annels":6101,"DEPTH":6102,"ĠMorais":6103,"LastBranchRecord":6104,"';":6105,"33":6106,"75":6107,"79":6108,"96":6109,":');<":6110,";;":6111,"ABytes":6112,"ACC":6113,"BER":6114,"Brackets":6115,"Cache":6116,"Clip":6117,"CExceptionHandler":6118,"Dot":6119,"Effect":6120,"FG":6121,"FDB":6122,"FTime":6123,"Foc":6124,"FJSONArray":6125,"FItems":6126,"FFormatSettings":6127,"Fichier":6128,"GIN":6129,"Ground":6130,"GStartApiPortListens":6131,"JPEG":6132,"Link":6133,"Mapp":6134,"Micro":6135,"Outer":6136,"PH":6137,"QStr":6138,"Sizes":6139,"TER":6140,"TRequest":6141,"TIT":6142,"We":6143,"Wrapper":6144,"Zip":6145,"]=":6146,"])]<":6147,"^(":6148,"ale":6149,"bmp":6150,"cb":6151,"cv":6152,"cost":6153,"cpm":6154,"cause":6155,"fcpm":6156,"horse":6157,"history":6158,"hotmail":6159,"jump":6160,"king":6161,"lap":6162,"lags":6163,"mag":6164,"nPlayer":6165,"ok":6166,"ores":6167,"picture":6168,"primitive":6169,"rz":6170,"ring":6171,"soft":6172,"spec":6173,"sMachine":6174,"vl":6175,"ving":6176,"wise":6177,"wmi":6178,"yse":6179,"yle":6180,"zto":6181,"}',":6182,"¡æ":6183,"Ð²":6184,"æŀ":6185,"çļ":6186,"Ġ!":6187,"Ġty":6188,"Ġemail":6189,"ģ¯":6190,"ĩä»¶":6191,"Ľå»º":6192,"ero":6193,"inly":6194,"inline":6195,"reer":6196,"real":6197,"ency":6198,"ĠTI":6199,"ĠTParam":6200,"ĠTOn":6201,"ĠTlist":6202,"ĠTCommons":6203,"ĠTCheat":6204,"ĠTUptime":6205,"ĠTerminated":6206,"ĠTExpandedPixel":6207,"setable":6208,"status":6209,"rote":6210,"lets":6211,"asy":6212,"Ġpn":6213,"Ġpage":6214,"Ġport":6215,"ĠST":6216,"ĠSend":6217,"ĠSymbol":6218,"ĠSDK":6219,"ĠSandy":6220,"Ġcp":6221,"Ġclose":6222,"ĠField":6223,"ĠFStatus":6224,"ĠFJSONArray":6225,"ĠFRate":6226,"ĠFRealQuantity":6227,"ĠFExpectation":6228,"ĠFSUB":6229,"ĠFDispersion":6230,"ĠFGLR":6231,"ĠFbirthday":6232,"etween":6233,"tries":6234,"gerInterface":6235,"icio":6236,"Ġfname":6237,"yszto":6238,"striction":6239,"Ġou":6240,"ĠPage":6241,"ĠPSDL":6242,"Ġthandle":6243,"ĠDel":6244,"ĠDemo":6245,"ĠDibowski":6246,"Ġlmessages":6247,"agelist":6248,"ĠAName":6249,"ĠAKey":6250,"ĠAType":6251,"ĠADO":6252,"ĠAChar":6253,"ĠAInstance":6254,"ĠAMagId":6255,"Relator":6256,"Cond":6257,"Convert":6258,"Concur":6259,"Ġref":6260,"Ġrestriction":6261,"ĠLe":6262,"ĠLFile":6263,"ĠLField":6264,"ĠLRetorno":6265,"ified":6266,"ĠGrobal":6267,"Ġwrote":6268,"total":6269,"Ġbl":6270,"Ġbasic":6271,"Ġbreak":6272,"imagelist":6273,"Ġdom":6274,"Ġdnp":6275,"ĠIter":6276,"ĠIRequest":6277,"ĠIQuery":6278,"ĠIEntidade":6279,"ĠIConexao":6280,"ĠUP":6281,"ĠULanguage":6282,"ĠVirtual":6283,"ĠVisible":6284,"ĠVEH":6285,"Ġ'\"}')<":6286,"emp":6287,"('{":6288,"ĠWarn":6289,"ListInteger":6290,"ListPointer":6291,"los":6292,"Ġniv":6293,"ĠBarb":6294,"ĠMod":6295,"leanup":6296,"Ġ((":6297,"----------":6298,"cher":6299,"ĠInsert":6300,"ReqMulti":6301,"perc":6302,"sitive":6303,"lientes":6304,"Ġao":6305,"ĠConst":6306,"ĠContains":6307,"Ġhow":6308,"ResultCode":6309,"Dataset":6310,"Deleted":6311,"PCh":6312,"ury":6313,"urcher":6314,"ĠuSetup":6315,"FilePath":6316,"FileExists":6317,"readln":6318,"Ġ15":6319,"AddBody":6320,"TypeDef":6321,"ĠGetPing":6322,"Getvalue":6323,"Health":6324,"ItemIndex":6325,"AsObject":6326,"Assembly":6327,"AspectRatio":6328,"Ġip":6329,"oxo":6330,"ableEvent":6331,"ĠTCloseAction":6332,"ĠTCFG":6333,"Imp":6334,"Ġgener":6335,"Scores":6336,"ĠTPersistent":6337,"ĠĠĠĠĠĠĠĠĠĠĠĠĠĠĠĠĠĠĠĠĠĠĠĠĠĠĠĠ":6338,"Ġbecause":6339,"ĠOF":6340,"Struc":6341,"heit":6342,"ControllerBase":6343,"ĠTLogin":6344,"ĠRec":6345,"ĠRecord":6346,"...<":6347,"UserID":6348,"Sequ":6349,"INTER":6350,"Treeview":6351,"ĠTListMethod":6352,"ĠTListNotifyEvent":6353,"Shape":6354,"ĠValueType":6355,"ĠTHorseCoreFile":6356,"Usdx":6357,"Ġanyone":6358,"ĠAsInt":6359,"ĠAsInteger":6360,"ĠAsBoolean":6361,"ĠChange":6362,"ĠJcl":6363,"Methods":6364,"ĠTSimple":6365,"Ġalter":6366,"Ġalpha":6367,"Ġaltered":6368,"ĠTGListObject":6369,"ĠTGListString":6370,"Character":6371,"venue":6372,"ĠProblem":6373,"Ġconstant":6374,"FromFile":6375,"ĠTControleModalAjuda":6376,"ĠLCLProc":6377,"ManagerCreate":6378,"Ġbytes":6379,"Checked":6380,"Ġmodification":6381,"ĠDoGetApi":6382,"ĠDoPostApi":6383,"ĠDoPutApi":6384,"ampF":6385,"anguages":6386,"JsonResponse":6387,"BackGround":6388,"Raw":6389,"arks":6390,"Ġceconnection":6391,"MAGE":6392,"128":6393,"ĠStartApiPortListens":6394,"******************************************************************************":6395,"DogId":6396,"ĠFPRO":6397,"ĠTFrmMercadoLibre":6398,"TCryptographer":6399,"ĠTDAOBase":6400,"Ġtemperatura":6401,"ĠTGMatrixItem":6402,"ĠTGMatrixRow":6403,"MaxConnections":6404,"Synchronize":6405,"Teams":6406,"TokenManage":6407,"rowser":6408,"Trailing":6409,"ĠArc":6410,"åĪĽå»º":6411,"ĠQWORD":6412,"ĠmaxWidth":6413,"OnlyData":6414,"ĠMainService":6415,"ĠStopApi":6416,"ĠTGTreeItem":6417,"ĠTGTreeIndex":6418,"ĠItemIndex":6419,"Negative":6420,"Expr":6421,"ĠFTrustInterval":6422,"checks":6423,"Ġcalled":6424,"Ġcalendar":6425,"ĠDaemonApp":6426,"ĠTGQueueList":6427,"ĠTGQueueItem":6428,"ĠTGQueueIndex":6429,"ĠStartApiListens":6430,"ĠStartApiListenPort":6431,"ĠStartApiListenHost":6432,"ĠCdsConsultaID":6433,"HookableEvent":6434,"ĠDispersion":6435,"DuetSixP":6436,"ĠUNIT":6437,"ĠFCMQuantity":6438,"ĠFCBQuantity":6439,"MVCHTTPMethod":6440,"ĠinitialPascal":6441,"BestRecordNumber":6442,"WNDPROC":6443,"Animator":6444,"ĠTQueueInteger":6445,"SharedMemory":6446,"SixPAvatar":6447,"ĠAltered":6448,"Ġsaved":6449,"ĠTDictionaryIntegerString":6450,"ĠTGMatrixIndexX":6451,"ĠTGMatrixIndexY":6452,"ĠAuto":6453,"ĠEncodeDateTime":6454,"hwndCombo":6455,"mike":6456,"titude":6457,"MidiEvent":6458,"Ġemsi":6459,"Descr":6460,"ellAPI":6461,"ĠApacheModuleData":6462,"Ġquantity":6463,"WorseRecordNumber":6464,"ĠTRESTRequest":6465,"ĠFAmountIterationMean":6466,"ĠFAmountTimeMean":6467,"JavaTypes":6468,"WMIQuery":6469,"ĠTGTreeNodeList":6470,"ĠnetworkInterfaceApi":6471,"ĠDebuggerInterface":6472,"ĠSQLite":6473,"ĠMemoryRecord":6474,"ĠFlastName":6475,"Ġdepreciated":6476,"Highlighter":6477,"ĠTStackInteger":6478,"Ġmarked":6479,"AnsiChar":6480,"Ġbgrabitmap":6481,"ShutDown":6482,"è®°":6483,"ĠSupnik":6484,"Ġfixes":6485,"Ġbullets":6486,"GetTickCount":6487,"æĸĩä»¶":6488,"ĠEmptyStr":6489,"velopment":6490,"ĠTAdvancedDropDownList":6491,"ĠFILE":6492,"Ġmagwmi":6493,"Ġgranted":6494,"Navig":6495,"Ġinstead":6496,"IsNotNull":6497,"cludeTrailing":6498,"hrenheit":6499,"ä¿¡æ":6500,"instanced":6501,"Ġplainly":6502,"ĠuGestionBDD":6503,"ĠImportFrom":6504,"Mapping":6505,"rzyszto":6506,"ysex":6507,"çļĦ":6508,"ĠTCommonsTest":6509,"setableThread":6510,"ĠACharset":6511,"Relatorio":6512,"Concurso":6513,"Ġrestrictions":6514,"ĠWarnings":6515,"ĠBarbour":6516,"BackGrounds":6517,"Navigator":6518,"ä¿¡æģ¯":6519,"rzysztof":6520,"!')<":6521,"'',":6522,"']);<":6523,"(\"":6524,")(":6525,")';<":6526,")+'":6527,".)<":6528,"07":6529,"23":6530,"404":6531,"78":6532,"80":6533,"92":6534,">);":6535,"?<":6536,"BEG":6537,"BLO":6538,"Diagram":6539,"Dados":6540,"Eval":6541,"FD":6542,"Flow":6543,"FMOD":6544,"GR":6545,"GUID":6546,"Hist":6547,"IA":6548,"Ip":6549,"KO":6550,"Mime":6551,"Ok":6552,"OUT":6553,"Pg":6554,"PColor":6555,"PRI":6556,"RIT":6557,"Radi":6558,"RTL":6559,"SW":6560,"TText":6561,"TIndex":6562,"UD":6563,"VT":6564,"WA":6565,"ZT":6566,"Zoom":6567,"bp":6568,"bad":6569,"bers":6570,"buf":6571,"bab":6572,"cdecl":6573,"event":6574,"gi":6575,"hoxo":6576,"itation":6577,"jor":6578,"lines":6579,"medi":6580,"pol":6581,"pessoa":6582,"pinfo":6583,"random":6584,"sFileName":6585,"use":6586,"upe":6587,"ves":6588,"wm":6589,"with":6590,"ward":6591,"zp":6592,"¦åĪ":6593,"³¨å":6594,"ÑĤ":6595,"åŃ":6596,"æī":6597,"æį":6598,"è·":6599,"ĉĉ":6600,"Ġ\\":6601,"Ġxt":6602,"ĠHandler":6603,"ĠHandle":6604,"ĨĮ":6605,"Ļä¼":6606,"ľĢ":6607,"ereco":6608,"ini":6609,"initialize":6610,"ret":6611,"ĠTCh":6612,"ĠTCollection":6613,"ĠTrans":6614,"ĠTRegistry":6615,"ĠTApplication":6616,"ĠTTC":6617,"ĠTIcon":6618,"ĠTAsync":6619,"ĠTThrd":6620,"selected":6621,"stop":6622,"roupe":6623,"arge":6624,"ank":6625,"thes":6626,"this":6627,"thandler":6628,"ason":6629,"Ġpas":6630,"Ġpipe":6631,"Ġplatform":6632,"ĠSte":6633,"ĠSource":6634,"ĠScript":6635,":=(":6636,"Ġcf":6637,"Ġclaim":6638,"ĠFast":6639,"ĠFRequired":6640,"ĠFrame":6641,"ĠFPessoa":6642,"ĠFFind":6643,"ĠFNome":6644,"ĠCP":6645,"ĠCV":6646,"Inc":6647,"aten":6648,"uation":6649,"Ġop":6650,"ĠPlay":6651,"ĠPass":6652,"ĠPred":6653,"ĠPopulation":6654,"ĠPAnsiChar":6655,"Coin":6656,"rip":6657,"rior":6658,"ĠAction":6659,"Receiv":6660,"rase":6661,"Conf":6662,"outp":6663,"ĠLen":6664,"ĠLJsonResponse":6665,"click":6666,"Ġsave":6667,"Ġsymhandler":6668,"ifile":6669,"ifferent":6670,"tobject":6671,"Ġbg":6672,"Ġendereco":6673,"INSER":6674,"Ġdibowski":6675,"ĠIPrinter":6676,"DEPRECATED":6677,"ĠUS":6678,"oogle":6679,"phan":6680,"ido":6681,"ider":6682,"Ġdec":6683,"Ġdelta":6684,"Ġdegrees":6685,"ListArray":6686,"ListEntry":6687,"apter":6688,"CallbackInterrupted":6689,"ĠBitmap":6690,"ĠMid":6691,"ĠMREADER":6692,"Props":6693,"perly":6694,"sive":6695,"Ġeax":6696,"Ġeffect":6697,"ĠTGUID":6698,"ĠTGeneric":6699,"Destination":6700,"ĠuFTP":6701,"ColB":6702,"ColG":6703,"Arg":6704,"Artist":6705,"OnTimer":6706,"Addr":6707,"Addresses":6708,"ĠRo":6709,"TypeHelper":6710,"ĠGetId":6711,"ĠGetBase":6712,"Ġ2023":6713,"GetData":6714,"GetProc":6715,"ualcount":6716,"ĠNom":6717,"ĠNot":6718,"ecas":6719,"ĠreadBytes":6720,"Ġgo":6721,"TextObject":6722,"Ġexec":6723,"ĠCreateByteTable":6724,"ticles":6725,"aster":6726,"Ġstack":6727,"Ġstatus":6728,"Ġrate":6729,"Internet":6730,"oundlist":6731,"ĠDevelopers":6732,"ĠBGRARead":6733,"ĠBGRATransform":6734,"NUM":6735,"ICE":6736,"ĠTFind":6737,"ĠComm":6738,"Counter":6739,"CECExceptionHandler":6740,"TreeView":6741,"ĠFreeOnTerminate":6742,"ĠIdComponent":6743,"Ġ33":6744,"ĠgetX":6745,"ĠHigh":6746,"ĠHosxp":6747,"ĠOneTokenManage":6748,"ĠIGBSwaggerContact":6749,"ĠIGBSwaggerTag":6750,"ĠJO":6751,"Ġqry":6752,"ĠTMap":6753,"ĠTMouse":6754,"CustomDraw":6755,"REGI":6756,"Angle":6757,"ĠTRtti":6758,"FromPointer":6759,"POS":6760,"ScreenSing":6761,"ĠTUniQuery":6762,"ĠKrzysztof":6763,"Ġnewsize":6764,"ĠTCustomMemo":6765,"askar":6766,"ĠTStringArray":6767,"ĠTStringGrid":6768,"PhysPg":6769,"Acces":6770,"HttpClient":6771,"ProcessMemory":6772,"Ġcopyright":6773,"controller":6774,"JsonController":6775,"Ġ2002":6776,"Ġ2006":6777,"Ġ2007":6778,"Ġinteria":6779,"Ġallow":6780,"DataModuleCreate":6781,"Allow":6782,"Devices":6783,"SongMenu":6784,"ĠEHorseCallbackInterrupted":6785,"lineInput":6786,"Ġappreciated":6787,"vailable":6788,"VirtualScreen":6789,"åĪ°":6790,"Factor":6791,"Ġzstream":6792,"Return":6793,"SymbolList":6794,"ĠFTabela":6795,"Ġchecklistbox":6796,"duceLine":6797,"Ġcurr":6798,"ĠTCEP":6799,"DoNot":6800,"ĠTDataSource":6801,"Flat":6802,"Ġallocate":6803,"GlobalPOS":6804,"Ġscanner":6805,"DuetP":6806,"Delta":6807,"WaitFor":6808,"ĠTFDConnection":6809,"WND":6810,"ĠTMemoryStream":6811,"Ġplugins":6812,"Ġhandled":6813,"Failure":6814,"Ġopencv":6815,"ĠAuthor":6816,"SysInfoObj":6817,"ffffffff":6818,"Colorspace":6819,"ĠTDogEntity":6820,"ĠReflection":6821,"Ġaddresses":6822,"initions":6823,"ĠTHTTPHandlerData":6824,"Ġstopaddress":6825,"LongPtr":6826,"ĠULuaScreenSing":6827,"Capacity":6828,"DriverLink":6829,"ĠSimpleProject":6830,"ÐµÐ":6831,"ĠLIdPedido":6832,"Modified":6833,"RECORD":6834,"åĲ¦åĪ":6835,"Ġfreely":6836,"TStringList":6837,"Ġfields":6838,"Ġ'.\\":6839,"connected":6840,"transaction":6841,"ĠPASAPI":6842,"ĠBCRYPT":6843,"ĠTGUITextObject":6844,"ĠCreateNewDemo":6845,"ĠWebModuleClass":6846,"ä¸Ģä¸":6847,"ĠTIniFile":6848,"Ġpbytearray":6849,"ĠLDataConnection":6850,"Ġterminated":6851,"pngimage":6852,"BITMAP":6853,"ĠPtrInt":6854,"Ġreleased":6855,"DosHeader":6856,"TOneControllerBase":6857,"ĠMicrosoft":6858,"ĠError":6859,"ACCESS":6860,"Ġtypinfo":6861,"ĠSymbolList":6862,"ĠMemoryRecordUnit":6863,"BEGIN":6864,"mediate":6865,"³¨åĨĮ":6866,"Ļä¼ļ":6867,"output":6868,"GetProcAddress":6869,"ĠreadBytesFromTable":6870,"ĠCreateByteTableFromPointer":6871,"REGIST":6872,"PhysPgDriverLink":6873,"lineInputQuery":6874,"åĲ¦åĪĻä¼ļ":6875,"''":6876,"']":6877,"(_":6878,")/":6879,")>":6880,"));":6881,"++":6882,"27":6883,"72":6884,"98":6885,">('":6886,"AA":6887,"ASE":6888,"Amb":6889,"AButton":6890,"BR":6891,"BY":6892,"BAS":6893,"Binary":6894,"Bounds":6895,"CRA":6896,"CUR":6897,"Di":6898,"DRA":6899,"DWORD":6900,"FB":6901,"Gen":6902,"Gray":6903,"Glyph":6904,"It":6905,"Ico":6906,"Lst":6907,"Lig":6908,"Lvl":6909,"MX":6910,"MAR":6911,"Pol":6912,"PNG":6913,"Pecas":6914,"Qual":6915,"RM":6916,"SOR":6917,"Sort":6918,"SmallInt":6919,"TCanvas":6920,"UX":6921,"Vide":6922,"\\<":6923,"aSQL":6924,"divi":6925,"fq":6926,"fed":6927,"fix":6928,"gus":6929,"green":6930,"ira":6931,"ivers":6932,"js":6933,"jected":6934,"jpeg":6935,"lision":6936,"mu":6937,"modulename":6938,"number":6939,"position":6940,"qlite":6941,"sFile":6942,"symbolhandler":6943,"step":6944,"symhandler":6945,"sPW":6946,"uas":6947,"}):":6948,"½ķ":6949,"Ã¡":6950,"Îµ":6951,"Ð°":6952,"Ð»":6953,"ÑĢ":6954,"å¤":6955,"åħ":6956,"Ġer":6957,"Ġul":6958,"ĠIN":6959,"Ġ****************":6960,"erg":6961,"inished":6962,"enc":6963,"entry":6964,"entity":6965,"ĠTField":6966,"ĠTInter":6967,"ĠTStat":6968,"ĠTUtil":6969,"ĠTResource":6970,"ĠTImageList":6971,"ĠTAudio":6972,"ĠTComboBox":6973,"ĠTIB":6974,"seCC":6975,"orer":6976,"letion":6977,"less":6978,"unik":6979,"anew":6980,"deb":6981,"del":6982,"dem":6983,"device":6984,"Ġpor":6985,"Ġparent":6986,"ĠScale":6987,"ĠSmallInt":6988,":=-":6989,"Ġcada":6990,"Ġcreating":6991,"ĠFThread":6992,"ĠFQuery":6993,"ĠFQuantity":6994,"ĠFLogin":6995,"ĠFSchema":6996,"ĠFilename":6997,"ĠFMachineQuantity":6998,"ette":6999,"amic":7000,"icion":7001,"Ġfon":7002,"Ġfade":7003,"Ġfgl":7004,"dual":7005,"ĠCall":7006,"ĠCaption":7007,"ĠClose":7008,"ĠClear":7009,"ĠCDX":7010,"Inv":7011,"Information":7012,"strado":7013,"ĠPre":7014,"ĠPush":7015,"ĠPIplImage":7016,"ĠDotNet":7017,"orset":7018,"Ġ=====":7019,"riseCC":7020,"Ġlink":7021,"ĠAButton":7022,"ĠAPrompt":7023,"Reference":7024,"peat":7025,"pected":7026,"Ġrel":7027,"ela":7028,"close":7029,"Ġsolve":7030,"Ġwrit":7031,"toire":7032,"Ġbig":7033,"Ġbuf":7034,"verts":7035,"ormot":7036,"IND":7037,"INDE":7038,"Ġdbs":7039,"Ġdifferent":7040,"Resolution":7041,"Ġmormot":7042,"andnil":7043,"phore":7044,"ubyte":7045,"omunik":7046,"ĠWnd":7047,"getCount":7048,"illi":7049,"ListForm":7050,"CallStack":7051,"ĠnÃ£o":7052,"ĠBrush":7053,"ĠBreer":7054,"ĠMon":7055,"ĠMulti":7056,"ĠMsg":7057,"ĠMOD":7058,"Program":7059,"ENCODING":7060,"che":7061,"Ġ//ï¿½ï¿½ï¿½ï¿½":7062,"ĠInput":7063,"liance":7064,"Exported":7065,"ValueType":7066,"Ġuntil":7067,"Ġproperly":7068,"',[":7069,"ToIso":7070,"olid":7071,"Ġecx":7072,"Ġcontain":7073,"Ġconnection":7074,"ased":7075,"ĠTGet":7076,"ĠTGIF":7077,"Mac":7078,"FileUtils":7079,"FileVersion":7080,"setWidth":7081,"Ġ100":7082,"PathQueue":7083,"AddStream":7084,"ĠRL":7085,"TypeHandler":7086,"ĠGetQuantity":7087,"Ġ22":7088,"tended":7089,"DBLookup":7090,"Children":7091,"Channel":7092,"Ġ->":7093,"ĠNative":7094,"ĠNUM":7095,">{*":7096,">{******************************************************************************":7097,"IdHTTP":7098,"Ġxxx":7099,"ThreadId":7100,"Modelo":7101,"ORDER":7102,"venttype":7103,"Ġie":7104,"ĠiPessoa":7105,"ĠiRest":7106,"ffine":7107,"ĠTCDClient":7108,"ĠTCriticalSection":7109,"pushvalue":7110,"Ġgover":7111,"ModuleList":7112,"ĠWinsock":7113,"FieldByName":7114,"ĠTPlay":7115,"IndexHeader":7116,"Ġbefore":7117,"Ġexp":7118,"EditBox":7119,"roupBox":7120,"headers":7121,"ĠSetQuantity":7122,"ĠSetGamma":7123,"ĠSetMachineQuantity":7124,"ImageHeader":7125,"ImageNtHeaders":7126,"ĠDeleted":7127,"ĠBGRASSE":7128,"ĠBGRABITMAP":7129,"ĠRest":7130,"ĠRevenue":7131,"MessageBoxA":7132,"ICK":7133,"ICINF":7134,"ĠTFill":7135,"ĠTFMX":7136,"Ordem":7137,"StatusInfoCmd":7138,"HILE":7139,"ĠIdent":7140,"expl":7141,"execute":7142,"formance":7143,"MemoryStream":7144,"Ġselect":7145,"WebDAV":7146,"SSUnit":7147,"board":7148,"colorset":7149,"newdraw":7150,"Author":7151,"MethodProperty":7152,"ReadString":7153,"CustomGamma":7154,"Ġalready":7155,"ĠTfrmHome":7156,"Disabled":7157,"ĠWebcam":7158,"ĠProvid":7159,"GenericSet":7160,"GenericStack":7161,"GenericDictionary":7162,"MPlayer":7163,"ĠTGBSwaggerRegister":7164,"ĠKIND":7165,"RecordCount":7166,"ĠTCustomEdit":7167,"ĠEngl":7168,"ĠTStringStream":7169,"ĠTStringField":7170,"parameter":7171,"oneEvent":7172,"Ġfreeandnil":7173,"Pointerscan":7174,"paulo":7175,"ĠTGBSwaggerModelSchema":7176,"FloatToStr":7177,"ĠLazUtils":7178,"SendReceiv":7179,"Ġ2003":7180,"URLFrame":7181,"util":7182,"ĠTADO":7183,"ASCI":7184,"Funcs":7185,"ĠTWMS":7186,"note":7187,"ALIGN":7188,"Registers":7189,"EXEC":7190,"PixelFormat":7191,"VirtualMemory":7192,"åĪĨ":7193,"lfanew":7194,"TLS":7195,"luginVersion":7196,"Ġarrays":7197,"Ġcompliance":7198,"Points":7199,"ĠUScreenOptions":7200,"ById":7201,"LibName":7202,"ĠTECRA":7203,"FilterScanner":7204,"TIME":7205,"Ġcalcul":7206,"ĠToString":7207,"ĠFDataStream":7208,"ĠSizeOf":7209,"Allocate":7210,"ssible":7211,"stallation":7212,"ĠcontainerFontNames":7213,"ĠcontainerFontColors":7214,"ĠDisplay":7215,"Localized":7216,"iete":7217,"Ġlinear":7218,"LOOP":7219,"RowState":7220,"Verif":7221,"Ġpossible":7222,"Ġpluginexports":7223,"Ġflags":7224,"Ġï¿½ï¿½ï¿½ï¿½ï¿½ï¿½":7225,"ORMATION":7226,"2005":7227,"SERVER":7228,"Matchs":7229,"ĠTcustompanel":7230,"ĠAudio":7231,"ĠComboName":7232,"PGDef":7233,"ĠTeam":7234,"ĠTearDown":7235,"ĠTDogs":7236,"096":7237,"ExtFloatNumber":7238,"ExtZoom":7239,"Variable":7240,"ĠTMenuPrn":7241,"ĠTScreenParty":7242,"ĠSynchronize":7243,"Adapter":7244,"dylib":7245,"gaIni":7246,"ĠTLuaServer":7247,":='';<":7248,"ĠCustomTypeHandler":7249,"ChangedAddresses":7250,"servicePath":7251,")^._":7252,"ĠTIntegrityCheckThread":7253,"LAST":7254,"MySQL":7255,"RESULT":7256,"yric":7257,"ĠTDBEdit":7258,"ChxMag":7259,"ĠApplyCustomGamma":7260,"ĠLongword":7261,"ĠNote":7262,"ĠObterRegistros":7263,"originaldraw":7264,"ĠLIdUsuario":7265,"Ġ*****************************************************************************<":7266,"DblWord":7267,"ĠLAPIResponse":7268,"Ġcommands":7269,"ĠTJSONExtFloatNumber":7270,"ĠTRateDao":7271,"NumberOfBytes":7272,"ĠAmountIterationMean":7273,"ĠIGBSwaggerPathMethod":7274,"ĠJvDesign":7275,"CameraExtZoom":7276,"ĠUCDClient":7277,"ĠProcurarPorId":7278,"BUG":7279,"HashList":7280,"PImageDosHeader":7281,"SyncSource":7282,"Drag":7283,"Location":7284,"ĠCoolDock":7285,"Ġsmallint":7286,"Snapshot":7287,"XPM":7288,"brir":7289,"vgLvl":7290,"è½½":7291,"Ġ**********************************************************************":7292,"rocesses":7293,"ĠTBaseEvent":7294,"ĠTBoolArray":7295,"remarks":7296,"Ġlimitation":7297,"ĠGWLP":7298,"getAddressFromName":7299,"Authentication":7300,"Ġarguments":7301,"Weak":7302,"æŀľ":7303,"Conditional":7304,"ĠtemperaturaEm":7305,"BLOB":7306,"Evaluation":7307,"RITE":7308,"ĠStephan":7309,"ColorspaceHelper":7310,"RECORDS":7311,"BASICINF":7312,"Ligne":7313,"dividual":7314,"ĠCDXUT":7315,"omunikat":7316,"ExportedFunctions":7317,"DBLookupComboBox":7318,">{******************************************************************************}<":7319,"Ġgoverning":7320,"ĠTFMXObject":7321,"ASCII":7322,"EXECUT":7323,"ĠTECRAcknowledgementCmd":7324,"ĠCoolDockClient":7325,"vgLvlTree":7326,"Ġlimitations":7327,"BASICINFORMATION":7328,"\",":7329,")');<":7330,"/'":7331,"19":7332,"48":7333,"500":7334,":\\":7335,"ADE":7336,"About":7337,"AcknowledgementCmd":7338,"ABLE":7339,"Bmp":7340,"BAD":7341,"BillSend":7342,"CMD":7343,"Domain":7344,"Direction":7345,"EO":7346,"ET":7347,"Ed":7348,"FSwagger":7349,"FChangeStatus":7350,"GA":7351,"Gate":7352,"GIF":7353,"GPL":7354,"History":7355,"Komunikat":7356,"LId":7357,"LService":7358,"Lock":7359,"MIN":7360,"Marca":7361,"Obter":7362,"Origin":7363,"Prefix":7364,"Qword":7365,"RPC":7366,"Random":7367,"Sal":7368,"Sample":7369,"SDK":7370,"TDB":7371,"Tran":7372,"TDAO":7373,"TNotifyEvent":7374,"TPClient":7375,"UF":7376,"VAR":7377,"VATE":7378,"WRITE":7379,"ZVT":7380,"aur":7381,"cp":7382,"ccl":7383,"classes":7384,"fs":7385,"fra":7386,"global":7387,"hlp":7388,"ior":7389,"known":7390,"men":7391,"most":7392,"na":7393,"niv":7394,"numeric":7395,"oli":7396,"offset":7397,"player":7398,"pires":7399,"rToStr":7400,"rtti":7401,"sUnit":7402,"src":7403,"uil":7404,"ually":7405,"ypes":7406,"§åĪ¶":7407,"Ã§":7408,"åĻ":7409,"å¥½":7410,"å½ķ":7411,"Ġ):":7412,"Ġ----------------":7413,"Ġang":7414,"Ġtitle":7415,"Ĥè½½":7416,"ĮĤè½½":7417,"ĵæŀľ":7418,"init":7419,"onde":7420,"ĠTra":7421,"ĠTConfig":7422,"ĠTryGetValue":7423,"ĠTpicture":7424,"oriz":7425,"orted":7426,"unr":7427,"unÃ§":7428,"tions":7429,"dev":7430,"Ġpixel":7431,"Ġpolygon":7432,"Ġperson":7433,"ĠSymbolListHandler":7434,"ending":7435,"tag":7436,"Ġcu":7437,"Ġcor":7438,"ĠFn":7439,"ĠFIs":7440,"ĠFloat":7441,"ĠFerror":7442,"ĠFFormatSettings":7443,"ĠFUnMedida":7444,"ĠFValorUnAtual":7445,"ĠFnome":7446,"ĠFlags":7447,"etor":7448,"amaur":7449,"icial":7450,"icao":7451,"Ġfloat":7452,"ĠfTextureCoords":7453,"ĠCM":7454,"ĠCan":7455,"ĠCra":7456,"ĠCmd":7457,"Ins":7458,"Inser":7459,"yspires":7460,"ĠPE":7461,"ĠPower":7462,"ĠPrint":7463,"Colored":7464,"ĠDAR":7465,"isfunction":7466,"ĠAData":7467,"ĠAug":7468,"ĠAma":7469,"ĠAObj":7470,"ĠADescription":7471,"ĠACaption":7472,"uelta":7473,"ough":7474,"ĠLanguage":7475,"Ġsong":7476,"Ġsite":7477,"Ġspeed":7478,"ĠsBitBtn":7479,"Ġspecif":7480,"Ġsplit":7481,"Ġspeedhack":7482,"//<":7483,"fact":7484,"ĠGraph":7485,"ĠwParam":7486,"Ġwant":7487,"ĠbReadOnly":7488,"very":7489,"INUE":7490,"Ġdc":7491,"DECODING":7492,"Ġmy":7493,"Ġmodulename":7494,"ĠUp":7495,"ĠUParty":7496,"ĠUfrm":7497,"ĠVari":7498,"Ġ'\\":7499,"phy":7500,"idUsuario":7501,"ĠWideString":7502,"edia":7503,"Ġdeal":7504,"Ġdelete":7505,"getHeight":7506,"gettick":7507,"usuario":7508,"loor":7509,"config":7510,"controls":7511,"iza":7512,"ĠBe":7513,"ĠBlock":7514,"indForm":7515,"ĠMur":7516,"ĠManager":7517,"Prox":7518,"Ġ(*":7519,"change":7520,"children":7521,"FormShow":7522,"ottrace":7523,"ParamValue":7524,"Ġabsolute":7525,"Ġavailable":7526,"Extract":7527,"ĠConfig":7528,"Ġtobject":7529,"ToData":7530,"ToHex":7531,"umb":7532,"Ġhotkey":7533,"Ġhold":7534,"Ġ{**<":7535,"Ġcontinue":7536,"CreateParams":7537,"LuaHandler":7538,"PCM":7539,"Mail":7540,"ĠuCommon":7541,"ĠuDW":7542,"FileSize":7543,"Responses":7544,"Arquivo":7545,"veira":7546,"PathDelimiter":7547,"Ġtwo":7548,"Ġtwincontrol":7549,"KeyType":7550,"ĠRS":7551,"ĠRDP":7552,"ĠGetJSON":7553,"Ġ244":7554,"GetBytes":7555,"tson":7556,"ĠTBrush":7557,"TPanel":7558,"TPEG":7559,"arian":7560,"Chave":7561,"ĠEm":7562,"ĠNod":7563,"ĠNormal":7564,"ird":7565,"HTTPClient":7566,"ĠFMemo":7567,"ArrayFunction":7568,"ThreadEvent":7569,"ĠLicensed":7570,"ITCH":7571,"actypes":7572,"MODESW":7573,"rents":7574,"ĠTPT":7575,"ĠTPar":7576,"ĠTProcess":7577,"ĠĠĠĠĠĠĠĠĠĠĠĠĠĠĠĠĠĠĠĠ":7578,"ĠĠĠĠĠĠĠĠĠĠĠĠĠĠĠĠĠĠĠĠĠĠĠĠĠĠĠĠĠ":7579,"Ġexist":7580,"Ġexport":7581,"Ġstream":7582,"Ġrl":7583,"Ġrt":7584,"Ġrandom":7585,"ĠBGRACanvas":7586,"Ġvariant":7587,"ĠLuaCustom":7588,"Ġvmx":7589,"URCE":7590,"machine":7591,"bertson":7592,"Ġjboolean":7593,"Seek":7594,"LECT":7595,"texture":7596,"GraphicsContent":7597,"CodeBar":7598,"extra":7599,"ViewText":7600,"TableTo":7601,"compression":7602,"WebSocket":7603,"both":7604,"ĠHttp":7605,"ĠTBGRAButton":7606,"valho":7607,"TED":7608,"iobject":7609,"Ġalso":7610,"Ġchanged":7611,"Ġchildren":7612,"ĠTfrmSplash":7613,"azine":7614,"REQU":7615,"ĠTextGL":7616,"COL":7617,"FromStream":7618,"FFindForm":7619,"ipulation":7620,"httpGET":7621,"ocket":7622,"ĠDBCtrls":7623,"progress":7624,"Processor":7625,"ProcessID":7626,"CheckListBox":7627,"pati":7628,"ĠNewItem":7629,"METype":7630,"Layers":7631,"MAIL":7632,"rsInc":7633,"agemap":7634,"ShowIp":7635,"PTLog":7636,"peedButton":7637,"Ġdisplay":7638,"iagnos":7639,"Android":7640,"DeviceInfo":7641,"JNIBridge":7642,"ĠFPImage":7643,"ĠFPimage":7644,"ĠOneHttpConst":7645,"Ġarea":7646,"ĠTDAOOrcamento":7647,"blue":7648,"Ġfpjsonrtti":7649,"))));<":7650,"Synch":7651,"Syntax":7652,"2017":7653,"BGRABitmap":7654,"Tracer":7655,"ĠZConnection":7656,"ĠZDataset":7657,"solete":7658,"Ġmaxsize":7659,"Ġtimeout":7660,"PlayList":7661,"Players":7662,"ĠFIdPessoa":7663,"ĠFIdEndereco":7664,"ĠFIdRate":7665,"Magic":7666,"Magenta":7667,"Ġarticles":7668,"ĠImg":7669,"ĠIntToStr":7670,"CGIApp":7671,"ĠLogNiv":7672,"ights":7673,"Ġcoeficiente":7674,"ĠFindStruc":7675,"ĠbtnStart":7676,"ĠbtnStop":7677,"ĠSelectBool":7678,"ĠAngus":7679,"ercicio":7680,"RYINDE":7681,"Ġcheckbox":7682,"ĠfOnTimer":7683,"ĠtempFolder":7684,"ĠjsonObj":7685,"entage":7686,"ĠTFileDesc":7687,"ĠValide":7688,"Loading":7689,"Ġtableindex":7690,"ConexaoFactory":7691,"ĠTime":7692,"ĠcustomControl":7693,"Ġcustomimagelist":7694,"XMLRPC":7695,"ĠæľĢ":7696,"debugger":7697,"ĠFadeProgress":7698,"inkoiaProtocol":7699,"Ġsqrt":7700,"Ġsqlite":7701,"SideBar":7702,"ĠTMemoryRecord":7703,"Ġitems":7704,"Ġautoassembler":7705,"]:=#":7706,"ĠCurrency":7707,"ĠCurrToStr":7708,"SERVE":7709,"returncount":7710,"SysInfoList":7711,"ĠEncodeDate":7712,"disassembler":7713,"ĠTBackground":7714,"Reflection":7715,"ĠUpdateDateTime":7716,"Ġfinddialog":7717,"ĠMagazine":7718,"CONTEXT":7719,"ĠTHTTPServer":7720,"ĠAnsiChar":7721,"partly":7722,"orrectNumberOf":7723,"Permissions":7724,"ĠimgIcon":7725,"Scripting":7726,"MyController":7727,"ĠTEventPanel":7728,"Ġdrawing":7729,"ĠBaseAddress":7730,"AsStreamNotFound":7731,"ĠTMyQuery":7732,"CheatE":7733,"Ġteam":7734,"ĠTfViewPage":7735,"NeoButton":7736,"FCliente":7737,"DEVICE":7738,"LayerOriginal":7739,"ĠSMART":7740,"ĠUScreenPartyTournament":7741,"THorseCallback":7742,"gfid":7743,"Ġtimer":7744,"allocs":7745,"Guess":7746,"Svr":7747,"Ġsupport":7748,"ArrowStyles":7749,"ĠFromDPI":7750,"ĠFlastUpdate":7751,"Highlighted":7752,"VALUE":7753,"ĠULONG":7754,"ĠJukeboxStatic":7755,"dogs":7756,"GetCurrentThreadId":7757,"ĠTRateEntity":7758,"ç»ĵæŀľ":7759,"ĠBackObj":7760,"CAST":7761,"æĪ·":7762,"Ġesd":7763,"ĠRaise":7764,"NFeXML":7765,"Ġagre":7766,"ĠENV":7767,"ĠCarvalho":7768,"inttohex":7769,"CompareMem":7770,"Ġimporting":7771,"rotationpoint":7772,"ĠBlonde":7773,"ĠAsStreamNotFound":7774,"ĠFPReadJPEG":7775,"ĠLocalSearch":7776,"typedefinitions":7777,"ĠModel":7778,"Serializer":7779,"ĠExtractFilePath":7780,"CONTINUE":7781,"Denis":7782,"ĠPRIME":7783,"ĠWbemScripting":7784,"Focus":7785,"ĠSTART":7786,"ĠFbirthdayDate":7787,"ĠLeft":7788,"ĠUPDClient":7789,"----------<":7790,"lientesModel":7791,"PChar":7792,"cludeTrailingPathDelimiter":7793,"polation":7794,"ĠScripting":7795,"idered":7796,"ĠMiddleware":7797,"ĠRobertson":7798,"ĠTFindDialog":7799,"mediateStatusInfoCmd":7800,"REGISTRYINDE":7801,"Poller":7802,"iversarian":7803,"Ġ*******************":7804,"ĠTIntermediateStatusInfoCmd":7805,"Ġcadastrado":7806,"ĠEngland":7807,"TDAOBase":7808,"ZVTProtocol":7809,"oliveira":7810,"§åĪ¶åĻ":7811,"orizont":7812,"amauryspires":7813,"ĠCraig":7814,"ĠDARWIN":7815,"ĠAugust":7816,"ĠAmaury":7817,"ĠGraphType":7818,"gettickcount":7819,"ĠMurphy":7820,"TPEGinkoiaProtocol":7821,"ĠNormalize":7822,"MODESWITCH":7823,"Ġvmxfunctions":7824,"GraphicsContentViewText":7825,"CodeBarre":7826,"rsIncorrectNumberOf":7827,"ĠTFileDescWebPage":7828,"ĠæľĢå¥½":7829,"ĠBlondeau":7830,"REGISTRYINDEX":7831,"rsIncorrectNumberOfParameters":7832,"\"},":7833,"'])":7834,"(#":7835,".{$":7836,"17":7837,"1000":7838,"42":7839,"49":7840,"97":7841,":';<":7842,"<=":7843,"=$":7844,"=%":7845,">*":7846,">-":7847,">><":7848,"ACKDO":7849,"Bin":7850,"BController":7851,"CHI":7852,"Crypt":7853,"Dac":7854,"Dpi":7855,"DsCep":7856,"Fra":7857,"GN":7858,"GER":7859,"GDB":7860,"GMENT":7861,"IE":7862,"IV":7863,"IResponse":7864,"Jukebox":7865,"LD":7866,"Num":7867,"Numeric":7868,"PS":7869,"Pes":7870,"PER":7871,"PArray":7872,"PByte":7873,"STE":7874,"Solid":7875,"TMem":7876,"TDateTime":7877,"TDataSet":7878,"Trim":7879,"Target":7880,"TWebRequest":7881,"VK":7882,"WP":7883,"Want":7884,"XM":7885,"XChave":7886,"You":7887,"YST":7888,"];":7889,"_<":7890,"aac":7891,"bility":7892,"core":7893,"dialogs":7894,"dropDown":7895,"eLabel":7896,"fTextureCoords":7897,"ged":7898,"hs":7899,"ius":7900,"iased":7901,"len":7902,"nk":7903,"nList":7904,"next":7905,"save":7906,"scri":7907,"script":7908,"sRGB":7909,"scale":7910,"suspended":7911,"tComp":7912,"target":7913,"tmethod":7914,"uList":7915,"wn":7916,"wr":7917,"wparam":7918,"zill":7919,"zrfisaac":7920,"}';<":7921,"¡ç":7922,"¦ģ":7923,"¨ç±»":7924,"¯çĶ":7925,"¾ĭ":7926,"Ã°":7927,"Úµ":7928,"ä¾ĭ":7929,"è¡":7930,"èĩªå®ļä¹ī":7931,"éĹ":7932,"Ġ--":7933,"ĠQuantity":7934,"ĲĨ":7935,"err":7936,"onClick":7937,"reation":7938,"team":7939,"tect":7940,"tepen":7941,"ĠTU":7942,"ĠTce":7943,"ĠTTo":7944,"ĠTop":7945,"ĠTQu":7946,"ĠTVersion":7947,"ĠTChar":7948,"ĠTry":7949,"ĠTMachineLine":7950,"ĠTDBGrid":7951,"ĠTXS":7952,"ĠTHealth":7953,"ĠTTPEGinkoiaProtocol":7954,"seconds":7955,"orPOST":7956,"sta":7957,"stock":7958,"arc":7959,"leur":7960,"cep":7961,"cefuncproc":7962,"ung":7963,"antidebug":7964,"dead":7965,"asm":7966,"Ġpte":7967,"ĠSER":7968,"ĠSender":7969,"ĠSome":7970,"ĠSample":7971,"ĠSockets":7972,"ĠSWP":7973,"Ġcb":7974,"Ġclear":7975,"Ġcbi":7976,"Ġctypes":7977,"ĠFValue":7978,"ĠFRequest":7979,"ĠFText":7980,"ĠFilter":7981,"ĠFax":7982,"ĠFBufferQuantity":7983,"ĠFlot":7984,"ĠFBestRecordNumber":7985,"ĠFWorseRecordNumber":7986,"trackbar":7987,"Ġfs":7988,"Ġfnt":7989,"Ġfilter":7990,"ĠCor":7991,"ĠCri":7992,"ĠCanvas":7993,"ĠCleanup":7994,"InFile":7995,"Inicial":7996,"Ġoper":7997,"ĠoCEPModel":7998,"ĠPA":7999,"ĠPC":8000,"ĠPFloat":8001,"ĠPosition":8002,"ĠPBGRA":8003,"ĠPlatform":8004,"ĠPhoxo":8005,"Ġthan":8006,"ading":8007,"Cost":8008,"ĠDir":8009,"ĠDMODE":8010,"ĠDave":8011,"ĠDIG":8012,"ĠiniFiles":8013,"HorseException":8014,"Ġ=================================":8015,"Ġlines":8016,"Ġluas":8017,"isstring":8018,"ĠSysutils":8019,"ĠAct":8020,"ĠAMessage":8021,"ĠAParams":8022,"ĠAFieldName":8023,"ĠAWebRequest":8024,"Red":8025,"Received":8026,"RemoteThread":8027,"peak":8028,"Construction":8029,"Connexion":8030,"Converter":8031,"Ġrest":8032,"cktComp":8033,"elength":8034,"istor":8035,"istable":8036,"ectar":8037,"ĠLIN":8038,"ĠLBody":8039,"ĠLogin":8040,"ĠLanguages":8041,"Ġscript":8042,"Ġstep":8043,"Ġsleep":8044,"ĠGate":8045,"ĠGamma":8046,"ĠGlobal":8047,"Ġwell":8048,"Ġbinary":8049,"Ġbuffers":8050,"verse":8051,"INC":8052,"Ġdot":8053,"IFft":8054,"ĠIDevice":8055,"ĠIDirect":8056,"licit":8057,"Ġmu":8058,"Ġman":8059,"ĠUWeb":8060,"ĠUNote":8061,"ĠUfra":8062,"Ġ')":8063,"Ġ'{":8064,"ssl":8065,"ssage":8066,"idTeam":8067,"idOrcamento":8068,"Ġdev":8069,"getElement":8070,"getColumn":8071,"ListSubClass":8072,"apse":8073,"izable":8074,"Ġnormal":8075,"ĠBtn":8076,"Controler":8077,"ĠTHorseRtti":8078,"ĠTHorseCompression":8079,"ĠMy":8080,"ĠMouse":8081,"ĠMercado":8082,"ired":8083,"ireDac":8084,"ogram":8085,"chno":8086,"luaL":8087,"Ġ//ï¿½":8088,"************************":8089,"pertoire":8090,"sient":8091,"sites":8092,"FormLeft":8093,"Ġaction":8094,"ĠaNome":8095,"Exist":8096,"Expression":8097,"ValueAsObject":8098,"Ġunt":8099,"Ġtoken":8100,"Encode":8101,"ucture":8102,"Ġext":8103,"ResultDescr":8104,"Ġ{<":8105,"Ġcons":8106,"Ġconversion":8107,"Ġcontex":8108,"Ġconverts":8109,"Destruction":8110,"ĠuniImage":8111,"LuaCall":8112,"Comm":8113,"0001":8114,"ĠuTooan":8115,"Collision":8116,"SELECT":8117,"SEGMENT":8118,"Ġ1000":8119,"SwagRequired":8120,"SwagGET":8121,"enery":8122,"igo":8123,"Arch":8124,"OnPaint":8125,"ERY":8126,"Ġtreeview":8127,"Ġtfind":8128,"ĠRx":8129,"ĠRibbon":8130,"ControlCount":8131,"ĠGetApp":8132,"ĠGetLog":8133,"ĠGetHeaders":8134,"ĠGetRealQuantity":8135,"ĠGetFileSize":8136,"ï¿½<":8137,"GetById":8138,"ĠTBuffer":8139,"ĠDatabase":8140,"DBX":8141,"TPopulation":8142,"Child":8143,"==========":8144,"istration":8145,"ĠNE":8146,"ĠNil":8147,">//#":8148,"endereco":8149,"ushcount":8150,"Ġ01":8151,"ĠFormClose":8152,"ĠTDO":8153,"Unknown":8154,"ecos":8155,"Ġreadbytes":8156,"Registration":8157,"ĠTCGI":8158,"ĠTCaseNameDefinition":8159,"ĠThird":8160,"HTTPHEADER":8161,"Ġglyph":8162,"ĠWinControl":8163,"FieldID":8164,"ĠTPicture":8165,"ptBR":8166,"Ġextra":8167,"tics":8168,"0101":8169,"ĠGeneric":8170,"tname":8171,"hest":8172,"heet":8173,"ESTBODY":8174,"Ġrange":8175,"ĠSetId":8176,"ĠSetBufferQuantity":8177,"ĠSetOnListen":8178,"ImageIndex":8179,"ImageMan":8180,"ĠDelet":8181,"ExceptionLogger":8182,"Considered":8183,"ĠBGRAGradient":8184,"Ġasm":8185,"ĠasString":8186,"Ġassembler":8187,"Ġanimation":8188,"Ġvartype":8189,"ĠLuaCollection":8190,"ĠvIdx":8191,"ĠUnix":8192,"Ġparamtype":8193,"ĠOnMouse":8194,"Appro":8195,"Ġjint":8196,"Ġjava":8197,"Providers":8198,"ProviderAbstract":8199,"Ġlistview":8200,"Completion":8201,"ĠTListObject":8202,"ĠTListInteger":8203,"ĠTListView":8204,"ĠTListPointer":8205,"ĠTListStack":8206,"ĠTListBoolean":8207,"ĠTListDouble":8208,"ĠTListSmallInt":8209,"APSE":8210,"ĠControleOperacoes":8211,"ĠControleLivre":8212,"Logo":8213,"ĠXPL":8214,"ĠusDeleted":8215,"ĠusModified":8216,"ĠusInser":8217,"SerialPortPrinter":8218,"EqualFunction":8219,"forms":8220,"MemoryView":8221,"Ġmemrec":8222,"WebFile":8223,"Website":8224,"ĠHORSE":8225,"ĠExp":8226,"ĠExpectation":8227,"ĠOneMultipart":8228,"ĠTBGRAPath":8229,"keys":8230,"newsize":8231,"newkernelhandler":8232,"ĠIGBSwaggerRegister":8233,"AddressTo":8234,"AddressFile":8235,"Ġ\"';<":8236,"ĠsetId":8237,"Ġqua":8238,"Ready":8239,"ReadByte":8240,"ReadSize":8241,"Customer":8242,"Ġchild":8243,"Ġchunk":8244,"Linear":8245,"Disable":8246,"READE":8247,"Any":8248,"wins":8249,"COOK":8250,"ULO":8251,"ĠUniImage":8252,"BufferMemory":8253,"ĠTControleConsultaGerarDocumento":8254,"ĠTControleCadastroVinculoUsuario":8255,"ĠTControleMensagemErro":8256,"ĠTControleEnviaMensagemAguarde":8257,"ĠTControleImpressaoDocumento":8258,"ScreenMask":8259,"MachineMemory":8260,"Phrase":8261,"ĠMake":8262,"ĠTUniServerModule":8263,"FontColor":8264,"ROM":8265,"__________":8266,"Ġobjects":8267,"ORDRE":8268,"Account":8269,"scanner":8270,"ParentModuleName":8271,"RunStatistic":8272,"SQLite":8273,"Checks":8274,"ĠDoBets":8275,"ĠDoOnListen":8276,"TObjectList":8277,"ENTRY":8278,"****************************************************************************************":8279,"ĠRegisterComponents":8280,"Ġ2012":8281,"Ġ2019":8282,"ĠLazFreeType":8283,"MET":8284,"MAG":8285,"anguageType":8286,"URLSEGMENT":8287,"ĠTAlign":8288,"RIGGER":8289,"ĠNOTE":8290,"ĠglColor":8291,"CmdEvent":8292,"EndAngle":8293,"AllPrinter":8294,"ĠStructure":8295,"ContextRecord":8296,"teste":8297,"ApplicationDescriptor":8298,"TCP":8299,"TCaseNameDefinition":8300,"Ġentry":8301,"ĠenUS":8302,"Enderecos":8303,"Leave":8304,"sgGrid":8305,"Ġshl":8306,"Ġshr":8307,"Ġshared":8308,"threadhandle":8309,"))/(":8310,"Synapse":8311,"Ġtrack":8312,"UNMODIFIED":8313,"Ġregister":8314,"2013":8315,"BGRAButton":8316,"ĠZoom":8317,"ichar":8318,"ĠQRouterItem":8319,"Ġzrfisaac":8320,"TLanguageType":8321,"DSHTTP":8322,"ansichar":8323,"ĠServices":8324,"TControleOperacoes":8325,"ĠCharset":8326,"ĠTControleConsultaModalBanco":8327,"ĠTControleConsultaModalCidade":8328,"ĠTControleConsultaModalTipoTitulo":8329,"ĠTControleConsultaModalConvenio":8330,"ĠTControleConsultaModalPessoaTituloPagar":8331,"ĠLogPath":8332,"Retour":8333,"AudioDevice":8334,"ĠFindAll":8335,"ĠbtnGetUserInfo":8336,"Ġ'')":8337,"AutoCreated":8338,"ä¸į":8339,"SubImage":8340,"SubModuleName":8341,"ĠTTreeString":8342,"ĠTTreeInteger":8343,"ĠTTreePointer":8344,"lipse":8345,"Ġsomething":8346,">///*":8347,"LCLProc":8348,"ĠTMainForm":8349,"OrcamentoPorId":8350,"ĠeditAccess":8351,"ĠeditUserID":8352,"TIPO":8353,"ĠlpNumberOfBytes":8354,"Ġprocessid":8355,"ĠTCECustomButton":8356,"ĠTCETreeview":8357,"Allocation":8358,"ĠCdsConsultaDESCRICAO":8359,"Socks":8360,"ĠTFileStream":8361,"ĠTFileListByte":8362,"missions":8363,"Ġinclude":8364,"Ġallocs":8365,"ĠcontainerFontStyles":8366,"ĠcontainerFontSizes":8367,"ĠcontainerFontBackGrounds":8368,"uration":8369,"ConnectDialog":8370,"DuetFourP":8371,"NOME":8372,"Ġnecess":8373,"ĠxIdUser":8374,"ĠxIdOrcamento":8375,"ĠIsaac":8376,"results":8377,"ĠæĮĤè½½":8378,"sterImage":8379,"GETorPOST":8380,"Ġknow":8381,"ĠTQueueByte":8382,"Ġworks":8383,"ĠAPIs":8384,"ĠAPrefix":8385,"ĠAlloc":8386,"DPIAware":8387,"ĠTechno":8388,"CFG":8389,"Variables":8390,"elsius":8391,"Ġduring":8392,"ĠTGSetList":8393,"ĠTGSetItem":8394,"ĠTGSetIndex":8395,"ĠTGStackList":8396,"ĠTGStackItem":8397,"ĠTGStackIndex":8398,"FTabela":8399,"poseMode":8400,"gatif":8401,"namelength":8402,"ĠTLuaCaller":8403,"ĠUsdx":8404,"ĠControleConsultaModalTituloCategoria":8405,"fterConstruction":8406,"modrm":8407,"ĠTResetableThread":8408,"ĠULuaUsdx":8409,"PropertiesStore":8410,"Execution":8411,"InternalListen":8412,"WebModuleClass":8413,"Blue":8414,"ĠTSetInteger":8415,"ĠTSetPointer":8416,"IPList":8417,"ĠTDataSetSerializeConfig":8418,"Ġnumbers":8419,"ĠChartHist":8420,"ªå¥½":8421,"Restore":8422,"SwagParamBody":8423,"ĠTRESTClient":8424,"ĠApplyGamma":8425,"FCe":8426,"FourPAvatar":8427,"fbclient":8428,"SOURCE":8429,"ĠCURLINFO":8430,"ĠtotalHeight":8431,"ĠTGPairValue":8432,"ĠTGPairKey":8433,"ĠTGDictionaryList":8434,"ĠTGDictionaryIndex":8435,"________________________________________________________________":8436,"quivoBase":8437,"THorseProviderAbstract":8438,"gfx":8439,"obsolete":8440,"LibraryLocation":8441,"ĠTStatusInfoCmd":8442,"CoolTranslator":8443,"ĠTClientAguarde":8444,"PACKAGE":8445,"PACKRECORDS":8446,"CPFCliente":8447,"DllDirectory":8448,"ĠTTextEntityType":8449,"foreDestruction":8450,"Ġcoordinate":8451,"Whats":8452,"ĠFDsCep":8453,"ĠNeon":8454,"ĠNegatif":8455,"ĠTHorseCoreParamField":8456,"ComboboxListHandler":8457,"GUIObject":8458,"synthes":8459,"QUERY":8460,"Ġèĩªå®ļä¹ī":8461,"ĠfrxExport":8462,"ĠAmountTimeMean":8463,"ĠMethod":8464,"UpdatedStatus":8465,"ĠTControleOperacoesCaixa":8466,"ĠTControleLivreChequeImagem":8467,"spacing":8468,"defaultBrush":8469,"ĠMaskEdit":8470,"ĠTBGRANeoButton":8471,"Ġdebuggertypedefinitions":8472,"ĠActiveX":8473,"65536":8474,"65535":8475,"Societe":8476,"safed":8477,"äº¤":8478,"æİ§åĪ¶åĻ":8479,"DELETED":8480,"ĠWhile":8481,"ĠDevicePath":8482,"ĠAddCallbacks":8483,"ĠTControleConsultaModalTituloCategoriaPagar":8484,"ĠTControleConsultaModalTituloCategoriaReceber":8485,"RTTIä¿¡æģ¯":8486,"FillRect":8487,"ĠPByteArray":8488,"Ġ=================================================================================":8489,"Ġtmemorystream":8490,"zenas":8491,"ĠTStaticGUIObject":8492,"roughput":8493,"ĠCaires":8494,"ĠMutation":8495,"ĠTListSimpleEventBase":8496,"111113":8497,"ĠListValB":8498,"ĠTDAOItemServico":8499,"ĠcontainerBorderColor":8500,"ĠValidate":8501,"SYNAPSE":8502,"ĠCELUA":8503,"Ġhookwindow":8504,"Ġconnect":8505,"ĠTSDLInputDevice":8506,"ĠnumeroConcurso":8507,"sectCodeThread":8508,"tialiasing":8509,"PHPArray":8510,"TITULO":8511,"ĠTlistcolumn":8512,"ĠTPersistentclass":8513,"ĠTListNotifyEventBase":8514,"RawImage":8515,"åĪĽå»ºæİ§åĪ¶åĻ":8516,"AnimatorTimer":8517,"è®°å½ķ":8518,"æĸĩä»¶è®°å½ķ":8519,"ĠImportFromInternet":8520,"KOIA":8521,"UDIO":8522,"WAIT":8523,"ĠTAsyncTimer":8524,"ĠFastCompareMem":8525,"INSERTED":8526,"ĠJOYST":8527,"askara":8528,"ĠcurrWidth":8529,"DoNotEncode":8530,"FlatArray":8531,"ä¸Ģä¸ªå¥½":8532,"åĲ¦åĪĻä¼ļæĮī":8533,"Quality":8534,"TCanvasObject":8535,"Video":8536,"encia":8537,"ĠTUtilBanco":8538,"delph":8539,"ĠFThreadTimer":8540,"icionarRegistro":8541,"illiseconds":8542,"headersize":8543,"ĠWebcamFrame":8544,"ĠProviders":8545,"åĪĨæĸĩä»¶è®°å½ķ":8546,"Ġ**********************************************************************<":8547,"ObterRegistros":8548,"Transient":8549,"Ġspecified":8550,"REQUESTBODY":8551,"COLOR":8552,"progressbar":8553,"ĠValideNumeric":8554,"CheatECoin":8555,"ĠRaiseHorseException":8556,"orizontal":8557,"ĠæľĢå¥½èĩªå®ļä¹ī":8558,"\"},{\"":8559,"Pesqu":8560,"TDataSetSerializeConfig":8561,"hsBrackets":8562,"zilla":8563,"¯çĶ±":8564,"ĠTQuick":8565,"ĠTHealthBar":8566,"ĠFaxeLabel":8567,"ĠFlotant":8568,"ĠCriado":8569,"ĠCleanupLuaCall":8570,"ĠDIGCF":8571,"ĠLINUX":8572,"ĠGlobals":8573,"IFftView":8574,"ĠIDeviceArray":8575,"ssageBoxA":8576,"ĠTHorseRttiTypeHelper":8577,"ĠuTooanClass":8578,"Ġtfinddialog":8579,"ĠTCGIApplicationDescriptor":8580,"ImageManipulation":8581,"ĠusInserted":8582,"COOKIE":8583,"ĠæĮĤè½½RTTIä¿¡æģ¯":8584,"ĠTechnolog":8585,"ĠChartHistogram":8586,"__________________________________________________________________________":8587,"synthesis":8588,"Ġèĩªå®ļä¹īåĪĽå»ºæİ§åĪ¶åĻ":8589,"ĠJOYSTICK":8590,"ĠValideNumericKeyPress":8591,"ĠæľĢå¥½èĩªå®ļä¹īä¸Ģä¸ªå¥½":8592,"Ġèĩªå®ļä¹īåĪĽå»ºæİ§åĪ¶åĻ¨ç±»":8593,"\");<":8594,"'..":8595,"'))":8596,",}":8597,".',":8598,"37":8599,"386":8600,"473":8601,"4096":8602,"50":8603,"53":8604,"59":8605,"506":8606,":%":8607,"AC":8608,"AX":8609,"AData":8610,"AWAR":8611,"AULT":8612,"Bus":8613,"BMP":8614,"Breakpoint":8615,"Browser":8616,"Clipbrd":8617,"Claim":8618,"DIT":8619,"EB":8620,"EV":8621,"Email":8622,"Fil":8623,"FId":8624,"FError":8625,"FRE":8626,"HER":8627,"HInstance":8628,"HWnd":8629,"IMAGE":8630,"Jo":8631,"JOR":8632,"Jpeg":8633,"LI":8634,"Lang":8635,"LGPL":8636,"MG":8637,"Mob":8638,"Medley":8639,"Nou":8640,"Numer":8641,"NING":8642,"Os":8643,"Pop":8644,"Population":8645,"PopupMenu":8646,"Posix":8647,"PMEMORY":8648,"RL":8649,"RS":8650,"RUN":8651,"Same":8652,"Specific":8653,"Step":8654,"Solver":8655,"Srv":8656,"Sheet":8657,"TD":8658,"Tur":8659,"TColor":8660,"TService":8661,"Two":8662,"TWM":8663,"TIterationResults":8664,"Tutorial":8665,"Ul":8666,"VA":8667,"Var":8668,"VScroll":8669,"XMPlayer":8670,"aint":8671,"aded":8672,"aisiePtch":8673,"ba":8674,"bu":8675,"blog":8676,"buffers":8677,"cle":8678,"cmd":8679,"cimal":8680,"don":8681,"dire":8682,"dark":8683,"eer":8684,"eax":8685,"fil":8686,"final":8687,"gend":8688,"ght":8689,"hook":8690,"hone":8691,"hProcess":8692,"ja":8693,"jan":8694,"jum":8695,"ling":8696,"lations":8697,"long":8698,"lparam":8699,"mover":8700,"memo":8701,"node":8702,"ntry":8703,"oi":8704,"obj":8705,"och":8706,"pth":8707,"ptic":8708,"paolo":8709,"pansichar":8710,"qIni":8711,"sing":8712,"symbols":8713,"tstringlist":8714,"udo":8715,"wi":8716,"wByte":8717,"wdb":8718,"xtobject":8719,"});<":8720,"«¯":8721,"¬¦":8722,"Ã©":8723,"Ä£":8724,"å¯":8725,"å¹":8726,"å¼":8727,"æĶ":8728,"æ³¨åĨĮ":8729,"ç¬¦":8730,"è¦ģ":8731,"Ġro":8732,"Ġord":8733,"ĠJS":8734,"Ġage":8735,"Ġum":8736,"Ġorder":8737,"Ġ9000":8738,"Ġ!<":8739,"Ĥæķ°":8740,"įç":8741,"Ĺç¬¦":8742,"erm":8743,"erate":8744,"erial":8745,"erge":8746,"inho":8747,"iniFiles":8748,"ones":8749,"onize":8750,"req":8751,"ension":8752,"enable":8753,"enabled":8754,"ensitive":8755,"ĠTValue":8756,"ĠTRegister":8757,"ĠTRegion":8758,"ĠTDefault":8759,"ĠTEncoding":8760,"ĠTWebcam":8761,"ĠTNetwork":8762,"rossi":8763,"arUsuario":8764,"unix":8765,"delos":8766,"asString":8767,"Ġpinteger":8768,"Ġpos":8769,"Ġpagemap":8770,"ĠSA":8771,"ĠSm":8772,"ĠSleep":8773,"ĠScktComp":8774,"endUpdate":8775,"Ġcap":8776,"Ġcod":8777,"Ġclick":8778,"Ġcache":8779,"Ġcenter":8780,"ĠFObject":8781,"ĠFph":8782,"ĠFHTTP":8783,"ĠFException":8784,"ĠFUsuario":8785,"ĠFmin":8786,"ĠFTitle":8787,"ĠFloor":8788,"etal":8789,"its":8790,"trys":8791,"tryn":8792,"trie":8793,"icom":8794,"Ġfq":8795,"ĠfShow":8796,"Ġfilename":8797,"Ġfmod":8798,"ĠfBackObj":8799,"ĠfunÃ§":8800,"Ġfading":8801,"tern":8802,"terior":8803,"lsockets":8804,"ĠCo":8805,"ĠCryptographer":8806,"ĠChest":8807,"InThread":8808,"Inner":8809,"ateHWnd":8810,"straint":8811,"Ġocs":8812,"ĠPV":8813,"ĠPBuffer":8814,"ĠPessoa":8815,"ĠPCv":8816,"ĠPosix":8817,"ĠPaolo":8818,"ĠDirectory":8819,"Ġind":8820,"Ġini":8821,"Ġinv":8822,"Ġinst":8823,"Ġinside":8824,"ritic":8825,"ula":8826,"ulate":8827,"Ġlst":8828,"Ġloc":8829,"ĠAler":8830,"ĠAMax":8831,"ĠAvgLvlTree":8832,"Release":8833,"ReduceLine":8834,"rating":8835,"Ġrecur":8836,"Ġrepresent":8837,"Ġrepeat":8838,"ĠLock":8839,"Ġsv":8840,"Ġsend":8841,"Ġsub":8842,"Ġsur":8843,"ĠsService":8844,"Ġspec":8845,"Ġsign":8846,"ĠsOnly":8847,"Ġsamples":8848,"Ġspace":8849,"ĠsDuplicate":8850,"Ġway":8851,"tos":8852,"token":8853,"Ġbp":8854,"ĠbRequired":8855,"Ġbuild":8856,"Ġbetween":8857,"imension":8858,"Ġdr":8859,"Ġdate":8860,"Ġdirection":8861,"Ġdistance":8862,"Reserved":8863,"Ġthey":8864,"ĠIP":8865,"ĠIcon":8866,"ĠImp":8867,"ĠIPP":8868,"Ġmc":8869,"Ġmac":8870,"Ġmask":8871,"ĠUUtils":8872,"ĠUTime":8873,"ĠUService":8874,"ĠUMain":8875,"ĠUDraw":8876,"ĠUChx":8877,"ĠVolume":8878,"Ġ'+":8879,"Ġ'');<":8880,"andata":8881,"ssize":8882,"sslsockets":8883,"emem":8884,"('\\":8885,"idget":8886,"ĠWil":8887,"ĠWindow":8888,"ĠWait":8889,"ĠWritten":8890,"Ġdesign":8891,"Ġdevelopment":8892,"getName":8893,"getColor":8894,"ilite":8895,"usuarios":8896,"Ġluaobject":8897,"Tee":8898,"Ġnb":8899,"ĠBo":8900,"ĠBObj":8901,"ĠBAS":8902,"ĠBanco":8903,"ĠMac":8904,"ENV":8905,"child":8906,"Ġrespon":8907,"Ġresol":8908,"Paci":8909,"FormData":8910,"ĠaUsuario":8911,"ToArray":8912,"ToUTF":8913,"Enable":8914,"Ġevery":8915,"DataX":8916,"DataController":8917,"Ġconfig":8918,"Ġconsole":8919,"ĠTGif":8920,"ĠTGradient":8921,"ĠTGrilleTaillesSP":8922,"Dest":8923,"Servid":8924,"url":8925,"Thick":8926,"aren":8927,"ĠuDevice":8928,"Ġudm":8929,"ĠuDM":8930,"FileExt":8931,"FileMapping":8932,"setName":8933,"Ġ19":8934,"Named":8935,"SysTypes":8936,"Syslog":8937,"OnEnter":8938,"veau":8939,"ERO":8940,"PathInfo":8941,"PathMethod":8942,"Ġtt":8943,"Ġtcolor":8944,"Ġtcustom":8945,"AddObject":8946,"ĠRossi":8947,"ĠRights":8948,"ĠGetAPI":8949,"ĠGetAsString":8950,"ĠGetServiceController":8951,"ĠGetBGRABitmap":8952,"Ġ26":8953,"GetString":8954,"GetServiceController":8955,"TPage":8956,"TPersistent":8957,"ĠEvent":8958,"define":8959,"ĠNt":8960,"ĠNome":8961,"ĠNPlugin":8962,"ĠNpp":8963,"Ġitt":8964,"ARCHI":8965,"FPCustom":8966,"ĠxToken":8967,"Ġxml":8968,"Ġreader":8969,"Regular":8970,"fft":8971,"ableinfo":8972,"actualcount":8973,"InfoData":8974,"Ġgts":8975,"Ġgradient":8976,"Ġyet":8977,"ramerate":8978,"TextColor":8979,"mbarc":8980,"dereco":8981,"DEFAULT":8982,"ATURE":8983,"ĠGenerate":8984,"StrToInt":8985,"ĠSetAnimation":8986,"Interpolation":8987,"ImageNTHeader":8988,"rescan":8989,"ĠBGRAFilter":8990,"Ġantidebug":8991,"ĠLuaList":8992,"ĠLuaComponent":8993,"ICS":8994,"alsection":8995,"ĠUnless":8996,"CLabel":8997,"ĠTFView":8998,"ĠTFireDac":8999,"Ġparamstart":9000,"ĠOnly":9001,"ĠCommon":9002,"ĠCompression":9003,"Append":9004,"Ġjstring":9005,"Ġjlong":9006,"Ġlaw":9007,"anceled":9008,"ĠFreeType":9009,"IONS":9010,"Ġmade":9011,"ponents":9012,"APass":9013,"APReduceLine":9014,"ĠTHorseCoreGroup":9015,"ĠXData":9016,"ighting":9017,"Ġmemds":9018,"Ġsem":9019,"Ġseconds":9020,"WebConst":9021,"HeaderControl":9022,"Winsock":9023,"ĠResp":9024,"coes":9025,"ĠHave":9026,"ĠHDC":9027,"ĠExists":9028,"ĠTThreadObject":9029,"ĠTThreadProcedure":9030,"ĠfpWeb":9031,"ĠfpFCGI":9032,"ĠIGBSwaggerSchema":9033,"keydown":9034,"ĠJFieldID":9035,"adecimal":9036,"TEE":9037,"ĠTSave":9038,"ĠTSample":9039,"ĠTSpeedButton":9040,"ĠfrmDriverLoaded":9041,"Ġwhat":9042,"NetResource":9043,"ĠTextName":9044,"Aniversarian":9045,"Anterior":9046,"ĠWebID":9047,"ĠWebDispatcher":9048,"ĠTRL":9049,"ĠTRUE":9050,"ĠLCLClasses":9051,"ĠKernel":9052,"ĠDBK":9053,"ĠDBEdit":9054,"ĠDBGrid":9055,"Ġdark":9056,"ĠTCustomType":9057,"ĠTCustomControl":9058,"ĠEnabled":9059,"ĠEndereco":9060,"erevent":9061,"paramstart":9062,"ĠTFormaPagamento":9063,"HOST":9064,"ĠbyteTableTo":9065,"memRegion":9066,"records":9067,"JsonObj":9068,"NIX":9069,"ĠWARRANTI":9070,"Ġrating":9071,"itextobject":9072,"Ġcegu":9073,"CadPaci":9074,"Ġ2004":9075,"Ġedx":9076,"ĠTAl":9077,"ĠTABLE":9078,"Ġdissect":9079,"IniFiles":9080,"PageControl":9081,"**************************************************************************":9082,"adero":9083,"Ġsynchronize":9084,"emaphore":9085,"ĠShellAPI":9086,"Ġunits":9087,"ĠinitializeLuaList":9088,"ĠFPrefix":9089,"ĠTFrmBasic":9090,"ĠTWM":9091,"Ġenum":9092,"Ġenough":9093,"ĠCEP":9094,"uesize":9095,"BlockReadSize":9096,"ĠTDAOBets":9097,"ĠTDAOCarro":9098,"ĠTDAOMatchs":9099,"OneDispatcher":9100,"ĠAppend":9101,"ĠTUserInfo":9102,"cluir":9103,"MaxSize":9104,"ĠPTWM":9105,"2010":9106,"cape":9107,"doError":9108,"lace":9109,"ĠZip":9110,"ichEdit":9111,"0000000":9112,"registerfunction":9113,"query":9114,"ĠBytes":9115,"Regions":9116,"Playback":9117,"ĠcurrentGame":9118,"Produce":9119,"ĠServiceStart":9120,"ĠServiceStop":9121,"ĠPalette":9122,"Performance":9123,"WSMenus":9124,"Ġ/**************************************************************************":9125,"Ġcould":9126,"MultilineInputQuery":9127,"ĠptInt":9128,"Need":9129,"Renderer":9130,"ĠFTgfid":9131,"Libc":9132,"USTEE":9133,"Ġvalor":9134,"Ġcalls":9135,"MinWidth":9136,"ĠToJSON":9137,"Ġlpte":9138,"ĠlpBuffer":9139,"maxlevel":9140,"ĠExecuteLua":9141,"Ġtempdelta":9142,"Ġprocesshandler":9143,"ĠSpecializedStream":9144,"ĠTPointF":9145,"ularity":9146,"TBAPSolution":9147,"EmptyStr":9148,"ĠTDMGlobal":9149,"DebuggerAttach":9150,"ĠTGBSwaggerModelJSONPathResponse":9151,"ĠTGBSwaggerModelJSONContact":9152,"ConnectList":9153,"ĠUMicro":9154,"Validate":9155,"ĠsHTTPItemName":9156,"ĠsHTTPItemMethod":9157,"ĠsHTTPItemDefault":9158,"ĠsHTTPItemEnabled":9159,"ĠsHTTPItemURI":9160,"ĠsHTTPItemProducer":9161,"LOC":9162,"ĠTJava":9163,"Ġparser":9164,"curl":9165,"Sprite":9166,"TCustomFTP":9167,"Ġimages":9168,"ĠTDemoJsonController":9169,"ĠTDemoMyController":9170,"ĠTLogLevel":9171,"Ġfphttpapp":9172,"RESTResponse":9173,"Ġimagehlp":9174,"ĠAlpha":9175,"show":9176,"Ġpermissions":9177,"ĠTDogDAO":9178,"ĠFSwaggerPathResponse":9179,"Ġprovides":9180,"Ġruning":9181,"MidiComp":9182,"ĠArrayElement":9183,"ĠGLext":9184,"ActionName":9185,"ĠXMLDoc":9186,"adioButton":9187,"ĠUsuario":9188,"ĠUsaisiePtch":9189,"UBLIC":9190,"modified":9191,"è¿ĩ":9192,"Ġdesc":9193,"Ġgamepanel":9194,"###":9195,"Blend":9196,"HeapHandle":9197,"Ġquery":9198,"Finalize":9199,"ĠTDotNetMethod":9200,"ConsoleUI":9201,"ĠTBGRABitmapArray":9202,"==============================================================================":9203,"Columns":9204,"ĠApplyInv":9205,"ĠLongInt":9206,"ĠOpenSSL":9207,"Tools":9208,"ĠTMemScan":9209,"ĠTMemRec":9210,"ĠSongFile":9211,"ĠCURLM":9212,"ĠCURLIO":9213,"exeption":9214,"ĠTBGRAReaderIco":9215,"ĠTlistitems":9216,"Ġpoints":9217,"FPU":9218,"cii":9219,"uccess":9220,"ĠInitializeJni":9221,"ĠOraXML":9222,"ĠOracle":9223,"TEXTURE":9224,"ĠedtPort":9225,"CPF":9226,"ĠcxPropertiesStore":9227,"RelativeScanner":9228,"ĠLAPISource":9229,"connect":9230,"Ġdoesn":9231,"pluginid":9232,"Ġapplicable":9233,"FastCGI":9234,"Saved":9235,"White":9236,"ĠvQryPesqu":9237,"ĠTSQLite":9238,"ĠTSQLTransaction":9239,"Preview":9240,"ĠTModelRoutine":9241,"ĠAdjust":9242,"GraphicControlExtension":9243,"ĠTJclFPU":9244,"VCLUI":9245,"isteTailles":9246,"ĠTGUIObject":9247,"Ġguitextobject":9248,"VEHSharedMem":9249,"ĠRawByte":9250,"ĠOriginalComboboxListHandler":9251,"ĠcollectionItem":9252,"734":9253,"DotNetObjectList":9254,"OutputDriver":9255,"PenStyle":9256,"Sql":9257,"Tiles":9258,"æİ¥":9259,"luaroutineIndex":9260,"inttostr":9261,"ĠDeSelectH":9262,"ĠDeSelectW":9263,"ĠTypeHelpers":9264,"NoteBookStringsTabControl":9265,"Calendar":9266,"fieldid":9267,"preter":9268,"åıĤæķ°":9269,"Ġ===========================================================================":9270,"Ġvariable":9271,"when":9272,"ĠFListResponses":9273,"Couleur":9274,"Ġnewiconstream":9275,"Ġnewicondir":9276,"ĠMenuItem":9277,"ĠthreadnamesCS":9278,"6944":9279,"SIGNATURE":9280,"Ġkeventtype":9281,"ĠCONDIT":9282,"Ġdynlibs":9283,"Ġdefines":9284,"activatetime":9285,"Ġchanges":9286,"SvcMgr":9287,"Ġpnl":9288,"Ġrefresh":9289,"empty":9290,"ĠuSetupDi":9291,"AssemblyScan":9292,"Sequence":9293,"ĠTSimpleThread":9294,"TTextEntityType":9295,"bably":9296,"æį¢":9297,"è·¯çĶ±":9298,"ĠHandlerCS":9299,"ĠTranslation":9300,"riority":9301,"ĠenderecoIntegracao":9302,"Ġgoing":9303,"ĠTMouseButton":9304,"MARY":9305,"Ð»Ð¾":9306,"Ġwriting":9307,"explorer":9308,"ĠAudioSystem":9309,"ĠTLuaServerHandler":9310,"EOF":9311,"uilder":9312,"Ġangular":9313,"ĠTrasterImage":9314,"ĠPEInfo":9315,"ĠLuaCustomControl":9316,"compressionstream":9317,"Synchro":9318,"LayerOriginalEntry":9319,"Ġagreed":9320,"ZVTProtocolManager":9321,"ĠNormalizePath":9322,"TMemScan":9323,"reationTime":9324,"ĠPhoxoBlock":9325,"ĠDavec":9326,"Ġcontexthandler":9327,"ĠThirdParty":9328,"CompletionCmd":9329,"Ġ===============================================================================================":9330,"CheatECoinCount":9331,"ĠTechnologies":9332,"'..'":9333,"506647":9334,"FIdRcd":9335,"Mobilite":9336,"Nouveau":9337,"PMEMORYBASICINFORMATION":9338,"RUNNING":9339,"direntry":9340,"onizeProc":9341,"trynr":9342,"icomponents":9343,"ĠChestType":9344,"riticalsection":9345,"ĠsOnlyOneDispatcher":9346,"ĠsDuplicateActionName":9347,"ĠIPPeer":9348,"ĠBASIS":9349,"Servidor":9350,"Thickness":9351,"ĠGetAPIVersion":9352,"ARCHIV":9353,"FPCustomImage":9354,"mbarcadero":9355,"ĠSetAnimationProgress":9356,"ĠWARRANTIES":9357,"Ġceguicomponents":9358,"CadPacientes":9359,"modifiedLGPL":9360,"ĠApplyInvGamma":9361,"ĠRawByteString":9362,"Ġ============================================================================<":9363,"ĠCONDITIONS":9364,"'),":9365,"().":9366,"());<":9367,"(******************************************************":9368,")]":9369,")^":9370,")')]<":9371,"+(":9372,"-}":9373,"3647":9374,"46":9375,"58":9376,"512":9377,"63":9378,"83647":9379,"=-":9380,">%":9381,">'":9382,">,<":9383,"Aut":9384,"AName":9385,"AKey":9386,"AControl":9387,"ADescription":9388,"Abrir":9389,"AParamValue":9390,"AUDIO":9391,"Agend":9392,"BL":9393,"BSO":9394,"CTypes":9395,"Clock":9396,"CESS":9397,"CFunction":9398,"Crypto":9399,"CriticalSection":9400,"Cross":9401,"Celsius":9402,"CreationTime":9403,"Db":9404,"Don":9405,"Dig":9406,"Dword":9407,"DComponent":9408,"Dash":9409,"DWords":9410,"Detal":9411,"El":9412,"ECT":9413,"EMET":9414,"FJSONObject":9415,"FParams":9416,"FRun":9417,"FHorseFile":9418,"GION":9419,"GrilleTaillesSP":9420,"Ht":9421,"Hot":9422,"Hum":9423,"HWND":9424,"Iface":9425,"IGBSwagger":9426,"Ifft":9427,"Jump":9428,"LY":9429,"LIN":9430,"LList":9431,"Lower":9432,"Nod":9433,"ODE":9434,"OWN":9435,"OBJ":9436,"PF":9437,"PI":9438,"Pas":9439,"Pri":9440,"Pages":9441,"PID":9442,"PSS":9443,"Power":9444,"Ptc":9445,"Popup":9446,"Plot":9447,"QWord":9448,"RC":9449,"Rs":9450,"Rv":9451,"REL":9452,"RESS":9453,"Ribbon":9454,"Sli":9455,"Spec":9456,"TIn":9457,"TES":9458,"TJSONObject":9459,"TModel":9460,"TComponent":9461,"TIso":9462,"TTooan":9463,"TEqualFunction":9464,"TSolver":9465,"UDE":9466,"UAR":9467,"UES":9468,"UINT":9469,"UDP":9470,"WT":9471,"Watch":9472,"WMS":9473,"WideString":9474,"Written":9475,"YER":9476,"]))));<":9477,"^)":9478,"avid":9479,"aled":9480,"aRegistro":9481,"bg":9482,"br":9483,"bda":9484,"cix":9485,"card":9486,"copy":9487,"crypt":9488,"dq":9489,"dch":9490,"distribu":9491,"fx":9492,"float":9493,"glyph":9494,"gada":9495,"google":9496,"hl":9497,"high":9498,"haskara":9499,"iers":9500,"iID":9501,"lat":9502,"lObj":9503,"mr":9504,"more":9505,"macao":9506,"nv":9507,"pr":9508,"public":9509,"plist":9510,"pascal":9511,"paren":9512,"rad":9513,"rticle":9514,"sFactory":9515,"ui":9516,"uss":9517,"vQry":9518,"ySocket":9519,"®¡ç":9520,"ÐĴ":9521,"Ñĩ":9522,"å®":9523,"å°":9524,"ç®¡ç":9525,"ĠÃ":9526,"ĠRA":9527,"ĠRegion":9528,"Ġè¿ĶåĽŀ":9529,"iner":9530,"insert":9531,"onitor":9532,"remove":9533,"rePtc":9534,"ens":9535,"enum":9536,"ĠTO":9537,"ĠTUtils":9538,"ĠTInteger":9539,"ĠTMe":9540,"ĠTMachine":9541,"ĠTVirtual":9542,"ĠTCommand":9543,"ĠTScroll":9544,"ĠTModalResult":9545,"ĠTrustInterval":9546,"ĠTScrollBox":9547,"ĠTAutoAssembler":9548,"ĠTsa":9549,"ĠTIterationResults":9550,"ĠTVariant":9551,"ĠTHookableEvent":9552,"ĠTCreateParams":9553,"ĠTConexaoFactory":9554,"ĠTSerialPortPrinter":9555,"ĠTCompletionCmd":9556,"ĠTFPCustomImage":9557,"ories":9558,"tipo":9559,"stable":9560,"style":9561,"rol":9562,"rozen":9563,"arPedido":9564,"leave":9565,"alHeader":9566,"aliza":9567,"unch":9568,"uncoes":9569,"ĠpPanel":9570,"Ġperc":9571,"ĠSP":9572,"ĠSb":9573,"ĠSec":9574,"ĠSolver":9575,"ĠSHA":9576,"ĠSwap":9577,":=_":9578,"Ġcr":9579,"Ġcare":9580,"Ġcmd":9581,"ĠcUS":9582,"Ġcrt":9583,"ĠFra":9584,"ĠFVersion":9585,"ĠFSQL":9586,"ĠFToken":9587,"ĠFDoc":9588,"ĠFmax":9589,"ĠFHeaders":9590,"ĠFReadOnly":9591,"ĠFDateFormat":9592,"ĠFFilename":9593,"ĠFDogId":9594,"ĠFROM":9595,"ĠFtipo":9596,"*****)<":9597,"itude":9598,"Ġfb":9599,"Ġfill":9600,"ĠfMod":9601,"Ġfunc":9602,"ĠfGradient":9603,"ĠCD":9604,"ĠCe":9605,"ĠCOR":9606,"ĠCada":9607,"ĠCMD":9608,"ĠCross":9609,"ĠCSN":9610,"ystem":9611,"Ġown":9612,"ĠPing":9613,"ĠPOS":9614,"ĠPROC":9615,"ĠPDWORD":9616,"ĠPImageNtHeaders":9617,"ĠPluginVersion":9618,"Ġthrough":9619,"ĠDb":9620,"ĠDs":9621,"ĠDGL":9622,"ĠDTO":9623,"ĠDavid":9624,"beginUpdate":9625,"rive":9626,"ulink":9627,"Ġlt":9628,"Ġlon":9629,"Ġlam":9630,"Ġlat":9631,"Ġlook":9632,"Ġlock":9633,"aglow":9634,"ĠAS":9635,"ĠAResult":9636,"ĠAMin":9637,"ĠATrueValue":9638,"ĠAZip":9639,"Repaint":9640,"Reason":9641,"Conversion":9642,"Conclu":9643,"Conectar":9644,"ĠLA":9645,"ĠLo":9646,"ĠLONG":9647,"Ġss":9648,"Ġsymbol":9649,"Ġsolution":9650,"Ġstepen":9651,"----<":9652,"ĠGen":9653,"ĠGUID":9654,"ĠGlyph":9655,"Ġwm":9656,"Ġwret":9657,"toco":9658,"Ġbmp":9659,"Ġbgr":9660,"Ġbreakpoint":9661,"Ġbottom":9662,"Ġbpm":9663,"Ġbhaskara":9664,"ObjectBuffer":9665,"INCL":9666,"Ġdialog":9667,"Ġdiff":9668,"IFY":9669,"Ġthese":9670,"ĠIMVC":9671,"Ġmid":9672,"Ġmbi":9673,"Ġmouse":9674,"Ġmidi":9675,"Ġmilliseconds":9676,"ĠUObject":9677,"ĠUConfig":9678,"ĠUSA":9679,"ĠUPlaylist":9680,"ĠUAudioSystem":9681,"ĠUHookableEvent":9682,"ĠURL":9683,"ĠVCL":9684,"Ġ'%":9685,"Ġ'<":9686,"Ġ'..":9687,"andfix":9688,"ubCadastros":9689,"('$":9690,"edt":9691,"Ġdem":9692,"Ġdet":9693,"Ġdeactivatetime":9694,"utar":9695,"getSize":9696,"getItems":9697,"getMax":9698,"getModalResult":9699,"ilent":9700,"ListThread":9701,"ListVal":9702,"usted":9703,"CallAll":9704,"apis":9705,"loding":9706,"Ġnol":9707,"ĠnSize":9708,"Ġnull":9709,"ĠBit":9710,"ĠBest":9711,"ĠBuf":9712,"ĠBCPanel":9713,"ĠMap":9714,"Protoco":9715,"=====<":9716,"ENABLE":9717,"Ġclassname":9718,"Ġ//**<":9719,"Ġ//------------------------------------------------------------------------------<":9720,"Paused":9721,"ĠIni":9722,"ĠIncludeTrailingPathDelimiter":9723,"perts":9724,"sible":9725,"FormTop":9726,"Ġab":9727,"ĠaProc":9728,"ĠaUnMedida":9729,"ĠaValorUnAtual":9730,"ĠaConditional":9731,"lementation":9732,"Except":9733,"Expor":9734,"Exercicio":9735,"ValueFrom":9736,"Ġuname":9737,"ĠConn":9738,"ToJSONObject":9739,"ToModule":9740,"ToRGB":9741,"olds":9742,"ummy":9743,"StringArray":9744,"Ġhistory":9745,"Ġep":9746,"Ġeasy":9747,"Ġ{*":9748,"aset":9749,"Decode":9750,"TestGet":9751,"TestDelete":9752,"TestPost":9753,"TestPut":9754,"TestCreateApi":9755,"TestToHorse":9756,"TestGStartApiPortListens":9757,"RAR":9758,"PCv":9759,"Three":9760,"Thresh":9761,"Thumb":9762,"001":9763,"003":9764,"0002":9765,"SetEvent":9766,"SetProcess":9767,"SetWindow":9768,"Major":9769,"ĠuForm":9770,"ĠuTypes":9771,"ĠuPrinter":9772,"ĠuREST":9773,"ĠuRep":9774,"ĠuSynchro":9775,"ĠuWMS":9776,"FileHelper":9777,"SECTION":9778,"setColor":9779,"setModalResult":9780,"ResponseCmd":9781,"Ġiskeydown":9782,"SwagProp":9783,"igp":9784,"igger":9785,"igner":9786,"OnError":9787,"OnQuery":9788,"OnChange":9789,"Ġtlist":9790,"upport":9791,"upvalue":9792,"ĠRet":9793,"ĠREC":9794,"Typedef":9795,"ĠGetNew":9796,"ĠGetProcess":9797,"ĠGetGame":9798,"ĠGetMachineQuantity":9799,"ĠGetTemp":9800,"ĠGetLocalized":9801,"ĠGetAllPrinter":9802,"GetDog":9803,"tente":9804,"tence":9805,"ĠTBreak":9806,"GRAM":9807,"DBUtils":9808,"DBDateTimePicker":9809,"TPen":9810,"TPDClient":9811,"ĠExt":9812,"ĠNow":9813,"ĠNum":9814,"ARCH":9815,"ESymbol":9816,"Ident":9817,"ĠTDial":9818,"ĠTDirectory":9819,"Undo":9820,"ThreadProc":9821,"ThreadID":9822,"--------------------<":9823,"ORED":9824,"ixer":9825,"Ġreading":9826,"ĠiDAO":9827,"serir":9828,"ableInfo":9829,"ĠTCard":9830,"ĠTCpu":9831,"ĠTCircular":9832,"TypesToString":9833,"ĠThroughput":9834,"ĠStd":9835,"ĠStorage":9836,"ĠwriteBytes":9837,"adding":9838,"pushMethodProperty":9839,"StreamPart":9840,"Memtable":9841,"MemAndNil":9842,"ĠWinSvc":9843,"ĠTPlayer":9844,"ĠTPassword":9845,"ĠTPopupMenu":9846,"EventList":9847,"derIndex":9848,"ĠĠĠĠĠĠĠĠĠĠĠĠĠĠĠĠĠĠĠĠĠĠĠĠĠĠ":9849,"Ġexten":9850,"Ġexample":9851,"Ġexiste":9852,"ĠCreateApi":9853,"ĠCreateParams":9854,"ĠOle":9855,"ĠOrd":9856,"ĠOderIndex":9857,"acion":9858,"active":9859,"HandlerName":9860,"StrList":9861,"Ġstyle":9862,"Ġrc":9863,"Ġrx":9864,"Ġrdb":9865,"ĠSetOn":9866,"ĠSetSize":9867,"ĠSetProcess":9868,"ImageInfo":9869,"ImageDescriptor":9870,"ImageArr":9871,"respon":9872,"ĠDev":9873,"ExceptionRecord":9874,"BitCount":9875,"ĠBGRAText":9876,"ĠBGRAMatrix":9877,"ĠuseCustom":9878,"ServiceCreate":9879,"ServiceStart":9880,"Ġask":9881,"ĠReco":9882,"ĠRecal":9883,"database":9884,"Ġvisible":9885,"ĠvIdHTTP":9886,"BoxTop":9887,"make":9888,"ĠUnlock":9889,"ĠUnRender":9890,"ĠTFTP":9891,"ĠComPort":9892,"QueryEx":9893,"osure":9894,"tained":9895,"StatusBar":9896,"StatusMobilite":9897,"UserName":9898,"ardown":9899,"CED":9900,"Ġlatitude":9901,"TreeNode":9902,"ĠFreeMemAndNil":9903,"LEFT":9904,"ĠTListStream":9905,"Shader":9906,"pename":9907,"APrefix":9908,"APHashList":9909,"ĠIdFTP":9910,"ĠIdCTypes":9911,"LogData":9912,"exec":9913,"ĠXP":9914,"ĠXMP":9915,"timo":9916,"timer":9917,"Handled":9918,"MemoryFile":9919,"MemoryManager":9920,"MemoryAlloc":9921,"addressfile":9922,"Ġluaclassarray":9923,"canti":9924,"command":9925,"Usuarios":9926,"boPower":9927,"itedText":9928,"coef":9929,"ĠHAS":9930,"ĠExe":9931,"ĠExcept":9932,"ĠExcluir":9933,"ĠTThreadEndereco":9934,"ĠTThreadAut":9935,"ĠOneThread":9936,"ĠOneFileHelper":9937,"ĠTBGRAFilterScanner":9938,"ĠFPCAPACHE":9939,"UniProvider":9940,"ĠChx":9941,"ĠChurcher":9942,"newdrawindexed":9943,"ĠIGBSwaggerParameter":9944,"Commonality":9945,"valcanti":9946,"Ġ\"$":9947,"ĠJava":9948,"Ġsetup":9949,"ĠsetFull":9950,"DateTimeRequired":9951,"DateTimeNotRequired":9952,"DateTimeErrorFormat":9953,"DateTimeOnlyData":9954,"ĠTMask":9955,"ĠTMidi":9956,"Ġpointerscan":9957,"omething":9958,"ĠTSHA":9959,"),'":9960,"CustomDataSet":9961,"CustomHTTPServer":9962,"Ġchannels":9963,"CharSequence":9964,"LineBitBtn":9965,"LineSeries":9966,"ĠTfrmProgress":9967,"ĠTfrmDriverLoaded":9968,"ĠTfrmChangedAddresses":9969,"azVirtualStringTree":9970,"azySocket":9971,"REGION":9972,"ĠTextScore":9973,"Anapis":9974,"libSDL":9975,"pline":9976,"ĠTRun":9977,"ĠTRCC":9978,"ĠTRtl":9979,"ĠTRetor":9980,"DebugSharedMem":9981,"ĠProgress":9982,"FromIso":9983,"ĠUniPanel":9984,"ĠUniTimer":9985,"BufferSize":9986,"GenericStream":9987,"ĠButtonProcurar":9988,"StartTime":9989,"FFFF":9990,"ĠFileTime":9991,"TFrame":9992,"ĠTUniImage":9993,"ĠTUniPanel":9994,"ĠDBAccess":9995,"ĠDBNavigator":9996,"NumberTDB":9997,"NumberGDB":9998,"OptionalHeader":9999,"ĠTCustomIcon":10000,"ĠTCustomGroupBox":10001,"ĠTCustomGinkoia":10002,"ĠTCustomRadioGroup":10003,"ĠEntry":10004,"AbstractClass":10005,"paramcount":10006,"HOD":10007,"HOLD":10008,"Activate":10009,"Taking":10010,"mdaset":10011,"Print":10012,"ParentColor":10013,"PointerType":10014,"Pointerrescan":10015,"ProcessId":10016,"SQLUniProvider":10017,"CheckStatusMobilite":10018,"ĠRegisterMapper":10019,"Ġoptions":10020,"ConfigUnit":10021,"BackStyle":10022,"viron":10023,"WindowText":10024,"ĠAddVectoredExceptionHandler":10025,"CadAgend":10026,"MAJOR":10027,"ChangeNiv":10028,"CanvasPixels":10029,"ĠTAA":10030,"PAINT":10031,"PASS":10032,"PADRA":10033,"ShowModal":10034,"Ġtypedefs":10035,"Ġdisableinfo":10036,"DataModuleShutDown":10037,"ASSE":10038,"ASource":10039,"ĠrsM":10040,"ĠrsPSS":10041,"Androidapi":10042,"DevicePath":10043,"DeviceInterface":10044,"Connector":10045,"ĠFPassword":10046,"ĠTFrmShowIp":10047,"TheOwner":10048,"Ġencoding":10049,"ĠCEDebugger":10050,"Metadata":10051,"ForThread":10052,"coder":10053,"notation":10054,"Ġshown":10055,"Ġshadow":10056,"niMemscan":10057,"DrawItem":10058,"threadcount":10059,"))^;<":10060,"ĠTUserMgr":10061,"ĠcontainerColor":10062,"ĠPTBool":10063,"ĠStaticDuetP":10064,"rowse":10065,"ĠDateVersion":10066,"Beats":10067,"NextPlayer":10068,"ĠTestGet":10069,"ĠTestDelete":10070,"ĠTestPost":10071,"ĠTestPut":10072,"ĠTestCreateApi":10073,"ĠTestToHorse":10074,"ĠTestGStartApiPortListens":10075,"ĠTestMime":10076,"2016":10077,"2023":10078,"Already":10079,"ĠZero":10080,"EXT":10081,"VirtualFile":10082,"VirtualAlloc":10083,"ĠstrParentModuleName":10084,"ĠstrSubModuleName":10085,"FindUser":10086,"åĪ¤":10087,"ĠrenderRelative":10088,"DefaultModule":10089,"DefaultManager":10090,"TLazVirtualStringTree":10091,"DSServer":10092,"Fahrenheit":10093,"PlayerDriver":10094,"StopApi":10095,"StopApiListen":10096,"ĠServiceCreate":10097,"ĠServiceControler":10098,"ĠFIdDog":10099,"Magasin":10100,"TControleLivre":10101,"ĠStopped":10102,"Ġrequire":10103,"TopFix":10104,"ĠExitProcess":10105,"FalseValue":10106,"CaptionClose":10107,"])^.":10108,"ĠFindBest":10109,"ĠFindWorse":10110,"ĠUScreenSing":10111,"Ġ'';":10112,"Automacao":10113,"LeftFix":10114,"psz":10115,"recision":10116,"ĠAnnotation":10117,"Explicit":10118,"Directories":10119,"WriteIndex":10120,"HotkeyEx":10121,"MIMEType":10122,"USUAR":10123,"ĠUsername":10124,"ĠConvertData":10125,"memoryfile":10126,"memoryregions":10127,"StructureList":10128,"Minor":10129,"MinMax":10130,"ĠToRadi":10131,"ĠDrawInfo":10132,"ĠDaemonMain":10133,"ĠDaemonManager":10134,"ĠlpBaseAddress":10135,"ĠLastPos":10136,"Ġtempx":10137,"Ġcurrents":10138,"ĠSpecializedDictionary":10139,"poste":10140,"DoGetApi":10141,"DoPostApi":10142,"DoPutApi":10143,"ĠTDataBase":10144,"ĠTDisableInfo":10145,"PositionFix":10146,"pressed":10147,"ĠFrmMain":10148,"Ġlongitude":10149,"Ġmodules":10150,"ProcurarUsuario":10151,"ProcurarOrcamentoPorId":10152,"ĠThese":10153,"PipeServer":10154,"ĠFOnUpdate":10155,"ĠFOnCanContinue":10156,"ĠTHorseProviderIOHandleSSL":10157,"Ġallocated":10158,"/($":10159,"Ġtables":10160,"ĠDisassembler":10161,"Ġsuper":10162,"ActiveX":10163,"ĠTGBSwaggerModelJSONHeader":10164,"ĠTGBSwaggerModelJSONParameter":10165,"DuetSixPAvatar":10166,"ĠColorControl":10167,"ĠDataModuleStart":10168,"ĠDataModuleShutDown":10169,"ĠxIdTeam":10170,"Ġcustomdraw":10171,"resultReader":10172,"Sections":10173,"ĠTJniMemscan":10174,"ĠFCor":10175,"ValorTotal":10176,"ĠTFDPhysPgDriverLink":10177,"Spacing":10178,"Ġflushcount":10179,"1474":10180,"ctrl":10181,"InitQuery":10182,"Ġopensslsockets":10183,"ĠTDemoV":10184,"ĠTLogEvent":10185,"Ġcomponents":10186,"ĠTtreenodes":10187,"Ġpalette":10188,"ĠAlter":10189,"ĠIdSSLOpenSSLHeaders":10190,"Ġtab":10191,"Ġtag":10192,"ĠTcustomtrackbar":10193,"ĠTcustomprogressbar":10194,"ĠRunHorse":10195,"ĠEditBtn":10196,"Ġstarttime":10197,"Ġstartgame":10198,"ĠEncodeTime":10199,"PATCH":10200,"ĠTDogRating":10201,"DisassemblerView":10202,"hwndList":10203,"hwndItem":10204,"ĠTHEN":10205,"ĠTHosxp":10206,"ĠScore":10207,"ĠFSwaggerInfo":10208,"ĠFSwaggerParameter":10209,"Ġprovide":10210,"SecurityInfo":10211,"SecurityDescriptor":10212,"ĠTScreenOptions":10213,"ĠSynch":10214,"ĠSynEdit":10215,"Ġmodels":10216,"moteExec":10217,"Ġtestandfix":10218,"amentos":10219,"editbox":10220,"gaModel":10221,"ĠCustomizable":10222,"1234":10223,"ĠTRemoteThread":10224,"ExecSQL":10225,"ticks":10226,"Ġspecifically":10227,"GroupBoxHandler":10228,"FinalCount":10229,"LAYER":10230,"RESHOLD":10231,"singleton":10232,"ĠTDBNavigator":10233,"ApacheModuleData":10234,"Fixed":10235,"woConnectList":10236,"ĠSimpleDemo":10237,"ĠEdFind":10238,"tegrityCheckCheck":10239,"ĠClientDataSet":10240,"ĠLongRec":10241,"DEVINFO":10242,")*(":10243,"THRESHOLD":10244,"TDaemonMapper":10245,"WMIOnQuery":10246,"originaldrawindexed":10247,"ĠDOSS":10248,"pector":10249,"ĠTGStreamList":10250,"ĠTGStreamItem":10251,"ĠTGStreamIndex":10252,"ĠThreadPoller":10253,"Modify":10254,"Modification":10255,"StartApiListens":10256,"StartApiListenPort":10257,"StartApiListenHost":10258,"DblClick":10259,"gfId":10260,"rcItem":10261,"Ġtimerevent":10262,"ĠmenuItem":10263,"FPHTTPClient":10264,"ToolBar":10265,"ikMod":10266,"ĠInitialPascal":10267,"ĠTByteSet":10268,"TabControlNoteBookStrings":10269,"TrackBar":10270,"structionGroupArray":10271,"DelimitedText":10272,"Duplicates":10273,"FotoUsuario":10274,"Sair":10275,"Safe":10276,"Singles":10277,"VALID":10278,"aaaa":10279,"ĠCalendar":10280,"ĠCalcul":10281,"ĠvfMajor":10282,"ĠvfMinor":10283,"ComboboxListSubClass":10284,"Ġregions":10285,"scroll":10286,"cececece":10287,"Ġprevious":10288,"Ġdonottrace":10289,"Devuelta":10290,"Ġ128":10291,"HTMLFrame":10292,"openssl":10293,"ĠcomboboxdefaultBrush":10294,"ĠOneClientConnect":10295,"ĠTJclXMM":10296,"BevelOuter":10297,"Dlgs":10298,"Signature":10299,"ĠTResponseColored":10300,"ĠlytContainer":10301,"ĠMegaIni":10302,"ExeName":10303,"ĠRectangle":10304,"ĠHasData":10305,"ĠRegisterDaemonClass":10306,"ĠRegisterDaemonMapper":10307,"LazFreeType":10308,"æĪĳ":10309,"Ġtipo":10310,"Ġesp":10311,"Ġpeinfo":10312,"ĠFLogPath":10313,"ĠFLogSec":10314,"Ġwaitfor":10315,"ĠIBCustomDataSet":10316,"ĠmiFile":10317,"ĠTGamePanel":10318,"InfosBase":10319,"PPal":10320,"PImageNtHeaders":10321,"Squa":10322,"TaskBar":10323,"cfd":10324,"Ð¸Ñģ":10325,"ĠTProviderRequest":10326,"ĠClMonitor":10327,"Ġmultiple":10328,"ĠWhen":10329,"CanContinueEvent":10330,"ĠQryConsultaID":10331,"ĠQryConsultaDESCRICAO":10332,"Calc":10333,"ĠFArtid":10334,"ĠFArquivoBase":10335,"ĠaValueTrue":10336,"ĠTPessoaController":10337,"Ġvariables":10338,"ĠMachineLine":10339,"ĠTInstructionGroupPointerType":10340,"TGamePanel":10341,"pageindex":10342,"ĠTServerUtils":10343,"ĠScanData":10344,"ĠStyleButtons":10345,"terminator":10346,"ĠPPageInfo":10347,"Ġdxgi":10348,"Ġactually":10349,"ImgList":10350,"compulink":10351,"111114":10352,"ĠListValA":10353,"ĠTDAOItemPeca":10354,"ĠcontainerBorderWidth":10355,"Ġsqltransaction":10356,"ICONDIRENTRY":10357,"ĠTZQuery":10358,"ĠTEntidadePessoa":10359,"ĠTEntidadesFactory":10360,"Ġplayers":10361,"Ġfailed":10362,"ĠDecode":10363,"Ġdynamic":10364,"Ġ1999":10365,"Ġtbm":10366,"ĠTLazVirtualStringTree":10367,"APPPATH":10368,"FFTLineSeries":10369,"Clipboard":10370,"GINKOIA":10371,"magic":10372,"magasin":10373,"primitiveup":10374,"ĠTIPTLog":10375,"ĠADOSS":10376,"ĠContainsKey":10377,"ĠTListMethodBase":10378,"ĠProblemFunction":10379,"SynchronizeSvr":10380,"NegativeAcknowledgementCmd":10381,"Ġsavedscan":10382,"PRIMARY":10383,"ZTController":10384,"ĠTCollectionItem":10385,"ifiles":10386,"Ġbgt":10387,"ĠTGenericIterator":10388,"ĠuFTPFiles":10389,"asterImage":10390,"NUMBER":10391,"Accessed":10392,"ĠReflectionspacing":10393,"BYTES":10394,"CURSOR":10395,"jectedEvent":10396,"ergency":10397,"ĠCallAll":10398,"ĠDotNetPipe":10399,"ĠNUMBER":10400,"Ġxxxxx":10401,"ĠTPlaylist":10402,"OrdemServico":10403,"Authorization":10404,"SendReceivController":10405,"ĠtemperaturaEmCelsius":10406,"EXECUTION":10407,"BillSendController":10408,"MINOR":10409,"ĠCMC":10410,"factory":10411,"ediaPlayerDriver":10412,"ExtractFileName":10413,"ArquivoNFeXML":10414,"ĠTPTNegativeAcknowledgementCmd":10415,"iagnosis":10416,"ĠTMemoryRecordHotkey":10417,"SERVEUR":10418,"scaleH":10419,"è¡Į":10420,"ĠPCESymbol":10421,"ĠPBGRAPixel":10422,"Ġ======================================<":10423,"ĠUWebSDK":10424,"Expressions":10425,"ĠGetAppVersion":10426,"RegistrationCmd":10427,"Approx":10428,"WebFileController":10429,"ĠExpense":10430,"AccountView":10431,"ĠStructures":10432,"Whatsapp":10433,"RawImageData":10434,"ĠTQuickList":10435,"AXIS":10436,"ADataStream":10437,"Busy":10438,"EVENT":10439,"FREE":10440,"HERE":10441,"SpecificFunction":10442,"TurboPower":10443,"å¹´":10444,"ĠFHTTPLog":10445,"straints":10446,"Ġrecursive":10447,"ĠMacOS":10448,"ĠTGifSubImage":10449,"RegularExpressions":10450,"ĠGenerateur":10451,"ĠTSampleThread":10452,"Aniversariante":10453,"ĠKernelDebugger":10454,"Ġdarkmode":10455,"Ġdissectcode":10456,"Ġ/**************************************************************************\\<":10457,"DebuggerAttachTimeout":10458,"==============================================================================<":10459,"Detalhe":10460,"Html":10461,"HumRcd":10462,"OBJECT":10463,"RESSION":10464,"dchurcher":10465,"vQryCadastro":10466,"ç®¡çĲĨ":10467,"ĠRArticle":10468,"rePtcVersion":10469,"ĠTUtilsFunctions":10470,"ĠTIntegerField":10471,"ĠTsaisiePtch":10472,"alizaEnderecos":10473,"ĠFSQLLog":10474,"ĠfModi":10475,"ĠCadatr":10476,"ĠPROCESS":10477,"aglowek":10478,"ConversionRoutine":10479,"Concluido":10480,"INCLUDE":10481,"Ġ'..\\":10482,"Ġnoloop":10483,"ValueFromIndex":10484,"Threshold":10485,"ĠuRESTDW":10486,"ĠuRepriseCC":10487,"upvalueindex":10488,"ĠRECORD":10489,"ĠGetTempDirectory":10490,"DBDateTimePickerRv":10491,"ĠTCpuSpecificFunction":10492,"ĠTCircularObjectBuffer":10493,"ĠStorageCost":10494,"ĠRecover":10495,"ĠRecalcul":10496,"ĠTThreadAutalizaEnderecos":10497,"CommonalityScanner":10498,"ĠsetFullWidth":10499,"ĠTRCCCanContinueEvent":10500,"ĠTRetornos":10501,"PointerrescanConnectDialog":10502,"CadAgendamentos":10503,"PADRAO":10504,"ĠrsPSSIC":10505,"ĠTestMimeTypesToString":10506,"USUARIO":10507,"ĠToRadians":10508,"147483647":10509,"moteExecutor":10510,"Ġtestandfixcs":10511,"ĠPCESymbolInfo":10512,"\")<":10513,"\".<":10514,"'#":10515,"(-":10516,"),<":10517,"*.":10518,".$":10519,".,":10520,".';<":10521,".'+":10522,".###":10523,"26":10524,"29":10525,"211":10526,"220":10527,"230":10528,"260":10529,"34":10530,"45":10531,"56":10532,"5000":10533,"523":10534,"674":10535,"70":10536,"77":10537,":',":10538,";}<":10539,">&":10540,"?');":10541,"AB":10542,"AList":10543,"Aler":10544,"ABitmap":10545,"AInstance":10546,"ARAM":10547,"AVA":10548,"Bad":10549,"BAR":10550,"BObj":10551,"BORDER":10552,"CD":10553,"Cf":10554,"Car":10555,"Card":10556,"Cach":10557,"Cette":10558,"Da":10559,"Ds":10560,"Dont":10561,"Dict":10562,"DDR":10563,"Even":10564,"EFC":10565,"EASE":10566,"FS":10567,"Fin":10568,"FException":10569,"Fich":10570,"FFormLeft":10571,"Green":10572,"GTH":10573,"Gtf":10574,"Grayscale":10575,"Groupe":10576,"Hora":10577,"Horizontal":10578,"Il":10579,"ILog":10580,"Ital":10581,"Ke":10582,"KNO":10583,"LS":10584,"Loaded":10585,"Linux":10586,"Lzp":10587,"LRESULT":10588,"Lyric":10589,"Met":10590,"MTY":10591,"MULT":10592,"Nb":10593,"Orm":10594,"Off":10595,"OLE":10596,"Old":10597,"Orig":10598,"OOK":10599,"Pic":10600,"Poo":10601,"PReader":10602,"Persisten":10603,"PREADER":10604,"Processes":10605,"QUA":10606,"RST":10607,"RINTER":10608,"RGN":10609,"RINC":10610,"SU":10611,"Split":10612,"Ssf":10613,"Swap":10614,"TG":10615,"Tre":10616,"Tri":10617,"Tform":10618,"Tfrm":10619,"TRender":10620,"TMy":10621,"TNextProc":10622,"TGraphicControl":10623,"TJni":10624,"TProblem":10625,"Tela":10626,"TMemoryStream":10627,"TXMPlayer":10628,"ULE":10629,"UAudioSystem":10630,"WE":10631,"WPARAM":10632,"WHILE":10633,"XE":10634,"ZPAINT":10635,"\\';<":10636,"]).":10637,"^:=":10638,"_';<":10639,"aw":10640,"aVersion":10641,"bin":10642,"bool":10643,"breakpoint":10644,"cm":10645,"car":10646,"cad":10647,"creen":10648,"dk":10649,"dp":10650,"dar":10651,"dao":10652,"domain":10653,"dConcluido":10654,"eature":10655,"fd":10656,"from":10657,"frame":10658,"foundlist":10659,"gs":10660,"ging":10661,"hr":10662,"hModule":10663,"hip":10664,"ibel":10665,"ike":10666,"je":10667,"jni":10668,"ko":10669,"kIn":10670,"kins":10671,"lt":10672,"late":10673,"laz":10674,"loneEvent":10675,"match":10676,"multi":10677,"num":10678,"normal":10679,"oid":10680,"pend":10681,"ptem":10682,"patch":10683,"polygon":10684,"quire":10685,"run":10686,"rinter":10687,"sb":10688,"send":10689,"sers":10690,"sService":10691,"sWith":10692,"speed":10693,"schema":10694,"skip":10695,"tou":10696,"uce":10697,"uid":10698,"uted":10699,"uve":10700,"utable":10701,"uÃ¡":10702,"vector":10703,"vationType":10704,"war":10705,"was":10706,"web":10707,"xi":10708,"xml":10709,"yles":10710,"ze":10711,"¡å¼":10712,"¢æĪ·":10713,"§°":10714,"¨æ":10715,"¨¡å¼":10716,"±è":10717,"¾Ħ":10718,"¿éĹ":10719,"åľ":10720,"æĿ":10721,"æ¨¡å¼":10722,"çº":10723,"ç«¯":10724,"ĠÐ":10725,"Ġtro":10726,"ĠIF":10727,"Ġimplem":10728,"ĠResponse":10729,"Ġve":10730,"ĠRequired":10731,"Ġelf":10732,"Ġ--------------------------------":10733,"Ġign":10734,"Ġview":10735,"Ġtid":10736,"Ġkernel":10737,"ĠRegistro":10738,"Ġä¸į":10739,"ervationType":10740,"ino":10741,"ince":10742,"inity":10743,"installation":10744,"rech":10745,"reset":10746,"relation":10747,"repertoire":10748,"tection":10749,"ene":10750,"ĠTV":10751,"ĠTCo":10752,"ĠTKey":10753,"ĠTQuery":10754,"ĠTWeb":10755,"ĠTHeader":10756,"ĠTDebug":10757,"ĠTAPI":10758,"ĠTChange":10759,"ĠTContext":10760,"ĠTElement":10761,"ĠTgame":10762,"ĠTTheme":10763,"ĠTotal":10764,"ĠTSearch":10765,"ĠTIso":10766,"ĠTWebPage":10767,"ĠTrack":10768,"ĠTcx":10769,"ĠTProblem":10770,"ĠTemp":10771,"ĠTela":10772,"ĠTVariable":10773,"ĠTKomunikat":10774,"ĠTArrowStyles":10775,"ĠTOutputDriver":10776,"ĠTRegistrationCmd":10777,"seur":10778,"orcamento":10779,"sto":10780,"star":10781,"stack":10782,"street":10783,"rok":10784,"ros":10785,"arer":10786,"arSystem":10787,"alled":10788,"alendar":10789,"unig":10790,"anted":10791,"anels":10792,"destination":10793,"thandle":10794,"asier":10795,"assembly":10796,"Ġpc":10797,"Ġpass":10798,"Ġpassword":10799,"Ġpower":10800,"Ġpixels":10801,"ĠSort":10802,"ĠSoc":10803,"ĠSplit":10804,"ĠSEC":10805,"taire":10806,"Ġca":10807,"Ġcm":10808,"Ġclock":10809,"ĠFType":10810,"ĠFDB":10811,"ĠFEvent":10812,"ĠFull":10813,"ĠFTYPE":10814,"ĠFFT":10815,"ĠFRest":10816,"ĠFChangeStatus":10817,"ĠFSenha":10818,"ĠFAno":10819,"ĠFPlaca":10820,"ĠFdq":10821,"---":10822,"etStore":10823,"itcount":10824,"ingPoint":10825,"cture":10826,"trap":10827,"beat":10828,"Ġfd":10829,"Ġfu":10830,"ĠfCustom":10831,"ĠfMax":10832,"Ġface":10833,"ĠfAllow":10834,"Ġfconnected":10835,"Ġframerate":10836,"ters":10837,"dutil":10838,"ĠCap":10839,"ĠCase":10840,"ĠCore":10841,"ĠCPort":10842,"ĠCliente":10843,"ĠCirc":10844,"Inven":10845,"Instruction":10846,"Installation":10847,"Ġoz":10848,"Ġopt":10849,"ĠPer":10850,"ĠPen":10851,"ĠPty":10852,"ĠPpt":10853,"ĠPMenu":10854,"ĠPFunction":10855,"ĠPThe":10856,"ĠPPtr":10857,"ĠPFDB":10858,"ĠPetStore":10859,"Could":10860,"ĠDoc":10861,"ĠDummy":10862,"Ġinte":10863,"Ġ=<":10864,"rio":10865,"Ġlay":10866,"ĠAFileName":10867,"ĠADefault":10868,"ĠABounds":10869,"ĠAfterConstruction":10870,"ĠAEMET":10871,"pee":10872,"Conec":10873,"Ġreload":10874,"Ġreally":10875,"Ġremote":10876,"Ġreplace":10877,"Ġreason":10878,"Ġreuss":10879,"ello":10880,"interval":10881,"interpreter":10882,"ĠLP":10883,"ĠLb":10884,"ĠLJSONArray":10885,"ĠLines":10886,"ĠLars":10887,"ĠLudo":10888,"Ġsp":10889,"Ġside":10890,"Ġslow":10891,"Ġsuspended":10892,"Ġskip":10893,"Ġsysex":10894,"ĠsLigne":10895,"-----":10896,"************":10897,"ifr":10898,"ifth":10899,"ĠGestion":10900,"ĠGFX":10901,"Ġwon":10902,"Ġwrapper":10903,"img":10904,"imize":10905,"verage":10906,"INI":10907,"INLIN":10908,"INVALID":10909,"Ġdh":10910,"Ġdst":10911,"Ġdid":10912,"Ġdll":10913,"Ġdmd":10914,"Resol":10915,"ĠIO":10916,"ĠIBGRA":10917,"ĠIMAGE":10918,"ĠIMG":10919,"DEBUG":10920,"licado":10921,"Ġmo":10922,"Ġmanager":10923,"Ġmactypes":10924,"ĠUThread":10925,"ĠUWebPage":10926,"ĠUCool":10927,"ĠUWebcam":10928,"ĠUMainForm":10929,"ĠUDataBase":10930,"ĠVector":10931,"atual":10932,"Ġ'\"":10933,"Ġ''));<":10934,"odelo":10935,"Ġstringlength":10936,"oot":10937,"ooan":10938,"ools":10939,"ONE":10940,"Ġfunctionname":10941,"Ġfunctionref":10942,"Ġfunctionnamelength":10943,"('#":10944,"idos":10945,"ĠWith":10946,"ĠWix":10947,"ĠWHILE":10948,"ĠWwdb":10949,"Ġdeleted":10950,"getDate":10951,"getTop":10952,"getCan":10953,"usr":10954,"login":10955,"Ġluacall":10956,"CoreUpdate":10957,"CoreInitialize":10958,"CoreTransform":10959,"CoreFinalize":10960,")</":10961,")<>":10962,"Ġnode":10963,"Ġncf":10964,"ĠBug":10965,"ĠBost":10966,"ĠBreakpoint":10967,"ĠBottom":10968,"ĠBAPSolution":10969,"ĠMET":10970,"ĠMASSE":10971,"Profile":10972,"bleme":10973,"ireExport":10974,"JSONLogin":10975,"ENUM":10976,"ENGTH":10977,"oggle":10978,"chang":10979,"Ġ//'":10980,"Ġ//ï¿½ï¿½":10981,"Ġresolve":10982,"ĠInvalid":10983,"ĠInstall":10984,"ĠIntegrityCheckCheck":10985,"perator":10986,"perCase":10987,"permission":10988,"DAB":10989,"DAR":10990,"FormFrm":10991,"light":10992,"ots":10993,"ParamType":10994,"ĠaException":10995,"ĠaLogin":10996,"ĠaSenha":10997,"External":10998,"Ġprovo":10999,"Ġproplist":11000,"ĠConsole":11001,"ToInteger":11002,"ToScreen":11003,"ToXS":11004,"Environ":11005,"StringType":11006,"Ġhot":11007,"Ġhost":11008,"Ġhex":11009,"tedtext":11010,"Ġest":11011,"Ġebx":11012,"Ġeasier":11013,"ClassType":11014,"Ġcond":11015,"Ġconven":11016,"Ġcontent":11017,"Delet":11018,"IntToStr":11019,"structure":11020,"ĠuniMulti":11021,"ĠuniComboBox":11022,"ĠuniScrollBox":11023,"ĠuniCheckBox":11024,"ĠDEBUG":11025,"Make":11026,"ĠuInt":11027,"ĠuCustom":11028,"ĠuBytes":11029,"ĠuCommand":11030,"Ġutil":11031,"ĠuUptime":11032,"ĠuMainForm":11033,"FileCtrl":11034,"SET":11035,"SEARCH":11036,"readkey":11037,"setHeight":11038,"SwagString":11039,"igMemoryAlloc":11040,"Arm":11041,"OnWin":11042,"OnExit":11043,"inton":11044,"intField":11045,"Paths":11046,"Ġtrect":11047,"Ġtmethod":11048,"Ġtlabel":11049,"Ġtstrings":11050,"Ġtjump":11051,"Ġtccl":11052,"AddHTTP":11053,"ĠRight":11054,"ĠGetThread":11055,"ĠGetField":11056,"ĠGetDog":11057,"ĠGetFormatSettings":11058,"ĠGetNome":11059,"Ġ2000":11060,"Ġ255":11061,"GetInit":11062,"ĠTBit":11063,"ĠTBPF":11064,"DBSet":11065,"ario":11066,"arition":11067,"ĠEach":11068,"ĠEasy":11069,"ĠEmbarcadero":11070,"SwaggerPath":11071,"SwaggerInfo":11072,"SwaggerHeader":11073,"SwaggerPathResponse":11074,"SwaggerParameter":11075,"SwaggerContact":11076,"ĠNFCe":11077,"Ġitself":11078,">//----------<":11079,">//--------------------<":11080,">{.$":11081,"Ġ0211":11082,"ĠFMin":11083,"ĠFMarca":11084,"ĠFMOD":11085,"ĠFModelo":11086,"IdDog":11087,"Ġxm":11088,"ĠTDyn":11089,"Unix":11090,"----------------------":11091,"optname":11092,"Question":11093,"artbeat":11094,"serdata":11095,"ffinity":11096,"ĠTCliente":11097,"ĠTCloneEvent":11098,"ITH":11099,"angFile":11100,"addr":11101,"addPolygon":11102,"addRectangle":11103,"Ġgive":11104,"Ġgrayscale":11105,"Scale":11106,"dits":11107,"TextWidth":11108,"TextStyle":11109,"TextHeight":11110,"TextBackground":11111,"ModuleLoader":11112,"ĠTPTA":11113,"ĠTPerson":11114,"ĠĠĠĠĠĠĠĠĠĠĠĠĠĠĠĠĠĠĠĠĠĠĠĠĠĠĠĠĠĠĠ":11115,"ĠdoError":11116,"ĠdoFinish":11117,"Ġexists":11118,"ĠOrigin":11119,"ĠOgada":11120,"Clients":11121,"ClientServer":11122,"ClientWidth":11123,"ClientHeight":11124,"BaseForm":11125,"BaseComponent":11126,"3254":11127,"acer":11128,"astDisassembleData":11129,"Ġstand":11130,"Ġrg":11131,"ĠSetNome":11132,"ounding":11133,"ĠDetail":11134,"ĠTLastDisassembleData":11135,"Ġfilectrl":11136,"ĠBGRAOpenGL":11137,"ĠBGRAGif":11138,"ĠBGRAPolygon":11139,"ĠBGRALayers":11140,"ĠBGRANeoButton":11141,"ServicePoo":11142,"ĠRewrite":11143,"ĠReplace":11144,"ĠRedistribu":11145,"incron":11146,"Ġcompati":11147,"ĠLuaByteTable":11148,"ĠLuaDiagram":11149,"needed":11150,"Ġvs":11151,"Ġvector":11152,"ocs":11153,"aob":11154,"ĠComObj":11155,"ĠRESTClient":11156,"AppSettings":11157,"Ġjump":11158,"ranularity":11159,"OrCur":11160,"taining":11161,"StatusForm":11162,"StatusText":11163,"StatusPanel":11164,"UserTo":11165,"Ġlista":11166,"Ġrecords":11167,"Company":11168,"Sep":11169,"Segment":11170,"Seconds":11171,"Secondary":11172,"trait":11173,"Routers":11174,"LPARAM":11175,"datetime":11176,"ShellAPI":11177,"Ġmach":11178,"CodeFinal":11179,"BitmapRawImageData":11180,"UTC":11181,"ĠIdx":11182,"ĠIdGlobal":11183,"ĠIdExplicit":11184,"ĠIdBaseComponent":11185,"ĠXS":11186,"fmod":11187,"ĠSelection":11188,"ĠSelected":11189,"MemoryRecord":11190,"addresslist":11191,"Area":11192,"comm":11193,"combobox":11194,"herit":11195,"WebCam":11196,"UsuÃ¡":11197,"Ġ31":11198,"WinSocket":11199,"bove":11200,"ĠgetQuery":11201,"ĠgetWidth":11202,"ĠgetHeight":11203,"ĠgetTexture":11204,"ĠgetInitQuery":11205,"ĠReservationType":11206,"ĠHash":11207,"ĠHWND":11208,"ĠHOOK":11209,"ĠTThreadMode":11210,"ĠTThreadID":11211,"ĠTThreadParse":11212,"ĠTThreadSrv":11213,"ĠTThreadDict":11214,"ĠOneGu":11215,"ĠOneZT":11216,"NoChange":11217,"NoContent":11218,"ĠTBGRALayerOriginalEntry":11219,"ĠFPCanvas":11220,"ServerInfo":11221,"ĠChang":11222,"newclass":11223,"Addresslist":11224,"MenuItem":11225,"ObjBDD":11226,"valu":11227,"DOWN":11228,"ĠJCharSequence":11229,"Ġque":11230,"Ġqueue":11231,"ĠTMVC":11232,"ĠTMulti":11233,"PanelUnit":11234,"TEUR":11235,"ĠTSym":11236,"ĠTSession":11237,"ĠTSemaphore":11238,"ĠTSubCadastros":11239,"ĠfrmFloat":11240,"ĠfrmDemo":11241,"ĠfrmSplash":11242,"ĠfrmStructures":11243,"Ġchannel":11244,"LineInfo":11245,"ĠTfrmAPI":11246,"ĠTfrmMultilineInputQuery":11247,"ĠTfrmAssemblyScan":11248,"ĠTfrmHotkeyEx":11249,"ĠTfrmDebuggerAttachTimeout":11250,"ĠTfrmPointerrescanConnectDialog":11251,"NotBe":11252,"evelSelect":11253,"tifier":11254,"RECT":11255,"achcpu":11256,"Download":11257,"DebugMode":11258,"DebugInterface":11259,"ĠProject":11260,"POINTER":11261,"ĠUnivers":11262,"Buffered":11263,"BufferItem":11264,"Ġimported":11265,"FFinish":11266,"ĠFileExists":11267,"TFunction":11268,"TFont":11269,"TFilter":11270,"MPL":11271,"Ġdatabase":11272,"IGHT":11273,"apparition":11274,"Ġnewhotkey":11275,"Ġlea":11276,"ROI":11277,"ROID":11278,"StyleNormal":11279,"Records":11280,"ĠTCustomBGRA":11281,"ĠTCustomWinSocket":11282,"ManagerForm":11283,"ĠEnter":11284,"params":11285,"HttpCode":11286,"HttpRouterManage":11287,"RunTime":11288,"Checker":11289,"CheckLst":11290,"Ġmodified":11291,"103254":11292,"ĠNextPos":11293,"atedGif":11294,"JsonObject":11295,"Configuration":11296,"GLuint":11297,"ĠCheckLst":11298,"ĠLazpaint":11299,"ĠLazFileUtils":11300,"MEssageBoxA":11301,"SendFile":11302,"itecture":11303,"Ġcecustom":11304,"Ġcepack":11305,"Cada":11306,"URLClient":11307,"ChangeEvent":11308,"Ġintersection":11309,"PAGE":11310,"codesize":11311,"codebase":11312,"Ġdisassemble":11313,"ĠFunctionality":11314,"Ġglu":11315,"ĠglEnd":11316,"ĠglBegin":11317,"Curl":11318,"CmdResultCode":11319,"ISession":11320,"baseaddress":11321,"ĠMensagem":11322,"PED":11323,"ĠStrTo":11324,"ĠStrID":11325,"ĠStrToDate":11326,"ĠrsNo":11327,"ĠrsFailure":11328,"AndWait":11329,"popup":11330,"writeindex":11331,"ĠUnitLogin":11332,"WordArray":11333,"ĠinitializeLuaCustom":11334,"ĠTServiceFactory":11335,"TCList":11336,"InputProcessor":11337,"Ġentries":11338,"ĠTDAOTeams":11339,"Drawer":11340,"Ġattach":11341,"OneHttpRouterManage":11342,"Tabs":11343,"Ġapplied":11344,"Ġhealth":11345,"Beat":11346,"Bearer":11347,"2019":11348,"Alpha":11349,"doFinish":11350,"PixelFmt":11351,"VirtualSet":11352,"FindTeam":11353,"FindDialog":11354,"Ġrenderobject":11355,"Ġmaxlevel":11356,"ĠmaxDevices":11357,"Ġcurrentarray":11358,"Ġcurrentbuffer":11359,"Portrait":11360,"ĠServiceExist":11361,"ĠMainCFG":11362,"Perc":11363,"ĠIntToHex":11364,"Operation":11365,"tribute":11366,"tributes":11367,"Ġscore":11368,"Ġcompare":11369,"AudioFormat":11370,"])));<":11371,"icons":11372,"icondirentry":11373,"ĠbtnCancel":11374,"Ġ''):":11375,"ĠReadln":11376,"ĠSelectH":11377,"ĠSelectW":11378,"MultiView":11379,"guiobject":11380,"recated":11381,"CurrentPath":11382,"SubItem":11383,"ĠTTreeView":11384,"Ġthreadid":11385,"Ġdebughelper":11386,"ADRP":11387,"ADRAR":11388,"SymbolData":11389,"ĠANDROID":11390,"checkwas":11391,"USes":11392,"Ġbaseaddress":11393,"Ġbaseunix":11394,"BackgroundColor":11395,"ĠTMainLayout":11396,"Entidades":11397,"ĠwhenError":11398,"ĠwhenFinish":11399,"memorystream":11400,"StructureForm":11401,"Minimum":11402,"boutBox":11403,"itemclick":11404,"ĠLastChange":11405,"ĠLastDisassembler":11406,"maxcount":11407,"ĠtempStream":11408,"LastError":11409,"Ġcurl":11410,"Ġstaticguiobject":11411,"ĠSpecializedMatrix":11412,"ĠSpecializedQueue":11413,"VESECTION":11414,"AllocationType":11415,"DoListForm":11416,"oleto":11417,"ĠTDataSor":11418,"ĠjsonObject":11419,"UpDown":11420,"ĠSwagProp":11421,"Ġmodulehandle":11422,"LoadFromFile":11423,"UPDA":11424,"UPPORT":11425,"ĠFOnLog":11426,"250":11427,"RIVATE":11428,"ĠTGBSwaggerModelJSONUtils":11429,"ĠTGBSwaggerModelJSONPath":11430,"ĠTGBSwaggerModelJSONInfo":11431,"LocalFile":11432,"netpipe":11433,"Ġexceptions":11434,"ĠDeleteUser":11435,"Ġcustomcontrol":11436,"LOG":11437,"Vertical":11438,"archkey":11439,"Spin":11440,"Ġhandles":11441,"ĠTDiagramConfig":11442,"AnimatedGif":11443,"ĠInternalCheck":11444,"TJSONFloatNumber":11445,"TCustomControl":11446,"Ġï¿½ï¿½ï¿½ï¿½ï¿½ï¿½ï¿½ï¿½ï¿½ï¿½":11447,"ĠTDemoBController":11448,"ĠTLogger":11449,"Ġfphttpclient":11450,"AMES":11451,"FIRST":11452,"ĠoldExceptionHandler":11453,"ĠoldAddressFile":11454,"ĠdmBanco":11455,"ĠgraphicControl":11456,"Ġradian":11457,"parentColor":11458,"Ġtake":11459,"Ġtaking":11460,"ĠTMethodCanvasPixels":11461,"ĠRunInThread":11462,"Ġcvn":11463,"Ġcvconst":11464,"ĠTBackStyle":11465,"Ġcharacter":11466,"tification":11467,"ĠParseMouse":11468,"CFE":11469,"PORTSMTP":11470,"ĠTHistor":11471,"ĠTRouters":11472,"ĠFSwaggerHeader":11473,"ĠFSwaggerContact":11474,"Refresh":11475,"Ġdisassemblerview":11476,"BeginUpdate":11477,"ĠTScreenSing":11478,"InitializeEvents":11479,"pedRegion":11480,"pedidos":11481,"ĠGLuint":11482,"---------------<":11483,"definedSymbol":11484,"ï¿½ï¿½ï¿½<":11485,").</":11486,">(*":11487,"ĠserviceExe":11488,"Overlay":11489,"Overlap":11490,"Ġinstaller":11491,"serviceExe":11492,"MouseButton":11493,"Sensitive":11494,"tlCenter":11495,"tlhelp":11496,"Ġclause":11497,"ĠclGray":11498,"Ġmenus":11499,"ĠUPathUtils":11500,"Ġgamebase":11501,"ĠTPageControl":11502,"ĠSetWindowLongPtr":11503,"ĠShowMessage":11504,"ĠShowModal":11505,"Black":11506,"lpte":11507,"ExtraSymbolData":11508,"ĠRTTI":11509,"odularSystem":11510,"Ġquar":11511,"RESSE":11512,"ĠTDotNetPipe":11513,"ĠTMyConnection":11514,"ĠTfoundlist":11515,"ĠTfPPal":11516,"tialiased":11517,"ChxCom":11518,"ĠTRenderCommand":11519,"ĠTRESTResponse":11520,"BASEPORT":11521,"ĠRenderEngine":11522,"ĠOpenGL":11523,"ĠFListeTailles":11524,"ĠFLangFile":11525,"Ġdiagramtypes":11526,"Ġdiagramblock":11527,"Ġdiagramlink":11528,"ĠTBGRAReaderCur":11529,"ĠTBGRAReaderXPM":11530,"åĲįç":11531,"Ġfreemem":11532,"atcherExtra":11533,"FPS":11534,"Toolhelp":11535,"WMISession":11536,"processhandle":11537,"ĠRegExpr":11538,"CoolWeb":11539,"Ġinfos":11540,"WebcamFrame":11541,"ĠMaxCount":11542,"Passwd":11543,"IFIER":11544,"ĠFormatDateTime":11545,"ĠiControllerEntity":11546,"plugins":11547,"FastBitmap":11548,"ĠFDPhysPgDriverLink":11549,"INITBU":11550,"ĠULyrics":11551,"ĠBorderWidth":11552,"ĠBorderHeight":11553,"Ġstarts":11554,"ĠvQryLogin":11555,"Ġmaintained":11556,"ĠTBGRAPixelColorspaceHelper":11557,"ĠJukeboxSongMenu":11558,"ĠTSQLConnection":11559,"screen":11560,"ĠTJSONStringType":11561,"Ġloading":11562,"Ġboite":11563,"ĠdwLength":11564,"DevInfoData":11565,"ĠOneClientHelper":11566,"Ġoffsets":11567,"Ġtextures":11568,"ĠScreenSing":11569,"CloneEvent":11570,"waitForThread":11571,"insn":11572,"Ġframework":11573,"ĠfrxClass":11574,"ĠfrxDBSet":11575,"Ġlibfmod":11576,"ĠBackground":11577,"PaletteForm":11578,"ĠĠĠĠĠĠĠĠĠĠĠĠĠĠĠĠĠĠĠĠĠĠĠĠĠĠĠĠĠĠĠĠĠĠĠĠĠĠĠĠĠĠĠĠĠĠĠĠĠĠĠĠĠ":11579,"STRING":11580,"CameraMode":11581,"*******************************************************}<":11582,"è®¿éĹ":11583,"ĠForward":11584,"Ġbullet":11585,"ĠIBQuery":11586,"ĠTGameObject":11587,"GetTicks":11588,"renderRelative":11589,"ĠOriginalGroupBoxHandler":11590,"libspeedhack":11591,"Ġtransform":11592,"Ġneeds":11593,"rimitiveType":11594,"äºĭ":11595,"ä¼ł":11596,"Ġagain":11597,"ĠENDWHILE":11598,"ĠTProviderArquivoNFeXML":11599,"ĠTdmBanco":11600,"ĠpushSymbol":11601,"ĠClinton":11602,"Ġmultiline":11603,"LoaderCommand":11604,"99999":11605,"TemplateSettings":11606,"CBr":11607,"çĶ¨":11608,"ĠTTabSheet":11609,"ĠColB":11610,"ĠColG":11611,"Ġdownto":11612,"ĠaValueFalse":11613,"ĠSwaggerValidator":11614,"IfNe":11615,"cricao":11616,"æľī":11617,"ĠTServerMethods":11618,"ĠCavalcanti":11619,"ĠCvn":11620,"ĠPPageEntryArray":11621,"CouId":11622,"Ġdxmdaset":11623,"ĠUSEINLIN":11624,"izarPagamento":11625,"Ġglobals":11626,"Serializers":11627,"ĠPointerscanNetwork":11628,"Ġsqlconnection":11629,"SYNC":11630,"CHEMINTo":11631,"Awareness":11632,"NativeCode":11633,"linklib":11634,"ĠTZConnection":11635,"ĠCELazySocket":11636,"///*":11637,"ĠTDWServerEvents":11638,"ĠiServiceFactory":11639,"ĠTPDClientXMLRPC":11640,"FMXImageList":11641,"ĠcoordinatesTable":11642,"okie":11643,"Ð²ÐµÐ":11644,"ĠTIBO":11645,"ĠTExpandedPixelColorspaceHelper":11646,"Ġcpunr":11647,"ĠIteration":11648,"ĠVirtualStringTree":11649,"ĠVEHSharedMem":11650,"ĠuSetupApi":11651,"ĠTCFGMAIL":11652,"Sequencia":11653,"Radius":11654,"åŃĺ":11655,"åŃĹç¬¦":11656,"ĠTChest":11657,"Ġpassed":11658,"ĠFFindForm":11659,"ĠPasswd":11660,"Confir":11661,"ĠUSkins":11662,"ĠTCEPModel":11663,"270":11664,"Ambiente":11665,"ĠINI":11666,"ĠTFieldType":11667,"ĠTStatResult":11668,"ĠTStatType":11669,"ĠTAudioInput":11670,"ĠcreatingBrush":11671,"etteur":11672,"Ġfonction":11673,"ĠPrevious":11674,"ĠPushIn":11675,"ĠPushOut":11676,"Ġ=====<":11677,"Referenced":11678,"pectedMagic":11679,"Ġrelated":11680,"Ġrelacion":11681,"ĠMODIFY":11682,"ĠMODIFIER":11683,"cheaten":11684,"ĠInputBoxTop":11685,"PathQueueElement":11686,"ĠNativeToXS":11687,"ĠTADOConnection":11688,"TLSClientServer":11689,"Ġcalculate":11690,"Verifie":11691,"ĠTMenuPrnData":11692,"ĠTMenuPrnReport":11693,"ĠTScreenPartyTournament":11694,"BADCFE":11695,"LIdUsuario":11696,"ĠFIsArray":11697,"ĠCmdResultDescr":11698,"Inspector":11699,"ĠVariant":11700,"Ġ'\\'":11701,"ĠBeforeDestruction":11702,"Proxy":11703,"ĠEmerson":11704,"ĠTParser":11705,"ĠfOnTimerCS":11706,"ĠTfViewPageTemplate":11707,"CodeBarreType":11708,"DpiAwareness":11709,"ĠTToTIso":11710,"ĠTTPEGinkoiaProtocolReceived":11711,"deadf":11712,"ĠSERVER":11713,"Ġoperations":11714,"Ġluaserver":11715,"ĠrestClient":11716,"Ġdotnetpipe":11717,"ĠTHorseCompressionType":11718,"Ġconversions":11719,"Architecture":11720,"ĠBGRAGradientScanner":11721,"Ġjavaowner":11722,"ProvidersConnection":11723,"AddressToSymbol":11724,"ĠsharedMemory":11725,"ĠAllocateHWnd":11726,"VariablesForm":11727,"ĠcoordinateTable":11728,"tialiasingMode":11729,"delphifr":11730,"AWARE":11731,"Claims":11732,"Join":11733,"Ulti":11734,"hookTemplateSettings":11735,"æĶ¶":11736,"Ġrota":11737,"ĠJString":11738,"ĠTNetworkPrinter":11739,"ĠSAVESECTION":11740,"ĠSmtp":11741,"Ġclicked":11742,"trieving":11743,"ĠPCvArr":11744,"Ġinstalled":11745,"ulateInitializeEvents":11746,"ĠAlerter":11747,"ĠWaitFor":11748,"Ġgradients":11749,"ĠBGRAFilterType":11750,"ĠTFireDacQuery":11751,"memRegionPos":11752,"PerformanceCounter":11753,"ĠExecuteLuaFunction":11754,"ĠTJavaArray":11755,"TCustomFTPSendFile":11756,"ĠvQryPesquisa":11757,"ĠTModelRoutineForm":11758,"æİ¥æĶ¶":11759,"ĠuSetupDiEnum":11760,"ĠPEInfoFunctions":11761,"ARCHIVAGE":11762,"Donate":11763,"Digest":11764,"Ellipse":11765,"IGBSwaggerHeader":11766,"OWNER":11767,"PlotPoints":11768,"RELEASE":11769,"Slide":11770,"TTooanAbstractClass":11771,"ÑĩÐ¸Ñģ":11772,"å®¢æĪ·":11773,"ĠÃł":11774,"Ġè¿ĶåĽŀç»ĵæŀľ":11775,"ĠLAZPAINT":11776,"ĠLoic":11777,"Ġdialogue":11778,"Ġmidifile":11779,"Ġdemos":11780,"ENABLED":11781,"PCvArr":11782,"SetWindowLongPtr":11783,"ĠuFormaPagamento":11784,"ĠuSynchroObjBDD":11785,"ĠReturn":11786,"ĠExtDlgs":11787,"ĠDevID":11788,"QueryExCache":11789,"ĠXMPLAYER":11790,"HandledDebugEvent":11791,"ĠTfrmChangedAddressesCommonalityScanner":11792,"ĠTCustomIconClass":11793,"PASSW":11794,"ĠrsMML":11795,"ĠSynchonizeProc":11796,"SafeCriticalSection":11797,"ediaPlayerDriverClass":11798,"iagnosisCmd":11799,"52301":11800,"67452301":11801,"Alert":11802,"BadRequest":11803,"Cfg":11804,"EFCDAB":11805,"HoraireExport":11806,"Illicado":11807,"MTYID":11808,"Persistence":11809,"QUADS":11810,"Treino":11811,"TJniMemscan":11812,"ibelle":11813,"jniGetString":11814,"kIndConcluido":11815,"touserdata":11816,"æ¨¡å¼ı":11817,"Ġtrouve":11818,"Ġimplemented":11819,"unige":11820,"Ġclockwise":11821,"ĠFRestServer":11822,"ĠFdqSequencia":11823,"ingPointPanelUnit":11824,"traparam":11825,"ĠfAllowUserTo":11826,"Inventaire":11827,"ĠPTheEvent":11828,"ĠPPtrUint":11829,"CouldNotBe":11830,"ĠAEMETTEUR":11831,"Conecta":11832,"Ġreussit":11833,"ĠLudovic":11834,"ĠskipAddressToSymbol":11835,"Ġluacaller":11836,"ĠBoston":11837,"ĠBreakpointTypeDef":11838,"ĠInstallService":11839,"Ġprovoque":11840,"Environment":11841,"ĠuniMultiItem":11842,"igMemoryAllocHandler":11843,"Ġtcclib":11844,"GetInitRouterManage":11845,"ĠEasyLazFreeType":11846,"ffinityMask":11847,"ĠTPTAcknowledgementCmd":11848,"ĠBGRAGifFormat":11849,"ServicePooler":11850,"BitmapRawImageDataMove":11851,"ĠIdExplicitTLSClientServer":11852,"UsuÃ¡rio":11853,"ĠHOOKEVENT":11854,"ĠTThreadParseList":11855,"ĠTThreadSrvCheckStatusMobilite":11856,"ĠOneGuID":11857,"ĠOneZTManage":11858,"ĠfrmFloatingPointPanelUnit":11859,"ĠTfrmAPIhookTemplateSettings":11860,"POINTERS":11861,"10325476":11862,"Ġcecustombutton":11863,"ADRPRINC":11864,"ADRARCH":11865,"checkwasvalid":11866,"ĠLastDisassemblerData":11867,"ĠTDataSoruce":11868,"ĠTHistorical":11869,"ĠclGrayText":11870,"åĲįç§°":11871,"INITBUF":11872,"è®¿éĹ®":11873,"ĠUSEINLINING":11874,"Ġrelacionado":11875,"InspectorForm":11876,"ĠTTPEGinkoiaProtocolReceivedCmdEvent":11877,"å®¢æĪ·ç«¯":11878,"HoraireExportNow":11879,"ĠIdExplicitTLSClientServerBase":11880,"!!":11881,"'ve":11882,")),":11883,")^;<":11884,"*(":11885,"*((":11886,"+}{$":11887,"-##":11888,".'<":11889,"/.<":11890,"/'+":11891,"28":11892,"210":11893,"31":11894,"41":11895,"47":11896,"88":11897,";*.":11898,";_';<":11899,">+":11900,">_":11901,">>;<":11902,"AUT":11903,"Age":11904,"Avatar":11905,"After":11906,"AProject":11907,"AWork":11908,"AFieldName":11909,"Absolute":11910,"AffinityMask":11911,"BG":11912,"Bal":11913,"Burn":11914,"BMask":11915,"Buf":11916,"Bold":11917,"Bias":11918,"Build":11919,"BCLabel":11920,"Boleto":11921,"Cel":11922,"Care":11923,"CAP":11924,"CRegion":11925,"Cpp":11926,"ClientesModel":11927,"Dist":11928,"DDL":11929,"DContact":11930,"DMQuantity":11931,"DRESSE":11932,"EA":11933,"EPL":11934,"Fr":11935,"FON":11936,"Fram":11937,"Funcoes":11938,"FHumRcd":11939,"GENT":11940,"GMask":11941,"GAMMA":11942,"Hal":11943,"Hint":11944,"IX":11945,"IDE":11946,"IRequest":11947,"IPL":11948,"Jog":11949,"JPG":11950,"JWT":11951,"JAVA":11952,"KL":11953,"Known":11954,"Land":11955,"LSE":11956,"LField":11957,"Light":11958,"LBody":11959,"LFoto":11960,"LhsBrackets":11961,"MB":11962,"MSc":11963,"Most":11964,"Mute":11965,"Mark":11966,"MNode":11967,"Margins":11968,"Merge":11969,"NAL":11970,"NCF":11971,"NKL":11972,"OID":11973,"Pad":11974,"Pix":11975,"PNext":11976,"PUID":11977,"PIPList":11978,"PRINTER":11979,"QWords":11980,"RV":11981,"Ro":11982,"Ru":11983,"RLE":11984,"Rich":11985,"RMask":11986,"SK":11987,"Sound":11988,"Software":11989,"SIZE":11990,"Sung":11991,"Success":11992,"SFS":11993,"Sincron":11994,"TId":11995,"Till":11996,"TButton":11997,"TStat":11998,"TCE":11999,"TBitmap":12000,"TDis":12001,"TMP":12002,"Termin":12003,"Tcustom":12004,"TEncoding":12005,"TVector":12006,"TXT":12007,"TGu":12008,"TFileStream":12009,"Terminated":12010,"TUSER":12011,"TCEPModel":12012,"TMonitor":12013,"TImageNtHeaders":12014,"TSyncSource":12015,"TRIGGER":12016,"ULua":12017,"Utf":12018,"UCoolTranslator":12019,"Vend":12020,"Vars":12021,"Was":12022,"WID":12023,"Wrap":12024,"WServerEvents":12025,"Xor":12026,"Zone":12027,"ZFREE":12028,"[(":12029,"\\****************************************************************************************":12030,"]:":12031,"])<":12032,"^,":12033,"^[":12034,"_}<":12035,"air":12036,"avg":12037,"bet":12038,"book":12039,"bass":12040,"bNouveau":12041,"cu":12042,"cre":12043,"cfunction":12044,"cour":12045,"cust":12046,"cio":12047,"crs":12048,"cancel":12049,"cgi":12050,"dbs":12051,"dency":12052,"eip":12053,"fin":12054,"fim":12055,"fId":12056,"fec":12057,"fill":12058,"gew":12059,"gory":12060,"graphic":12061,"ggle":12062,"how":12063,"hdebug":12064,"hits":12065,"ian":12066,"iao":12067,"iRow":12068,"jp":12069,"job":12070,"kl":12071,"lon":12072,"lst":12073,"lam":12074,"lus":12075,"lParam":12076,"ldd":12077,"lIndex":12078,"lHelp":12079,"lPortPrinter":12080,"lKomunikat":12081,"lpsz":12082,"mcd":12083,"mactypes":12084,"mrok":12085,"nRetorno":12086,"nmcd":12087,"ofp":12088,"otify":12089,"other":12090,"oCEPModel":12091,"ozilla":12092,"oClientesModel":12093,"ply":12094,"pPanel":12095,"priseCC":12096,"ql":12097,"ques":12098,"qrt":12099,"rus":12100,"rnil":12101,"sA":12102,"switch":12103,"samples":12104,"specific":12105,"sLines":12106,"sBet":12107,"sUrl":12108,"sFichier":12109,"sqlite":12110,"speak":12111,"scape":12112,"tk":12113,"tstrings":12114,"uree":12115,"uItem":12116,"vv":12117,"vend":12118,"vDesign":12119,"wide":12120,"xtypedef":12121,"ype":12122,"ybda":12123,"zer":12124,"},<":12125,"¥è®°":12126,"§£":12127,"´Ð¸":12128,"ÃŃ":12129,"Æ²":12130,"È£":12131,"Ð³":12132,"Ð´":12133,"Ð¹":12134,"Ñ´":12135,"å·":12136,"åĩ":12137,"åĬ":12138,"åĳ":12139,"åŀ":12140,"æł":12141,"çī":12142,"é¾Ħ":12143,"ĉĠ":12144,"Ġue":12145,"ĠObject":12146,"Ġvi":12147,"Ġtra":12148,"ĠHeader":12149,"Ġ];<":12150,"Ġ************************************************":12151,"ĠRegistros":12152,"Ġrotation":12153,"ĠERROR":12154,"Ġ?<":12155,"Ġrip":12156,"Ġç»ĵæŀľ":12157,"Ġäº¤":12158,"Ġ__________________________________________________________________________":12159,"ĠÆ²":12160,"Ģæľī":12161,"Ħı":12162,"ĵä¹":12163,"Ĺ¥è®°":12164,"eries":12165,"inherited":12166,"invalid":12167,"once":12168,"onal":12169,"onType":12170,"onChange":12171,"onKeyDown":12172,"rection":12173,"retch":12174,"readed":12175,"retrieving":12176,"tee":12177,"tech":12178,"teio":12179,"enames":12180,"entidade":12181,"entifier":12182,"ĠTs":12183,"ĠTag":12184,"ĠTem":12185,"ĠTree":12186,"ĠTww":12187,"ĠTEL":12188,"ĠTRead":12189,"ĠTAn":12190,"ĠTick":12191,"ĠTOpen":12192,"ĠTProgress":12193,"ĠTTeam":12194,"ĠTcolor":12195,"ĠTAuto":12196,"ĠTTag":12197,"ĠTConnect":12198,"ĠTEnum":12199,"ĠTOS":12200,"ĠTab":12201,"ĠTNt":12202,"ĠTImport":12203,"ĠTAnimation":12204,"ĠTAudioSystem":12205,"ĠTUtc":12206,"ĠTSeek":12207,"ĠTtarget":12208,"ĠTProvidersConnection":12209,"seen":12210,"orize":12211,"tices":12212,"stamp":12213,"rof":12214,"arth":12215,"arToken":12216,"arServidor":12217,"lex":12218,"legram":12219,"lelPortPrinter":12220,"als":12221,"alone":12222,"alRegistry":12223,"alresult":12224,"alpha":12225,"allelPortPrinter":12226,"unther":12227,"decoder":12228,"asis":12229,"asch":12230,"async":12231,"assign":12232,"asOrdem":12233,"asNumer":12234,"ascii":12235,"ĠpI":12236,"Ġpi":12237,"Ġpy":12238,"Ġpan":12239,"Ġpag":12240,"Ġput":12241,"Ġpword":12242,"Ġpages":12243,"Ġpatch":12244,"Ġpessoa":12245,"Ġplease":12246,"Ġprim":12247,"Ġpain":12248,"Ġpoly":12249,"Ġpause":12250,"Ġpiss":12251,"ĠSen":12252,"ĠSam":12253,"ĠSchema":12254,"ĠSamples":12255,"ĠSUB":12256,"ĠSWebPage":12257,"ĠSTR":12258,"ĠSPD":12259,"ĠSysex":12260,"ĠSCGIApp":12261,"Ġcls":12262,"Ġcoun":12263,"Ġcop":12264,"Ġcaption":12265,"Ġcirc":12266,"Ġcircular":12267,"Ġcanceled":12268,"ĠFun":12269,"ĠFss":12270,"ĠFColor":12271,"ĠFDate":12272,"ĠFaddress":12273,"ĠFAPI":12274,"ĠFCmd":12275,"ĠFItems":12276,"ĠFContext":12277,"ĠFConn":12278,"ĠFcod":12279,"ĠFAL":12280,"ĠFDS":12281,"ĠFDetail":12282,"ĠFRequiredMessage":12283,"ĠFContains":12284,"ĠFinish":12285,"ĠFolder":12286,"ĠFdes":12287,"ĠFInvalidFormat":12288,"ĠFNom":12289,"ĠFTrueValue":12290,"ĠFContentType":12291,"ĠFFileStream":12292,"ĠFFieldName":12293,"ĠFReturn":12294,"ĠFinished":12295,"ĠFurl":12296,"ĠFFormTop":12297,"ĠFGtf":12298,"esigner":12299,"eto":12300,"etros":12301,"etAlert":12302,"etlKomunikat":12303,"inga":12304,"trast":12305,"icate":12306,"bed":12307,"Ġfx":12308,"Ġfar":12309,"Ġfil":12310,"Ġfac":12311,"ĠfCanvas":12312,"ĠfEnabled":12313,"ĠfRender":12314,"Ġfowner":12315,"Ġfichier":12316,"ĠfFilename":12317,"ĠfCustomDraw":12318,"ĠfChildren":12319,"Ġfeature":12320,"terial":12321,"terline":12322,"ducer":12323,"ĠCDE":12324,"ĠCBuffer":12325,"ĠCMachine":12326,"ĠCST":12327,"ĠCrypt":12328,"ĠCMQuantity":12329,"ĠCBQuantity":12330,"ĠCrnil":12331,"Intro":12332,"Inch":12333,"InSet":12334,"Inform":12335,"InFileName":12336,"Individual":12337,"InjectedEvent":12338,"atest":12339,"yswi":12340,"Ġour":12341,"ĠoCS":12342,"ĠPRe":12343,"ĠPoint":12344,"ĠPTInt":12345,"ĠPRO":12346,"ĠPTReal":12347,"ĠPContext":12348,"ĠPVE":12349,"ĠPAlloc":12350,"ĠPMidi":12351,"ĠPSP":12352,"ĠPlot":12353,"ĠPNG":12354,"ĠPMidiEvent":12355,"ĠProcesses":12356,"ĠPadding":12357,"Ġthree":12358,"Ġthink":12359,"Cour":12360,"ĠDon":12361,"ĠDirect":12362,"ĠDIB":12363,"ĠDOS":12364,"ĠDÃ©":12365,"ĠDWServerEvents":12366,"ĠDuree":12367,"ĠDybda":12368,"orseRecordNumber":12369,"Ġinject":12370,"Ġintegrity":12371,"rier":12372,"ulls":12373,"Ġlcl":12374,"Ġlower":12375,"Ġloaded":12376,"Ġldark":12377,"agged":12378,"agens":12379,"isCall":12380,"isnil":12381,"ĠAt":12382,"ĠAColor":12383,"ĠADataSet":12384,"ĠAShow":12385,"ĠASource":12386,"ĠAActive":12387,"ĠARate":12388,"ĠAPlaylist":12389,"ĠAContentType":12390,"ĠAFileStream":12391,"ĠADest":12392,"ĠACBr":12393,"Reset":12394,"Redo":12395,"Remember":12396,"ResetableThread":12397,"Relations":12398,"Remover":12399,"Retaining":12400,"raus":12401,"raps":12402,"Contra":12403,"Ġreset":12404,"ouken":12405,"ouwm":12406,"ĠLant":12407,"ĠLoto":12408,"ĠLFoto":12409,"ĠLyrics":12410,"clampF":12411,"Ġsf":12412,"Ġsim":12413,"Ġsent":12414,"Ġswag":12415,"Ġsound":12416,"ĠsBar":12417,"Ġsimple":12418,"Ġspecial":12419,"Ġspk":12420,"Ġsurface":12421,"Ġssl":12422,"Ġstill":12423,"Ġsymbols":12424,"Ġspeak":12425,"ĠGT":12426,"ĠGEx":12427,"ĠGRA":12428,"ĠGoogle":12429,"ĠGroupBox":12430,"ĠGAPPPATH":12431,"Ġwww":12432,"Ġwere":12433,"Ġwraps":12434,"toInteger":12435,"Ġbar":12436,"ĠbTo":12437,"Ġbox":12438,"ĠbSh":12439,"Ġbirthday":12440,"Ġbasis":12441,"imo":12442,"imeter":12443,"ĠdL":12444,"Ġdi":12445,"Ġdog":12446,"Ġdirect":12447,"Ġdirectory":12448,"Ġddc":12449,"Resize":12450,"Resample":12451,"ataCNPJ":12452,"ĠIService":12453,"ĠIAsync":12454,"Ġprocedures":12455,"lications":12456,"Ġmut":12457,"ĠmPanel":12458,"Ġmove":12459,"Ġmany":12460,"ĠUI":12461,"ĠUText":12462,"ĠUController":12463,"ĠUUtil":12464,"ĠURecord":12465,"ĠURI":12466,"ĠUSing":12467,"ĠUSER":12468,"ĠUNIX":12469,"ĠVer":12470,"Ġ'/":12471,"Ġ'',":12472,"andling":12473,"functionname":12474,"functionpointer":12475,"phone":12476,"ubscri":12477,"eme":12478,"('%":12479,"('@":12480,"('')":12481,"idUser":12482,"idServico":12483,"idMatch":12484,"idCarro":12485,"idPeca":12486,"ĠWorseRecordNumber":12487,"edUpdate":12488,"Ġdelay":12489,"Ġdezenas":12490,"typeinfo":12491,"utDown":12492,"getIndex":12493,"getBitmap":12494,"getSelected":12495,"ille":12496,"iliti":12497,"Listar":12498,"ListString":12499,"ListUpdate":12500,"ListAll":12501,"ListListByte":12502,"CallOr":12503,"lobj":12504,"backup":12505,"Telegram":12506,")<>(":12507,"izer":12508,"Ġnt":12509,"Ġnet":12510,"Ġnone":12511,"Ġnative":12512,"Ġnpp":12513,"ĠBin":12514,"ĠBAR":12515,"ĠBias":12516,"ĠBuffers":12517,"ĠBetween":12518,"ĠBuilder":12519,"ĠTHorseList":12520,"ĠMan":12521,"ĠMost":12522,"ĠMEM":12523,"ĠMozilla":12524,"Stretch":12525,"Prod":12526,"Prolog":12527,"Ġ(:":12528,"Ġ(((":12529,"Stats":12530,"ĠoverFlow":12531,"Pause":12532,"ĠIndividual":12533,"ĠInserir":12534,"DAddress":12535,"FormMain":12536,"FormUnit":12537,"liers":12538,"Paramstr":12539,"Ġafim":12540,"Valued":12541,"Ġproject":12542,"Ġproperties":12543,"Ġprobably":12544,"ĠContext":12545,"esso":12546,"Ġtoggle":12547,"ToJSONArray":12548,"ToXYZ":12549,"ToNative":12550,"ToBin":12551,"ToLower":12552,"ToClipboard":12553,"ToFr":12554,"Engl":12555,"Entries":12556,"Encrypt":12557,"umin":12558,"StringTo":12559,"StringUTF":12560,"Ġhr":12561,"Ġhorse":12562,"Ġhigh":12563,"Ġhandling":12564,"Ġelement":12565,"Ġeps":12566,"Ġequiv":12567,"Ġebp":12568,"Ġeenabled":12569,"Ġbeginning":12570,"ResultArray":12571,"ResultTeam":12572,"DataSource":12573,"DataBlock":12574,"DataReady":12575,"Ġcontnrs":12576,"ĠTGL":12577,"ĠTGPoint":12578,"ĠTGinkoia":12579,"ĠTGnk":12580,"Dezenas":12581,"Depth":12582,"ibus":12583,"ibge":12584,"CreateS":12585,"CreateForm":12586,"CreateId":12587,"ĠuniTimer":12588,"ĠuniMemo":12589,"ĠuniProgressBar":12590,"ĠuniDateTimePicker":12591,"ĠuniURLFrame":12592,"ĠuniSyntax":12593,"ĠuniScreenMask":12594,"Luavm":12595,"RADDR":12596,"ĠDEMO":12597,"ComObj":12598,"Apura":12599,"Ġ[{\"":12600,"arect":12601,"SetSelect":12602,"SetEvaluation":12603,"ĠuMessage":12604,"ĠuVersion":12605,"ĠuDefs":12606,"ĠuMsg":12607,"ĠuFrm":12608,"ĠuTile":12609,"ĠuFMOD":12610,"ĠuZVTProtocolManager":12611,"FileDescription":12612,"FileDesc":12613,"setId":12614,"setFormat":12615,"settings":12616,"setColumn":12617,"setLastBranchRecord":12618,"Ġ14":12619,"NameA":12620,"ĠisBreak":12621,"Ġisfirst":12622,"loadFromFile":12623,"StateIndex":12624,"SysMemo":12625,"SwagPath":12626,"SwagPOST":12627,"SwagPUT":12628,"SwagDELETE":12629,"Arrays":12630,"ArqIni":12631,"Once":12632,"OnDestroy":12633,"OnTaskBar":12634,"Onibus":12635,"Ġtl":12636,"Ġtq":12637,"Ġtstream":12638,"Ġtcanvas":12639,"AddUrl":12640,"AddVectoredExceptionHandler":12641,"ĠRLP":12642,"ĠRating":12643,"ĠRPG":12644,"ĠRtl":12645,"ĠRadioGroup":12646,"ĠRichEdit":12647,"TypeInfo":12648,"ĠGetCode":12649,"ĠGetRead":12650,"ĠGetCurrent":12651,"ĠGetComboBox":12652,"ĠGetExtension":12653,"ĠGetStatistic":12654,"ĠGetUnMedida":12655,"ĠGetBufferQuantity":12656,"ĠGetErrorCode":12657,"ĠGetRandom":12658,"ĠGetBufferMemory":12659,"ĠGetMachineMemory":12660,"ĠGetClock":12661,"ĠGetInfosBase":12662,"ï¿½.<":12663,"Ġ2147483647":12664,"Gettop":12665,"GetCount":12666,"GetProgress":12667,"GetModuleName":12668,"GetStatistic":12669,"GetLocalized":12670,"tendency":12671,"ĠTBreakpoint":12672,"ĠTBinary":12673,"ĠTBounds":12674,"ĠTBigMemoryAllocHandler":12675,"TPT":12676,"TPointer":12677,"TPDManager":12678,"TPhone":12679,"ualSong":12680,"ariou":12681,"Chr":12682,"Chunk":12683,"ĠStrings":12684,"ĠEHttp":12685,"ĠECR":12686,"ĠELSE":12687,"istrar":12688,"ĠNetwork":12689,">//*":12690,">//\\****************************************************************************************":12691,">{__________________________________________________________________________":12692,"erspec":12693,"ARate":12694,"Ġ04":12695,"Ġxx":12696,"ĠxJSONLogin":12697,"ĠFormDestroy":12698,"TimeSeries":12699,"TimeToIso":12700,"ĠTDiagnosisCmd":12701,"ĠTDesigner":12702,"Arrayäºĭ":12703,"Undefined":12704,"ThreadDebug":12705,"ThreadEnv":12706,"Models":12707,"ecx":12708,"ItemId":12709,"claration":12710,"opcode":12711,"opLogo":12712,"Ġipt":12713,"ĠiModel":12714,"ĠiGeneric":12715,"ĠiDao":12716,"wordpress":12717,"UIGraphics":12718,"servico":12719,"ableBitmap":12720,"urent":12721,"ĠTCMD":12722,"ĠTCSN":12723,"ĠTCSSUnit":12724,"ĠTCalendar":12725,"ĠTCDContact":12726,"ĠTCPUID":12727,"ĠTCDAddress":12728,"ĠThandle":12729,"ColorInt":12730,"ColorSet":12731,"ColorBox":12732,"Imagens":12733,"ĠStas":12734,"Ġwritefile":12735,"Ġwritebytes":12736,"pushnumber":12737,"pushccl":12738,"HTTPProd":12739,"Ġgr":12740,"Ġgoto":12741,"Ġgeneric":12742,"Ġgraus":12743,"********************************************":12744,"Scal":12745,"Scene":12746,"TextFile":12747,"TextRect":12748,"Textura":12749,"ModuleInfo":12750,"ModuleHandle":12751,"FieldValues":12752,"FieldValueAsObject":12753,"ĠTPopulation":12754,"ĠTPrinter":12755,"EventHandle":12756,"derline":12757,"ĠĠĠĠĠĠĠĠĠĠĠĠĠĠĠĠĠĠĠĠĠĠĠĠĠĠĠ":12758,"ĠĠĠĠĠĠĠĠĠĠĠĠĠĠĠĠĠĠĠĠĠĠĠĠĠĠĠĠĠĠĠĠĠĠ":12759,"Ġbeat":12760,"Ġextended":12761,"ATUS":12762,"ATIV":12763,"ĠCreateBrush":12764,"ĠOut":12765,"ĠOld":12766,"ĠOffset":12767,"ClientClass":12768,"BaseData":12769,"BaseDialog":12770,"EditFrom":12771,"tica":12772,"325":12773,"access":12774,"Ġ+$":12775,"DateTo":12776,"StrToDate":12777,"health":12778,"Ġstuff":12779,"Ġstyles":12780,"Ġrbp":12781,"ĠSetData":12782,"ĠSetStyle":12783,"ĠSetProgress":12784,"ĠSetSelect":12785,"ĠSetUnMedida":12786,"ĠSetErrorCode":12787,"ĠSetnRetorno":12788,"ĠSetEditFrom":12789,"Interact":12790,"Interbase":12791,"ImageButton":12792,"ĠDef":12793,"ĠDeclarations":12794,"ĠDejan":12795,"Exceptions":12796,"ExceptionOn":12797,"ExceptionCode":12798,"outliers":12799,"ĠTLMessage":12800,"ĠTLocal":12801,"ĠTLoad":12802,"ĠTLarge":12803,"Ġfilelist":12804,"ĠBGRAButton":12805,"ĠBGRAWin":12806,"ĠBGRASamples":12807,"ĠBGRAPalette":12808,"ĠBGRAVirtualScreen":12809,"ĠBGRAImageManipulation":12810,"ĠBGRAScene":12811,"Ġuseascii":12812,"MeDown":12813,"ĠRelease":12814,"ĠRemote":12815,"ĠReduceLine":12816,"listunit":12817,"datatype":12818,"lyEvent":12819,"incColor":12820,"Parts":12821,"Parser":12822,"Ġcompress":12823,"MessageInfo":12824,"ICODE":12825,"Ġvg":12826,"Ġvk":12827,"vider":12828,"URSOR":12829,"math":12830,"Ġprograma":12831,"GeneralRegistry":12832,"ĠTFrame":12833,"ĠTFRM":12834,"ĠRESTResponse":12835,"ĠRESTServicePooler":12836,"Apply":12837,"Ġjs":12838,"ĠjEnv":12839,"Ġjpeg":12840,"QueryFileName":12841,"OrEqual":12842,"tainment":12843,"NewObject":12844,"NewList":12845,"NewRecord":12846,"NewSolution":12847,"NewRound":12848,"CEDebugger":12849,"anvalue":12850,"ances":12851,"Ġonce":12852,"HIS":12853,"ĠFreeBufferMemory":12854,"ĠFreeMachineMemory":12855,"LEBAR":12856,"ĠTListObjectList":12857,"Short":12858,"Shadow":12859,"Ġmatrix":12860,"APGA":12861,"CodeObject":12862,"Codepoint":12863,"ĠControleModalAjuda":12864,"ĠControleConsultaGerarDocumento":12865,"ĠControleCadastroVinculoUsuario":12866,"ĠControleMensagemErro":12867,"ĠControleEnviaMensagemAguarde":12868,"ĠControleImpressaoDocumento":12869,"ĠIdLog":12870,"ĠIdHeader":12871,"ĠIdURI":12872,"ĠIdWebDAV":12873,"ĠIdSocks":12874,"ĠIdUDP":12875,"ĠIdCustomHTTPServer":12876,"Logs":12877,"LogForm":12878,"LogStatus":12879,"exported":12880,"ĠXml":12881,"ĠXPW":12882,"Ġusuario":12883,"Serialized":12884,"ĠSection":12885,"ĠSecondary":12886,"RegisterModification":12887,"MemoryLe":12888,"Views":12889,"Ġmemrech":12890,"Ġsepar":12891,"Ġsecondary":12892,"Ġsearchkey":12893,"InterfaceUses":12894,"Tables":12895,"TableNames":12896,"comport":12897,"comments":12898,"commen":12899,"Ġ30":12900,"Ġ300":12901,"IsExp":12902,"WinUpdate":12903,"ĠgetB":12904,"Ġgets":12905,"ĠgetTab":12906,"ĠgetArrayFunction":12907,"coeficiente":12908,"ĠHome":12909,"ĠHook":12910,"ĠHANDL":12911,"ĠHDEVINFO":12912,"ĠOneGet":12913,"ĠOneGlobal":12914,"ĠOneILog":12915,"ĠTBGRAVector":12916,"Defect":12917,"UniMainModule":12918,"Ġfpanel":12919,"ĠChp":12920,"newhotkey":12921,"ĠIGBSwaggerSecurity":12922,"ĠIGBSwaggerValidator":12923,"peca":12924,"AddressList":12925,"ĠDataSetConverter":12926,"MenuIndex":12927,"values":12928,"DOSS":12929,"ĠsetWidth":12930,"ĠsetHeight":12931,"ĠsetArrayFunction":12932,"ĠsetDsCep":12933,"MessagesForm":12934,"PanelClass":12935,"Ġpointers":12936,"Ġpointerparser":12937,"Ġpointeraddresslist":12938,"ĠTSP":12939,"ĠTSpk":12940,"ĠfrmMain":12941,"ĠfrmConsulta":12942,"ĠfrmProcess":12943,"ĠfrmStack":12944,"ĠfrmHelp":12945,"ĠfrmMicro":12946,"ĠfrmTracer":12947,"CustomGinkoia":12948,"Ġalgor":12949,"ĠTGListObjectList":12950,"Chars":12951,"LineOrder":12952,"LineThickness":12953,"TYP":12954,"ĠTfrmDevuelta":12955,"ĠTfrmAniversariante":12956,"ĠANaglowek":12957,"Ġmean":12958,"REGE":12959,"REATE":12960,"REPID":12961,"ĠTextString":12962,"Antialiased":12963,"msHex":12964,"Ġsizeofp":12965,"atchListForm":12966,"libfbclient":12967,"plode":12968,"ĠTRGB":12969,"Ġconstants":12970,"FromEdit":12971,"FromAddress":12972,"FromXYZ":12973,"ĠUniMemo":12974,"ĠUniSpeed":12975,"ĠUniProgressBar":12976,"ĠUniServerModule":12977,"ĠUniDateTimePicker":12978,"ĠUniURLFrame":12979,"ĠUniDBLookupComboBox":12980,"UpdateChecker":12981,"GenericFileList":12982,"FFA":12983,"fered":12984,"ĠFileCtrl":12985,"ĠFileInfos":12986,"ipRelativeScanner":12987,"locked":12988,"MPlugin":12989,"ĠdataApura":12990,"ĠMail":12991,"ĠMajor":12992,"IGO":12993,"ĠTUniMemo":12994,"ĠTUniImageList":12995,"ĠTUniProgressBar":12996,"ĠTUniDateTimePicker":12997,"ĠTUniDBLookupComboBox":12998,"ĠTGBSwaggerSecurity":12999,"applications":13000,"FontCollection":13001,"Ġlet":13002,"Ġmodalresult":13003,"RecordList":13004,"ĠTCustomImageList":13005,"Valide":13006,"ĠEnum":13007,"ĠEncd":13008,"ereg":13009,"mozilla":13010,"oolPaletteForm":13011,"ĠTStringlist":13012,"property":13013,"probab":13014,"provider":13015,"paramtype":13016,"ĠTFormClass":13017,"ĠTFormMensagem":13018,"regarToken":13019,"Ġbytesize":13020,"Ġbytestable":13021,"memregion":13022,"uxe":13023,"recordSignature":13024,"rounding":13025,"FrameLoaded":13026,"ProcessList":13027,"ProcessMessages":13028,"Runtime":13029,"CheckGroup":13030,"ĠDoCheck":13031,"ĠDoChecks":13032,"Ġwarquivo":13033,"ĠredF":13034,"barMode":13035,"ĠNextScreen":13036,"FreeHeap":13037,"FreeVirtualMemory":13038,"ENTTYPE":13039,"**********************************************************************":13040,"jsonobject":13041,"jsonArrayäºĭ":13042,"atedRegion":13043,"ï¿½ï¿½ï¿½ï¿½ï¿½":13044,"ositive":13045,"ĠRegisterRouters":13046,"ildcard":13047,"0008":13048,"MSWINDOWS":13049,"EntryTable":13050,"EntryPoint":13051,"WindowProc":13052,"aks":13053,"Ġ400":13054,"ĠCheckBox":13055,"ĠCheckListBox":13056,"ĠAdder":13057,"ĠAddBet":13058,"LICATION":13059,"MADE":13060,"Ġ5100":13061,"Ġ2001":13062,"APIBASE":13063,"APIWrapper":13064,"Ġinteract":13065,"Ġinterval":13066,"Ġinterest":13067,"Plage":13068,"Place":13069,"ĠTAffine":13070,"ĠTAboutBox":13071,"OpenKey":13072,"Progressive":13073,"ShowDll":13074,"ĠglDisable":13075,"ĠglEnable":13076,",'');<":13077,"Ġstructname":13078,"ĠStartRestore":13079,"balls":13080,"baseConfig":13081,"EndUpdate":13082,"EndCap":13083,"iagonal":13084,"izedFont":13085,"****************************************************************************":13086,"AllDialog":13087,"BOF":13088,"rollback":13089,"ĠStrToStr":13090,"Ġrsp":13091,"AndAspectRatio":13092,"AndChecks":13093,"galCopy":13094,"DeviceList":13095,"Ġmemoryview":13096,"Ġmemoryregions":13097,"Funcion":13098,"filelist":13099,"aussi":13100,"ofs":13101,"ofAll":13102,"ĠShutDown":13103,"WordWrap":13104,"ĠTStreamInteger":13105,"ĠTStreamPointer":13106,"Ġnote":13107,"Ġcontroller":13108,"ĠTServiceAuth":13109,"ĠTServiceCliente":13110,"ĠFPS":13111,"ĠFPImg":13112,"ĠTFrmAccountView":13113,"RaiseExceptionOn":13114,"ĠTWnd":13115,"ĠTWork":13116,"InputID":13117,"Inputbox":13118,"Theoretical":13119,"Elements":13120,"Ġenable":13121,"Ġengine":13122,"Ġentrynr":13123,"Ġarect":13124,"LegalCopy":13125,"BlockSideDescriptor":13126,"poListArray":13127,"poAutoCreated":13128,"poPHPArray":13129,"poDoNotEncode":13130,"poFlatArray":13131,"poTransient":13132,"ĠTDAOFactory":13133,"ĠTDAOPecas":13134,"Draws":13135,"DrawEffect":13136,"OneWork":13137,"columns":13138,"TabuList":13139,"Puting":13140,"ĠcontainerHeight":13141,"MaxWidth":13142,"Ġtrusted":13143,"Ġtrigger":13144,"ĠPTB":13145,"ĠPTString":13146,"ĠPTChar":13147,"ĠPTMachineLine":13148,"para":13149,"UNKNO":13150,"rows":13151,"ALL":13152,"NextPos":13153,"NextCaller":13154,"ĠlastName":13155,"ĠlastUpdate":13156,"ĠlastAccessed":13157,"Trav":13158,"Trainer":13159,"ĠstrResult":13160,"ĠTNewHeaderControl":13161,"ĠTNewNoteBookStringsTabControl":13162,"ĠTNewStatusBar":13163,"ĠArtist":13164,"ĠArgs":13165,"waterline":13166,"ĠQAdd":13167,"ĠQlp":13168,"ĠQSort":13169,"Ġreturned":13170,"VERSIONING":13171,"DestroyHeap":13172,"DefaultFields":13173,"DefaultDll":13174,"Commands":13175,"CommandListUpdate":13176,"Playing":13177,"ĠKeyType":13178,"ĠMainForm":13179,"ĠMainModule":13180,"240":13181,"244":13182,"2424":13183,"PerPixel":13184,"luginversion":13185,"Ġarch":13186,"ĠCharInSet":13187,"ĠTControleConsultaModalCPFCliente":13188,"itions":13189,"Ġscenery":13190,"Ġscanvalue":13191,"ServicoPorId":13192,"])+'":13193,"])),'":13194,"ĠFindUser":13195,"icondir":13196,"ĠbtnOK":13197,"ĠbtnOk":13198,"ĠUScreenJukebox":13199,"Ġ''%":13200,"Ġ'');":13201,"ĠeventList":13202,"ĠReadIndex":13203,"ĠReadProcessMemory":13204,"ĠSelectRounds":13205,"AutoCalc":13206,"MultiSelected":13207,"gui":13208,"ä¸Ĭ":13209,"ĠTRequestClient":13210,"ĠTRequestHandler":13211,"ĠTRequestIndy":13212,"ĠTRequestNetHTTP":13213,"ĠptSocks":13214,"SelectAll":13215,"Subscri":13216,"Ġthreadlist":13217,"ĠdebugHelper":13218,"ADDRESSE":13219,"ĠParsers":13220,">///****************************************************************************************":13221,"WriteByte":13222,"WriteBuffer":13223,"WriteToStream":13224,"ĠFTermsOfService":13225,"ĠPBreakpoint":13226,"checkonly":13227,"USR":13228,"ĠTMainMenu":13229,"Orcamentos":13230,"Ġeditor":13231,"CTORED":13232,"Filtered":13233,"FilterOptions":13234,"ĠfOnChange":13235,"ĠUserList":13236,"ĠUserGate":13237,"ĠConvertString":13238,
[...]
